4454
47DE
793
4846
5640
2039
4831
4060
2200
7E35
23D1
4D95
B64
5B9B
372
74E7
188C
600D
2173
170B
3C8C
3FB6
12F3
549B
72E5
444C
20E7
7B91
2410
7E72
7494
2780
198B
25B6
766D
61AD
34C7
7ED
46AA
4261
2CCE
56BC
2FBE
4DD3
627C
15D2
3839
B3D
6B41
4583
889
2724
7B87
64A7
D5A
1297
11B3
20C6
2F97
1CC4
2070
1D53
41E7
3878
6A7B
3F5E
420E
4A5F
530A
DB8
5C81
42DD
7942
6EE
3DBC
7F4A
6ADA
4EFC
6470
D2E
A5F
43A3
2607
384D
3BEA
3313
4980
3884
31D7
27D1
4906
17B9
1A1B
51C
7E3
BC7
3CF3
60B8
5A81
18E7
6262
36BC
14E6
4334
20FD
6451
2CB5
CC
65DB
1A05
1953
2593
5F49
5004
7746
407B
C3E
4E85
2AEA
7391
4961
6978
62CE
3742
2E1E
1FEF
C9B
6900
7739
71E3
7F5F
3AB2
5685
6DED
1F16
71A3
36DA
2223
5D2
6C2E
256
7AE0
60E2
FA7
2F12
2B5B
11F0
6C00
7DBF
7CAD
4DF8
16BC
8B0
54D3
59F1
4364
3C37
20E4
2886
2091
71D6
57CC
1FD8
7C4F
7643
4EB
27C7
2F37
4240
60B
7908
1658
60D7
692E
7F39
2937
38A
755E
3A8E
1EA9
718A
37FA
7037
6E7C
41B6
13C
1A9A
5937
297B
B1
5279
5FE0
71D4
6451
5743
3DCE
2A03
7A4C
C34
6CAE
55B4
7275
7285
3742
1888
7865
49DA
6F52
6B55
4683
2368
57E
D31
3E9
BE6
6C6C
66FE
6A85
24C4
1358
508
5EB5
7E0E
5085
714A
5144
198E
74B4
C72
1CE8
6D14
506B
2EB0
12BC
7521
2F44
6CEF
56AD
5A9D
5768
1BC0
7369
2394
4421
7EE3
69D5
659E
4454
706C
7792
3176
45A0
514D
6B39
60E7
677B
2816
494A
410
766
5A8C
7DFF
2BD0
20AA
38E
6F54
330E
6D87
45B6
4F48
7198
21B0
3630
196F
5DB8
1B39
7A66
70C6
257A
3142
2A14
499F
795D
485E
3CEB
2652
3F04
85A
4F55
7D46
4586
7673
38B8
7C1C
7366
6A3C
6CC7
6627
607B
24D9
366E
2
2816
7C42
1CEA
50AD
613C
750E
2AC
2119
F18
4602
4767
28D7
6D38
7E31
7C67
1DF6
5615
2BB2
1A8E
6425
5F07
6659
528A
592F
5F43
5BB4
632F
5636
7BEF
2850
1E4E
45DB
24BD
38FE
1C70
502E
7ADD
11C7
23A5
7D24
487F
1DD1
40DE
BA1
6CDC
7EA0
1C59
49F3
649C
1C36
5A53
2209
7ABF
30A4
579F
D32
303C
D2A
7ED6
1E1A
7F7E
3CB9
6DBF
7CB7
73C6
752
7EEF
20A0
73C
202E
6C52
6BBB
27B8
B1C
17AA
184D
58E9
8E0
1BE1
46EF
1ACA
38E7
1AEE
7D68
390A
36DC
5C3F
77A9
5E1A
3A2
5C5
4957
788B
2B97
53E0
2ADB
1DDE
1FD3
27D0
6240
65C1
9B6
6CC2
673D
3BBB
4F7D
45B6
6C05
7AF6
65C7
5EC1
6063
4829
7BFF
5A6F
6E78
5C71
2CBD
260A
4FFF
2027
2040
76A9
FC6
591B
3A8
6C08
3A1
4F93
2E4B
3E11
4214
97
75E4
614
3110
3E97
2AC0
21CB
1A95
6689
35B9
50DC
6483
5633
35F8
6FC2
1D5F
7470
3A79
607
203B
80E
EB2
57AB
3205
207D
160D
5114
65ED
528
2AAE
5880
6892
455B
3105
60D4
7C8C
843
2B22
BC5
1FE2
39C4
455A
70D0
1F8
3F90
1A35
7D2A
272
27E2
222D
7856
4CEA
6333
4516
3206
1DDA
22F1
5DA4
E19
422
13
2265
4D2B
369
8E0
5C03
3289
5F95
1D7
34B0
36F6
47A6
1C97
5746
4C4F
3D04
3E41
623C
3122
1361
4C55
524A
73E1
2FB3
6CAC
576
2801
77D7
1DAE
472B
78E
1BBA
716F
4F25
5714
4DF7
5317
7E44
6132
1BB6
23D7
2843
2BF4
79D8
767C
D63
1997
1ED4
1D37
75AE
4259
1156
7280
5F97
10B9
6BD3
BE7
3FE2
52E3
1CDB
58D7
7C06
7B61
20B7
76AE
6E0F
648D
1566
4346
7FDB
1D14
5F91
31B4
29AD
2A3B
1F61
FCD
5521
5BF3
70C1
2011
7590
1CBA
4BB5
70F7
C18
68EC
205D
44BF
7644
B82
6836
1FEF
4FEA
5C1B
1C3
6E5C
33BF
3819
4423
77B3
2DCB
315B
46FE
1A5E
3398
10B2
6211
79A9
46AD
3A8E
153D
59C0
299
6A91
5BF1
4315
BDA
75E9
6B87
5D89
1273
3FB8
208B
549C
2899
4AF3
CFF
2580
6EDE
1ECF
1E7D
3203
3362
4FE
2B85
5F2B
33D6
570E
A9B
6C95
EFD
34BB
52AF
3C6
E1
BA3
5318
1429
67E9
191
3CE3
3950
6576
B12
7CD5
14BE
305C
1F19
B30
5C97
76A8
3B9
755E
5902
16A
624
5B6B
44A6
5881
4578
8C7
5E0F
2664
40CB
37B6
315E
64D1
2AAA
6A33
2724
775E
6A5C
57BB
77F5
3779
582E
3A9E
4F64
5EB0
646A
5A92
1FD8
6D1C
16D
40F6
2B50
22FE
2CDF
5EDE
3B26
45E4
6B81
394B
631F
17D1
814
7B0D
2625
66E0
2DC7
3C08
6B0E
4B4F
1857
1ABF
6346
1056
517C
2749
3CB0
6F35
62A1
63A5
43F
79EF
27A6
324F
4A60
4196
788C
78A9
330B
3847
56F3
16BA
3378
3158
1AD3
33DE
2C13
6B83
1B01
7EF6
73A8
6AF5
611B
1DE9
E21
62D6
56D
28A0
40DF
3412
733
2991
3D2B
A41
11D4
1FCA
3D9F
766D
5AB0
4C8D
4F09
3860
5692
436B
51C
C16
1BA1
3D75
4800
1EAB
7D99
64FC
5C11
1253
3CB4
6B7C
5366
1E10
14D9
43D0
2E1F
10D6
942
2B53
1455
3DF3
1F4E
2D6B
2A57
548D
4468
AF5
5C64
31FF
B23
3DEB
122A
33F3
6924
467C
7D17
4207
666
1F4D
A07
62FE
3820
285E
40D9
75BD
759D
5AC2
294B
6155
245F
47E6
2899
230
4EE5
15A3
41AA
6CC2
4B92
5160
137A
28F4
4037
57E3
23F
EEC
4938
65E9
1BEB
22B3
177E
7E66
131E
242
235
1C88
529B
1E95
2EE2
C38
E16
6330
4C60
388C
6B04
3DF2
50BC
620A
28E3
10CD
615
4F08
5B8D
45CC
5F90
FA0
7C7
52CB
3084
4F89
1694
302F
1ACF
96B
2751
72B5
5047
252E
7668
5114
3366
3D30
9C7
411C
3DC2
6C51
6081
4157
3BB9
CC4
1858
4944
12CE
6CAD
7710
1E5B
76C4
666A
2492
2B70
4F28
6280
30E8
6B44
6DEE
7136
400C
1938
2CCA
1BF1
7FD8
31A7
2611
2AF7
1D67
2E7C
4115
453D
6FF9
7FA9
8D1
3AE7
74F0
1F71
3434
3CA3
6271
1960
263C
2FA0
227
3EF3
4F12
27F1
AA4
1F66
1354
4E22
778D
4201
7C58
7B3B
29D2
5490
75E
410D
4A83
574
3943
79AE
5F85
117E
5FD4
704C
1622
632C
2F1A
710B
4CFC
2A61
26DD
7F87
35BE
3D93
1A26
815
5C29
6036
7328
B51
1C99
6F8
E10
277A
591C
5798
382C
3796
319A
607B
105A
7098
175D
55D
5163
4C12
6729
5F23
4ED7
61CF
4DDA
402B
5A1C
76F6
48D7
5A7E
7491
76F1
F3C
7FD6
5920
6142
4676
2F4
10E8
68FE
5DE7
49D
1F10
1664
363F
71E9
5639
3D2D
678F
4B42
2CB8
4B9F
22A4
17D9
430
61C0
482C
1862
6426
5D3C
6351
4252
57DD
167D
341A
4F96
14
6FE8
47ED
475E
66BA
FC7
1BD8
17ED
7A75
2DD
728D
4B0
53B8
28B5
6F82
1DC4
44E9
9D1
7D16
5131
64B7
10C7
33BB
3970
5D45
363E
69ED
5590
7140
794
7CAE
3BCF
4853
58DE
1532
2433
1321
8A0
3AA1
3283
2FE1
1955
54A8
1DCE
7A01
31CD
1C3B
5743
7CB1
5E85
1907
2691
729D
7CF5
5B3F
1802
E3B
94A
15F5
737E
1FB6
320F
8C9
1F18
778A
1FB4
2FBC
348
19A9
3B6F
2664
2719
3970
3270
65F2
4E12
463C
4591
7F12
7D02
6E9C
2453
16C6
4820
657
354
110B
2A
162
B1D
827
2FA6
6442
1394
1C2C
383A
40B6
73EA
45C8
1B6F
63F5
5056
FA9
6EBE
3546
429E
26BB
63D7
6686
7696
4277
30F6
B36
2A4C
6391
27D4
488E
51DA
5F3B
34E8
32DC
2279
5706
54D5
720A
5DC3
1305
47B8
5589
28AB
7D6F
1C2F
203E
62FF
5FC7
5619
140B
FF5
37A0
23D9
78F1
2117
2B61
2A55
580B
60CF
3B58
29C
FDE
7091
E43
D78
1D27
27F5
2C1E
1128
2D10
752B
2422
1CB7
47CA
5F33
2C79
2B7A
143A
808
FFA
1ACA
384B
2D22
32A1
32E8
7A55
1E86
657C
3DAD
601B
5EAD
2781
261C
29E9
1D7E
16EA
1D60
5DBA
511D
66C9
6D0A
3DAC
356C
E23
7702
4977
6B6D
2873
5964
593F
2FC5
1C8B
988
1CEA
5F4F
10B2
6B21
864
2333
1C30
3CA0
46CE
9CA
5B1
2FF4
2159
7F2
24F4
1D32
2ABB
6BA4
7E88
1DEA
5691
1EA2
75D1
5B43
2997
7400
2C7C
3CA4
1AA3
18A2
4208
25CB
79CE
6D96
736C
7C69
5FB2
62A3
5F83
34A5
5211
745C
62DB
4F12
A81
50F8
74C4
CC8
60CF
5650
39D2
3E5D
7111
3A94
1BE2
6A5E
44F3
1AF6
19BE
6CAD
1C4F
3760
41DD
372A
F19
1CEE
1081
D6E
7518
4374
466A
3B5B
331A
1582
617D
3A81
24F6
33E1
6AB5
6E0C
1CD2
2263
1861
49B7
9B1
63CE
4F8F
6086
4FC1
57C7
3687
134C
4C1
5716
7E4B
1B8A
7E93
6246
6D06
52C4
5FCD
1FD0
769E
3D99
7ACF
915
22CD
5831
35CD
3A25
542A
74E9
55D9
4692
49E6
7793
3476
1EC3
78B4
4313
BDD
4A1A
2D73
2452
6B21
3A11
7DD0
231C
1CA4
21B2
3638
648F
76E0
170C
3E1D
970
14D
1542
447F
2D8F
BD4
4500
78F0
6B1E
48AA
6627
4153
1FF7
54A7
7C8C
7D64
4064
2BFF
4976
3EEF
18DF
51DC
427A
142C
6842
1E21
1D27
1D03
74AF
1CBF
1114
3971
3639
2B3C
266A
2831
786A
58AA
A6F
2986
4329
4B1E
258C
CF7
4587
4E45
56E6
734
5568
23CC
73EB
5626
67E4
5D6
48F8
40DE
142B
5BE8
6124
4A98
1462
576D
70B6
E40
69E
27F3
72B3
37F8
22FA
10E2
79D6
3477
6AB0
30F1
5BC8
67F
46C0
5044
2974
3E52
636B
5D53
4C0F
455D
8E3
7EB7
55E3
B9E
DCD
68FB
464D
2C1
695F
2192
4272
2EF3
4425
1CBE
2883
49F1
5A9B
35D9
43C6
5E5C
2FB2
2AB3
7086
8BE
13B3
2833
6B43
51D8
13F2
1186
6348
C64
6E0B
B2C
750
70D3
6FC9
2E1A
3845
242F
263D
46A
258D
57AA
3CB2
8E6
902
1E98
431A
40F5
1F29
25F5
16B2
40FC
30A4
EE9
789E
4E4F
58F4
5E2E
4B18
2A6B
443C
34DD
3C20
50D7
2AF9
72E5
4495
648B
550B
3398
57AA
16AE
554
6B85
4B12
414D
1F92
4201
4A63
78B6
3520
2546
3ABC
CD5
654C
1CDF
5801
FCC
23E9
4199
6EF
3083
491
43B3
7A64
7B92
3583
DDD
5A76
7EA5
4590
7964
7287
76BB
594E
B29
7EB3
5DDF
215A
78F6
496F
3AB9
69D
5210
1EC6
2637
4FAA
1799
2059
6D02
2DDA
61BD
86E
1F0F
7A01
4CAB
38B3
53D5
3283
433F
27AE
1C6
E84
7F79
4C15
242F
4284
7641
6D77
6E51
4C00
1A10
1917
4676
28C3
60C4
77E9
77A
6691
60E2
1C07
1D8
5947
6832
3D61
7466
375D
5E3A
17A6
5FA8
65E0
AE3
6287
105D
5847
2BFC
6FF7
4977
6FDB
2922
11DC
604B
5519
4A57
67D0
1704
3319
2D71
7272
4629
53FA
52D5
208
75F3
2C78
65DF
7B7C
663E
70F4
5E40
2EC2
1554
1688
3B47
5224
3F8A
2668
13B5
729A
1EA7
9E9
7461
6308
7B0F
6A2D
699A
6B86
37AB
238
3573
5447
6CA0
5FB1
3CC2
44
1085
7F72
6BAE
6E8A
53EC
4121
5164
4D81
3F41
C2
75EA
768D
B1D
319
46F1
693F
78AA
500D
5167
2052
1BC9
E37
6641
A22
1FAF
3D91
243B
6AC1
2F87
22C4
7F1E
1914
6E49
117A
1F37
79BC
434C
2C02
7576
C2D
16A8
23E0
5F70
2EEF
7B3
7B40
4057
1188
600
7CC9
45C0
29C1
2370
690A
51EB
60D
D10
38FC
5470
1585
1028
52DE
3EB1
765
1609
20C5
47CF
5219
4B25
4A51
5C16
3C52
6306
1B20
2637
5E20
692F
FC
75E4
5EEF
2BE4
59FD
6803
2A64
2395
1EFD
FDE
46B7
17B4
43F2
3EFA
6E1B
408E
69C1
7F45
5D32
5B6D
77D4
3214
408F
58FD
3D49
67AB
2EBC
28B6
5683
7F26
BB1
58DC
3CD
4726
7A4B
5440
45CE
7DF9
463D
79F3
B3A
322B
30F6
6FC5
4C7B
26AB
5181
1239
408E
3796
6D0D
C9A
4293
7D37
7817
6FEA
154E
10A8
906
5F72
337
62A7
447D
7785
303
1B37
58D3
62AF
61B8
450B
10A4
2514
747B
7027
29F2
6538
107E
642
71B8
5EF7
6283
201F
338F
1E7D
3EC1
10A8
4D82
2D65
39CF
62
849
4DE5
563D
7046
438C
79D1
1C2A
2CCF
78C6
2F3D
3261
1E80
1C80
72FC
73D0
5E76
7FFA
75FD
C5E
575A
64BA
1817
3FD1
1343
4E6C
2BDC
BA9
CF8
72E8
5267
4A25
7139
2020
5F37
4769
7C8B
26E5
63F3
7FC6
35AB
BB3
1105
D0C
7F04
1034
6462
413D
4007
2623
696C
2B90
2672
2AC1
4164
44DE
4DD6
5D25
3243
39D
37AC
1D77
53F0
585A
86E
758F
4694
569
774E
2B34
4488
5FE7
62DC
5FC3
7FB0
3F2B
1BB5
458E
1EF
754
6C75
2212
365E
50BB
4462
460
3E2D
3CC4
2966
1851
59E3
4398
456
D5E
45DF
60D2
AEE
2D50
99E
309B
1DFD
7EB7
2A5E
4771
418F
1B67
6DE6
4522
7D29
130D
799B
6514
47E7
3D68
30C0
7780
1C35
57CC
1AEF
6935
27EE
79EA
59AC
DED
30DD
30A9
3CB
6AAE
480B
C15
2BC
24F7
4623
7764
42E
1130
7DA7
3E8E
25D0
28C9
4F53
4C24
3348
65E2
7B9C
FF6
6AF9
66D7
4B79
11DD
4DA7
2CA4
51D9
DF1
1836
1199
3C7A
1A8A
3024
79E3
7709
6D3D
73E4
7631
4B33
71DA
544D
780C
51C
4214
41B
3118
393
2E23
4B8F
2807
2CD8
65C1
516E
48F
6D96
39C8
657B
774F
58EE
523A
77A0
3551
6629
209D
4F35
36E3
E86
C1C
4A72
79B1
5BED
4D0
25DC
6B3A
5843
4DF7
769D
3352
552C
3423
56BF
74C3
E70
6674
5C02
774C
59E5
4B61
4E14
778E
4879
528B
607E
382D
2A2C
3085
AC6
61E4
6777
1095
7FCF
2FF8
D08
31BD
4BE0
61D6
3F79
2BEA
7A20
24A0
45A5
489A
2376
7FCF
4948
4796
472D
494A
6580
7B8E
638E
47BF
19EA
7F02
5016
3345
37E6
620A
532C
24F0
30D8
30DE
3C87
263
1743
4ADB
4172
7899
7D9A
6711
3946
37F6
460D
732D
6A27
855
66F4
1408
3B10
2816
37AC
574
6814
3E56
2F73
4195
5E4
6100
2766
1483
4CA5
221
1E2C
26E9
77BC
6ABE
592B
254C
7881
5915
7BF
3897
37C9
BAB
1CE9
38FE
1537
6610
3D61
64CF
3C5F
73BE
2D14
5DFD
429A
43D1
281D
596E
1DAC
3CCA
3AC6
3787
690C
FD8
22F7
41ED
47C
2F3
434E
4475
16C2
1F0F
2737
572A
1231
7DE8
59F
A04
5185
1BE
38D7
3088
7E78
2E71
6BA3
5ED
7D8B
3FBA
24C1
7465
8E1
5D1E
6281
58E5
7391
6DDB
778
230A
2A73
6B06
4EA1
325D
5AE0
7310
6E8F
357
2B62
1BE6
3D
711C
913
44C4
180
46DC
1C17
7DA
6CFC
3006
6BE
480
737B
438A
2D08
D99
BD3
134C
5EF3
1382
7613
BB0
7389
6D0D
3801
142A
6F66
FA5
4FE
5E7F
7AFC
67E8
34F1
592
3ED4
5D42
3DC9
2AA0
75F5
DAE
1BB5
7946
642C
147B
1EAB
6BBF
1B3B
5275
3262
6624
2997
EB8
431F
3E2B
41CC
727B
43EA
515E
64DD
1C7E
5D17
1F60
2DD1
4419
7E6
2933
7A10
55CC
5775
4E52
1D70
5922
192B
5672
1787
40DD
4EC
648F
1DBE
26B6
1407
DBB
5BA
6E4B
35DA
19CA
1AF4
2E91
3C23
5E74
2A62
6609
2292
18EF
C52
5138
60CC
3540
70B7
5CB7
6B96
67C3
15CD
6D7B
4702
5298
30A0
2997
145B
E8D
7CEE
7BD0
59A
512D
5D05
6C2D
602C
525E
68A0
5BAE
297C
1407
48FC
26A4
370E
6C4C
63E4
6B8E
DC8
542D
56FA
44B3
142F
37C3
10E8
62FA
34F5
6F95
5E07
6E76
1876
29B5
3948
F36
2CDF
20DA
3C98
60C2
7782
1D59
5242
7789
5C0E
287B
63AA
4073
1FCF
1EB5
69F2
4361
5FA6
3C4E
358D
183D
4D45
7BF9
63B2
13B4
5556
77FB
1D3E
7387
5D69
5A28
7246
5AB5
C50
9AA
2639
300A
1D73
5E1B
272
3BC0
2B54
703D
4CC9
F50
5F2D
7F12
2C30
2716
621
45E1
69C3
A9E
1A66
47F6
71F4
4579
172F
2942
FF
166E
27DC
4622
282D
2178
8FB
2805
6C13
53F1
4ADB
3030
4AB6
4C87
D99
4A09
2B8A
2ABE
39CB
966
66D6
435B
3F6A
1974
497C
7838
3A8C
556A
BD3
438
5B4E
3E4C
323C
78FA
4A00
1786
1B7A
5E8
197C
19C4
65F9
221A
6F62
50B9
7527
6D6D
5C93
7B1D
36E2
5080
786F
17F5
685C
7F4B
28ED
C9
C2A
29E6
653E
BC7
3FF1
ECF
6831
1521
7DA4
4D01
5BC5
2DEB
2D7F
7EA9
244A
70D0
230D
63E2
6F27
74D2
7F42
CC4
4B0B
544D
51A0
355
B42
4907
BB6
338C
4F58
7C52
7DDB
30E
3637
95
2DDD
35B1
7633
4455
1B21
67F0
6E05
3906
5967
E68
5806
51EB
6B2E
595B
BB
1409
6C1D
4CB6
4F55
51FF
4196
65FE
786B
2D5D
33B7
5930
69F6
3183
6C43
719
73B9
8BB
5C54
76B3
6D80
3DA3
AF
4981
3B2C
3227
78DE
391C
5BA7
70A2
7636
1059
2A0C
7A27
75B1
2478
2B1A
366D
67A7
1895
40E3
285F
63B
7F66
1786
7DBC
4B05
62F1
6CA7
366D
7288
3556
7BDA
3013
148
4FC7
1AD6
1AAE
283D
6749
159
5F03
C17
6989
7C66
6102
2A49
654B
79FC
C65
29F8
7DD4
3E75
19CF
4565
1786
75BE
5EFD
711B
A87
4F4B
E0D
29B1
2FBC
2F1E
266B
2CA4
9DE
3E50
5A0E
33CF
5355
2901
C0A
60D8
15B6
58F0
7F3
34D3
27DB
6856
7606
445C
5674
52FA
488A
2328
2948
47C9
461B
1581
2ED
579C
4A77
832
1AF9
798C
35FA
674E
25B2
EA3
3E14
48FE
3247
12E
494C
46B5
4923
D7
6864
43B6
3443
740F
7455
32DB
15D5
5C79
30DA
3A8A
7C0C
57C2
64D4
6A9
2C9A
53BA
68C0
651A
463C
5DB3
3298
5C44
5CE0
1330
2D99
78D2
3744
57A9
48B2
2277
4F07
6C2F
46D5
1E79
4F6B
6381
4008
15D3
4E94
4CF7
1353
1137
5D19
3168
5623
3FA
7AE1
46F6
1DEC
557F
583B
42F0
22D6
3E00
183E
3A
6A85
5478
4B63
6144
585D
2DED
D6F
6A9E
447F
1CA7
29E9
7F2C
684
5DA6
36C4
1493
163C
6CC
832
91
6355
52D6
49CA
7A7B
25C5
78D
66D9
345A
6E4
4FBF
32FA
687D
1EF4
180F
498D
170D
445E
C0C
1BE4
7CCB
13B7
478A
21EA
3663
2239
2C9
7EC6
4045
5F45
7686
43EE
4265
755B
5083
4F32
5D5
5B7E
6F75
F32
7FE2
386D
71BA
3DCA
6DF7
4F77
117
731E
6CF3
5F35
4CD8
1B0D
75A1
5E19
6D46
60F8
4466
6B30
45D1
7B4F
7C40
41FF
621E
4A0C
51F6
6EDD
7DCD
2256
100
28C4
128F
AC6
7944
5744
52F7
3B3B
FF1
33D4
362B
138D
309C
1057
3873
31F5
5056
218C
259B
734B
228
11A7
4116
983
343D
4FA6
D78
41AB
298F
57D1
6D92
2799
4211
19F7
6B6C
7002
6D3F
44D
D53
3BE
1078
7153
407A
205
1C29
33C6
68C2
4E88
280F
787B
7AEE
12FA
6522
4A8E
116E
17B1
3C9D
7A44
6D91
6511
72E8
5C76
4640
370E
2FFF
36A4
12DE
1A62
68E1
65A9
6829
620D
431C
75ED
298E
2A35
4B81
39F6
2CD0
5B90
1772
41A4
5FF2
12A6
6BFB
11EC
7983
1C53
18F
1145
59AB
4F
D41
4BAC
53D8
7049
228A
27AD
711E
335B
31FB
7DAF
1B51
7494
7EEC
81F
52AD
6FC0
897
3075
7581
7263
AB
6866
5B03
49A5
253
15B5
280F
2A
2DB5
639E
57D9
7954
4B49
3400
537
6245
8AB
22F9
37C0
4B9D
4C1A
4E9A
5C84
78B
4BA
3977
3A88
3BDD
7D36
7927
1779
1F12
699C
37E1
5B37
1CB4
36B6
249F
12AC
4D82
2F5
576F
5D65
5935
5402
3472
5844
D8E
137B
322C
5C1F
F58
7325
15BE
3021
3979
55A4
25C
77A1
10AF
454D
5FFD
5519
59AA
7A
6BE
3BAE
60FB
478D
2F36
71BD
785F
6EC4
47B4
4610
EAE
4C33
462A
6D18
7843
22E3
7D3F
4021
70DA
1842
5C04
2AA3
3203
7D91
3DD7
3B81
5710
55B2
1F97
15FD
3841
3861
235A
1AA7
20DF
EA4
7031
5707
5DB5
5C52
2BC0
1E00
7533
4219
311C
4B79
9D2
186F
1D80
5C18
6D3C
9B5
3EE9
176D
4856
7DB5
5490
3409
6916
11C4
108D
2761
255C
1B7B
5358
45D0
34B1
228D
119B
6670
1B17
2550
6048
16FB
BB3
5560
CCE
14D3
597B
70FA
2B4D
72F1
6555
1EBC
622C
6F2F
5613
1A29
7A85
6370
63B4
33FE
50C7
4866
4605
72AF
B8E
7A5B
1610
4E16
1021
103B
28FF
2E6C
2C82
5C8F
4524
6266
7C8B
17F6
6E2A
7306
CBE
786
25B
7165
5FF6
3E76
4027
6660
100F
452
5034
3EB
722F
6FFF
1AA3
39B6
3094
730B
6593
44C6
3B7F
388D
5AF2
3E04
35E5
4D0B
4307
4BA9
6C0F
4EA0
78AF
2E4E
60CB
3C66
7789
609E
6DA5
5F16
4BC2
1C43
1210
16B1
2933
758B
4924
482F
287
2A0D
44E3
4457
A0B
73B2
3216
7660
1342
7721
4884
2083
7B10
21C6
46BC
2DEE
160E
527
1F6E
6961
78A6
2579
134A
6E66
48B6
4B74
747B
4E69
5576
104A
4CDA
648D
4264
5A60
7A9E
7951
552A
3B00
4138
2170
30B8
6980
2F80
1243
3094
5D24
139D
DC4
B81
2242
6EEB
7F91
3286
1E25
191A
1C1B
50A3
17F6
303E
1BDF
37F3
6AA4
7E41
58DF
6D08
5C3
10EB
4F1A
70A1
3991
6DB1
299D
4B66
38CB
43B0
1AA5
40F5
43F1
78BE
5A79
13CE
46CA
2DBB
1F85
4271
846
1A47
4329
7283
31F4
179B
45F3
BE1
5B11
5080
4CC8
4EB1
2A2B
9EF
365F
2556
14D5
19FD
3C1C
18E7
569E
2779
79FC
62CB
6716
1430
302
7811
720
6949
7C14
4148
106A
4AF2
6C4C
89A
3B3
73B3
17DE
489F
7944
5D4D
1A85
2DAE
39B9
4430
4E65
3B
5CED
6437
589B
788A
21D1
27D8
779C
4440
368F
7DE
3315
5856
384B
25DA
846
333C
182B
350B
69E4
5BC7
7293
4332
3193
39C7
3501
37C9
21F
37E8
6496
2F88
739A
69B8
6EB3
6E4C
13D3
7777
5AA4
7366
3A3C
379B
34C5
5103
720B
5FE0
127B
1D3C
51B5
275E
17F7
213C
4752
2B80
1820
5873
365F
436D
39FD
2205
38F0
EFB
7820
35ED
757D
72EE
3BE3
6051
1BD8
E2E
7C2C
7BCE
50DF
5179
3B5A
6B3F
26E1
4D82
2F8C
452F
4BF1
44A9
745B
3EA1
150D
17E4
2C43
78A2
1184
13BE
758A
2BDA
5EBA
179B
7F7
40B1
6E39
102
6411
BAF
1C31
44B3
423F
2205
42C5
6460
1089
4056
7330
3D40
5E98
7E5D
14F8
4301
24FD
7E49
396D
18EB
74
A06
5E1B
412
351E
5CB8
6B9
856
5BA5
764C
6742
5522
4A3B
7393
323E
585C
784B
D26
4CB7
7F35
7B42
157B
765A
4A53
4241
1E1
4478
3769
5B3B
5788
70CD
4678
34BC
5EE8
641E
153B
2458
5A4C
15DB
22BB
75B1
116E
5379
708B
1EBA
4102
2BCA
3886
70C
1EC2
2A51
4079
71A9
6CFF
38EE
43F5
2E26
61BF
3045
2765
65DB
FA0
3722
5CAC
4267
208E
7181
627A
CD5
5D15
3C10
56A4
2F23
3D8
1659
3773
4603
1FF0
7859
6D0F
3027
42EA
98D
3346
5E1E
6B95
7505
19F3
61A1
1174
3902
698A
B9F
4650
2EF7
11D1
2AE0
1924
2D6
4D65
1BA5
1C51
69A3
5A35
2F95
54F2
7732
7242
19A8
5542
2EA8
43D7
5A54
1F8B
419C
23F7
2A92
6AB2
321C
279F
12DE
753E
495E
53FC
281E
4F0D
6D4D
111B
1796
5CA3
A79
10CB
6621
5759
166D
5298
7EEB
3D7F
988
7642
667A
7BF2
1972
1665
744
19E4
6AD3
7A62
5605
58E4
2DC
63A4
1CF0
378C
3340
167D
1AF0
2550
6424
798D
7700
2E43
2324
C04
9
2588
3C63
7F52
3523
2750
42C1
2DD
44AE
6500
4A79
2DC
6B45
75B7
26CF
6947
401
20D2
4A95
704A
5C
387C
734E
59FD
38F4
4450
2F80
2D26
CA0
7782
79D0
7A3F
7682
278D
7F44
515C
3751
1126
3D1A
4698
2D34
1467
3B69
596D
7B5D
32F
5A6A
72D5
38C0
2549
41C7
37A2
A04
17A2
ED1
61E7
9DC
5FF1
5627
317F
3AC1
5309
3D8
3438
9CE
7F47
2334
20D2
1702
F98
30C
28C4
746B
1090
4FB
711
2F3C
5CC8
6512
383D
3E86
7F41
659
11B7
227
7D9C
3249
A5D
3B2A
4487
1686
5C1A
1DE6
518C
2DDA
6DB6
5378
4A58
800
7A2B
11DC
51DE
1BBF
12BC
4996
7630
33FB
68DA
5921
16A7
338C
7A75
42BC
D
69C1
3AD
5F8F
7709
20F7
6C7F
3780
1FC7
5205
62F
73CE
40B9
5C48
68AE
2BF4
728
3C4
5F6
45BB
3BCA
6180
17F2
31CF
8C0
5397
5F1D
4CFC
76FC
63D3
55AF
7935
10A7
7CCB
52A4
25B0
667
529A
6B9C
4C66
1F86
2B20
72AF
37E3
1A96
58B4
47B4
6ECB
2F78
61E2
5D4B
6182
3916
740
35F6
5C86
2701
55F1
4913
57BB
4E5F
6D40
243C
7EB9
7FA5
7556
287D
1DDC
57C5
3DC
7960
250D
39FD
67F8
184D
4D38
566D
6017
1304
4CC1
4DB9
43F3
7197
2A85
4B5C
664B
16D1
4F4E
1547
2B41
61D1
2A2
23D4
3215
6D6B
7C3F
77D1
776C
3A60
6491
7D4F
676E
22C7
12FE
59AA
331F
5C26
2743
3C7D
1551
475E
76E8
679B
39FC
6573
7810
6117
6F23
6D28
679F
2396
4BFE
3DC9
1E3D
271A
3ACF
6CEA
6E91
1026
5B85
1146
227A
3D3B
2E94
4CF1
12AE
3E23
7532
659D
4251
5E1B
2034
6701
E76
6B6F
2FED
1A10
3502
5FF9
496B
417B
6F5D
426
34CB
788E
257E
28FC
1B34
52CC
20D0
3460
5905
6DB1
42A6
4F54
1973
4B25
559B
66B8
3EDE
72BD
6918
257B
5470
4C
3BC7
1E8D
427B
2C76
4200
414B
26AE
42B1
3A69
462A
227
6648
3C76
29DF
6266
17E5
456E
454C
6F24
490A
5FFE
60AE
C6B
40D7
37FB
272
357C
4A97
3F6A
1230
1E85
5677
7686
213E
7062
7B8A
3135
BFA
5CCE
4BA
3095
4026
6341
E38
52F4
5649
2108
171
1B75
372B
76E0
1271
1620
3D81
67D4
6EEE
6DD3
7C61
6825
5DFC
6E42
30A7
2709
5713
2BD7
7380
3BBC
6158
66C6
510F
7A87
469
17EB
3017
72A7
1254
25DE
337D
3737
31CD
2F91
3B16
5D84
7057
4C87
5B45
23E2
7E6B
6F28
53BC
668C
7E48
6E7B
5D68
5825
6B0
5457
3B18
1CC0
7DB7
3F5A
4312
72B9
1C25
1D93
701A
838
6C26
488A
6465
755E
5A7C
310D
45C5
6F0D
19D3
324
BD1
316E
41ED
5DA2
2E7B
59B4
2B85
7ECA
20ED
54AF
6F
5D62
2FEC
4EB5
E2E
2947
31AD
50DD
2197
5C25
4C97
3A23
5864
424
1C54
20B8
1473
1F31
6A21
4B89
1BE1
382E
2BC7
755C
4861
FE9
1071
7D20
3A6B
6CEB
D2F
3921
2104
7F6B
3458
5D37
5F4
58EE
59E8
D16
5C08
DEE
3397
4C48
79D7
1669
2987
6BC3
F4
176C
6233
EF9
1277
45F4
58FF
4259
3E67
6D84
4BA
4F5B
1A35
386A
1ECC
763E
6A22
4B77
79CE
3044
7278
3D0
1DE8
2C23
525F
518
C29
3DA6
A1
4AD0
6D8B
2FE9
5FB4
434C
566D
7374
11CC
2F0
13E4
76A7
50FC
23D7
7691
2B52
45D6
7826
A8E
6994
63E5
36E2
953
BA9
13C0
4595
BB8
5312
4C93
420A
14C6
D1F
6961
302D
5940
2317
13B1
5BBF
46E8
4C7E
283D
67CA
7985
125F
307C
721F
2FD7
65B3
1F96
3EA9
B2B
1013
59D0
7EC5
7EF3
2904
3F25
6442
6775
BC7
46A7
D4F
5134
737E
4E6A
293A
6401
6823
5B29
6243
6F18
598F
46B0
563D
571A
3F52
57A1
7C2B
4274
6FB7
3903
4442
6E8A
526B
3791
6148
5E57
1CC4
7480
580A
1C13
6967
4743
5DB0
1608
2B63
5D15
74D2
54EC
1039
524C
4F8D
27C4
4EF5
918
7C98
4637
11ED
3EE6
2D28
2DC3
6816
7F0D
3DE9
4CC
5BB1
BCC
16EF
5387
4165
12CC
1885
6283
2873
4DE7
749
12ED
B2B
2B15
B08
46E8
4CC
5E9E
6F18
2ADD
60A9
473E
5EDA
523C
2C9D
3C4F
3586
62D4
5F9
459D
5547
7CF3
108B
B3C
7E5
4C41
3A9E
711B
16B7
3697
2697
5FE7
1C2D
5C50
4729
6095
65D3
3BC6
3BFA
23A9
7211
15DD
7910
2FC
5C
1ADD
411B
2DD6
3C45
481C
2BD2
5925
2DE2
38C7
6A89
6F10
210C
34A8
D5D
42AF
57AB
1B97
18E4
520D
E36
5229
2870
7FC7
2854
4883
5E07
1AA2
3D70
54C7
48A0
2236
6602
25D7
2864
5676
2F4E
7808
33D8
3A79
6358
624A
122
569A
4D8C
55BE
597E
71EC
3888
30D2
F8E
3CF8
5872
66BA
74B9
1651
4E03
5E43
366A
7F60
2FB
6273
501D
446F
744D
63A0
321E
3445
797C
381
5017
1095
58F9
B2
4869
1DBF
247D
325C
45E7
2CDC
6993
123B
7433
4F88
D66
2468
6E70
80D
70C8
3122
64E2
3A1
3002
3BE3
276F
5CC
2770
25D3
6CC1
DB8
28A3
5466
1C0A
334B
830
66A5
7C18
7047
397F
7B71
7211
346
3699
4B9F
497C
49CE
7E5F
3376
4E63
783A
911
E4B
4726
7547
1EF5
135
5E71
7029
2006
4E4F
226C
4E7C
3664
7B9D
1246
5EF9
5BCC
7C16
6468
516B
15E9
6F62
580A
11A1
33FC
3719
1573
1906
5733
6B20
6A0B
31C0
157A
208
1E3
3E47
2503
6ED3
307E
2822
3D64
AAF
4067
5104
2F91
10EA
7C5A
7B99
68BF
4AC2
27D3
28F1
169
36C0
303E
7231
7F61
308
5FF5
5CFC
F5B
26BA
2A84
5E68
61EC
2AFE
2D52
27EB
44E3
2A92
56B6
2D6F
C4A
10BF
59EF
133F
7C0C
6E42
40E
4C8B
1F7
41E1
3D82
924
3659
3D3D
11CC
527B
19FC
3E14
501C
1FAC
6870
4CA2
3103
747D
6988
4B29
7287
53BC
26ED
4430
1AC6
3108
5C97
32AC
581F
655E
5A33
3E6E
2812
38E1
6745
4F40
64DA
77F3
7F4A
61FA
634F
1469
5CB9
6300
49AA
1FA5
7651
5AE4
2C97
3F43
5C67
9DB
716D
6C27
C60
5345
6564
5AF9
2520
216D
563C
6DDF
3E6D
7B13
3937
11D6
593A
5EFF
20D
55FC
379D
36C1
5F56
429D
2261
474B
3B09
7F60
3AC8
5C27
30D1
6F6E
1245
7A7C
37C4
516D
1C9B
2D7D
7B9B
6041
13B5
704B
5F44
35E1
2108
73CC
6FDC
EEA
7EA9
A37
424A
6EEF
28C2
1B6F
251F
4F26
6256
733A
5198
2A5F
2A49
2831
510F
7BB8
1C9E
7BBA
5282
1D32
6013
4275
5E2F
3630
20FC
540F
CE8
4542
3F09
1BEE
7654
3966
3C6
7EFA
4706
3955
15B4
6541
44C3
5D4F
6E15
4623
62B4
5052
7615
197D
6471
5E43
3648
1809
245
6914
2140
6B51
354C
BB2
5BCD
4654
7BFD
4690
1CFF
3A16
2204
2F84
37B3
3D2E
2456
357B
1E7D
4EB5
7409
1610
4C03
4E9A
718E
3885
355F
7149
7D07
4FBE
4C20
4F78
2A34
1E32
36F1
415C
2D00
5C0F
1B7A
CD1
7851
6975
2BB4
49F7
4AEB
D09
31B5
2376
10C2
1091
4502
3CC0
1483
5DD0
54CC
1BCB
5232
2A23
4092
5A2A
441
32EE
3056
FC8
3BA2
747B
4AFF
3487
1F1E
53AF
42FB
7E32
21D6
151D
5FC4
4603
65CB
4E92
1A69
4EA1
308A
284
4C03
F2F
6F26
7A3F
5756
325D
3747
3475
7FCF
4D0D
3E48
3449
33D1
5E09
62B
5C72
9F6
5475
29FA
3E12
37F0
77E0
302D
44B8
1FA7
4984
7DF6
395F
1833
1BD7
3555
1FED
412
69CF
5100
A98
2AC4
6393
7EE
D7
1FC8
602C
1848
1163
70F4
54F5
3CBD
4E0E
5DBE
3EFC
26C5
4A73
5086
52B8
4EA2
31CC
81B
74EF
2A79
1194
77B1
793B
121
6694
3535
169A
1BC0
4A81
21AC
26A8
5F4
1584
EE7
7BBF
7E5C
6A9D
2A05
2149
3AAA
572C
4992
350C
5FD2
26FC
5ACB
6B25
2A84
61BE
54FE
1E5
6753
42AF
32C3
609
5B25
4287
2AF6
366B
2451
2641
2D6E
69C3
7F6A
22D4
978
623F
724A
3031
DF9
E46
275E
5AF4
5C29
10BB
928
4DA4
448B
1845
4560
59F5
4CBB
3B8B
3FA0
24C8
3565
6198
3382
3D28
2224
4D67
1626
997
2251
6475
64D4
6FF4
343A
413E
647C
3770
7E25
7F3F
41BE
6DAE
22C2
4BD7
7198
86E
4139
2A3
389
778C
38BB
588C
2309
7E77
5296
3DF8
55B4
50B
426A
7B02
6C44
2CD9
73BB
69EF
5626
7D81
6288
3D13
4872
1572
7B07
1ACD
24FA
1C49
4359
2BA3
3BE6
72DB
7CC7
71B5
6051
5D7E
71DE
6631
309E
5FC6
7F90
6241
7010
712E
45C5
4DE6
1E34
26DD
21D3
1D8A
42BB
19F7
4F9B
64C1
1CF6
6C78
7879
D54
7E24
5262
2517
1F7A
1242
1F9C
531E
5388
1C47
5440
43C2
3C4E
6236
7649
7ADC
545C
481C
53C
6AF4
2160
6D16
2A8B
55E5
1AE6
3298
5C83
7DC0
A11
39F0
483B
699E
3A9D
57CC
33D8
2F4C
3D2B
6877
6372
4CBE
5CE7
6AC6
6389
76CF
570A
44A
12F6
64C9
4C68
455
222B
5102
6693
4B7
3DF8
1D62
2A14
4854
47B6
325A
46A7
73C1
27F1
104F
6636
6852
5097
5645
3178
7CC6
5FE1
91C
F15
7F0D
F12
6E30
390
4429
17AE
7C4E
7EF7
1D62
77
2D5A
6136
39E1
1F27
164C
2D27
228D
675B
76DA
7C0F
4F8D
117D
4C27
6B8C
54D1
1F5C
4A4E
22F1
4E71
63FF
7700
7784
3BBA
34D2
F1
61FE
7334
16C1
7997
6D1D
5B2C
475
6604
34EB
4C78
CD8
432B
1F34
289F
7696
788A
431A
6949
663B
2A84
5C97
7DD2
64FF
1A42
7C3B
5418
39DC
1246
340E
2386
68C5
41E1
7CF9
6936
2163
35C
311A
63D1
25F6
4B1E
6562
659F
53A
1F5A
3DFF
2EC6
1E92
3A4
13BA
64F7
3B21
3C2C
6A8B
5D78
217A
15E8
4AEB
605C
60FB
69CF
4F80
51FC
21AE
4BB8
2E4C
692F
965
512B
62C6
5159
41B7
3756
5B8D
13FC
2C9F
27A1
2650
24AB
1C3F
2534
5FFD
20A4
20F3
50EC
1EC2
6FE
3AFC
7002
4525
11A
40DD
59E
2EEF
6BA
919
77D0
3AE6
2527
909
1884
6DCA
1C81
C5E
ED9
6E13
16F9
FBF
6AB2
2B1C
28E5
56D3
5182
3C05
3351
F18
65F8
2D06
2012
569F
6EAF
69A1
71E
30E
76C6
649F
2BBB
5CFC
3412
5F5A
5FA7
18E9
1FC
5E73
1349
7DD9
14C0
3E72
75B2
124F
73C5
21BC
7F63
234F
2A3C
6C3C
6C4B
732A
46CD
7F45
3131
6B8E
564A
5DA8
330B
7CB
73E7
65FE
36F5
21B5
58AF
25F5
4F9B
4783
778E
5C05
4E26
6636
572D
4F30
22FF
155
38D2
7232
5719
65FE
32B6
42DD
19C4
5279
1507
8FD
5AC3
6E7C
4613
6DD1
48C8
53A0
1F83
480D
47AF
650B
2C8A
FFB
4331
2E94
6A8E
41E4
7041
19CD
1773
4068
5F6
102D
46AF
1A97
936
374A
552A
3A68
4761
3BBB
2065
7149
34C4
599
13D5
1BBD
18D3
48BC
137A
789F
C3E
4616
738B
73A7
7498
540C
55BC
7A6B
30B4
61C8
7CD1
EFD
175B
5957
4D5C
5526
2D5E
3EE3
5C0C
4571
7852
1832
41A5
4A4D
121B
6E6F
6943
6AC1
2EE
61BA
25E4
737
1573
788C
7717
53D4
3A0F
6B90
675E
4C67
A29
8D6
3061
2297
70C4
5947
540F
626D
28FC
6D21
73EC
34CB
24E
136B
742C
35C
2BA1
522
4E57
6119
3D25
14A6
48FA
1710
1337
6EE8
3FF3
24B7
446E
68BE
5C59
4A0E
5B05
478D
7ECC
73F7
764C
329C
1C12
569F
178F
78A6
3589
1A97
5089
4811
59F0
3603
3CD0
7BB0
72AE
4ECA
DE5
70F5
3010
4147
5F23
211C
6250
51AE
3D7B
59F5
24BF
21A8
56EF
1D8
34C5
503B
27AC
29E5
2C2
2A29
31D2
439E
7DFB
14FE
38EE
7D3C
3C21
42B1
66C6
6E3D
DD6
1F7
4E45
18B6
777C
2230
48E1
2744
10F9
531B
7687
60C3
BC7
4D9B
558C
7A1A
35C1
7300
43E9
585B
7A20
3BA0
6E08
FE7
44C5
644A
34FE
2773
2180
6C17
873
58F1
6FA0
39BE
3001
1992
2BEB
7FC4
1857
25B5
29D3
374C
AD4
5E88
1F93
1D10
2C8E
DFF
3582
5D4D
3F75
EA5
52AA
3E2C
6559
52DC
2320
466C
15AC
1B58
4D6D
5AA7
7191
2AA7
5014
5BE3
6F6C
2E4F
3E6E
2F11
5A2D
7A92
4FEA
27BD
2BDD
1BD2
782
4016
771D
4AB9
752B
2148
79B
7C9A
EE
7029
51B9
45FB
4E2C
B79
408F
41DE
10F
205
6F5
516F
7D0C
6438
1B8A
3A10
5D04
10A0
25D5
150B
55FF
776C
645
4C03
2DFC
1D4E
3936
44FC
5A55
2EEA
55D7
6C72
626F
556C
20FF
1AE1
461D
55B4
209C
43A9
2263
4D96
4034
589A
2E6B
3E7D
25A8
618E
1A0
5429
49B2
FB8
4C1F
33D8
4DF8
7826
3B83
285A
2636
6A6B
6DF2
3AE5
2E5A
7400
3CCE
4873
4DA1
4DCB
3029
3CDC
2D8D
42E6
1FB2
6D62
1016
9A
4C6B
D0C
1D3E
5532
7481
3442
123C
5E18
36CA
47B0
69E9
E98
22DC
1F90
3A02
43CC
E3C
18C5
46C2
19FC
55FD
6CEA
1840
66AE
5588
4E6B
48E
7F21
1AB0
672A
40C
1FBB
31F0
55DE
EFA
5A51
6665
3261
EE7
1828
6426
68A2
3164
5DB7
4BE9
47A
284
2854
711A
56F6
5927
763E
67C1
503E
446D
65C
4FA5
2D96
150E
75CB
4CE9
32A2
34A7
2E78
7ACD
3841
1FBC
6D7A
2DE5
4D79
7D12
406E
1540
1010
6773
13C6
A55
566F
616
31B9
55B9
2816
D5E
63C1
2617
7601
3256
DF4
5BD9
7
3841
76AF
5BC4
7BC7
46EE
45A4
1513
5B56
231D
300F
3F63
7FBE
C80
6AD2
49E9
5DF2
1DB4
2E80
5A93
513E
7CA4
CBA
5279
1588
31FB
7B2F
69C4
1D85
F72
494B
5380
1456
7C6A
76D5
3317
230D
2503
1179
350B
396
141
7EE8
78A
1E99
509D
30CA
3424
1BE0
320B
76BE
72CA
77DD
44B5
5743
7B06
41A9
5405
6099
4D83
3AA2
D9
2311
3C62
4989
6BB
5410
727E
348F
89A
6C6
68CB
52DA
488B
3F4A
582B
386A
74E7
3322
23D3
E2
4FB9
2DAA
4E8F
700D
76F6
6EE1
5458
7C6A
43FE
2A02
43FA
2A43
209F
72D
2A02
C
6BB5
1E00
219B
64A6
19C5
9DB
64AF
351E
7FE6
689
33A6
67FD
2EAC
6E45
2301
2C5E
66E3
7A11
5F4E
79CB
7AC4
1592
21B4
48FE
2E89
63EE
17B2
6655
569A
4AEF
7B06
3A76
67F3
4C3C
EBB
18EF
56D8
6EDB
1C7
6161
116A
423F
44EE
6FAA
76EE
8AE
2D98
6D21
61F3
5A3A
2A6
7CE2
C1D
4440
1180
26AF
60E0
543D
4B02
1815
B66
448D
6EF9
11C4
7F6C
6363
B79
2E91
C72
3D1B
3B62
5209
739B
237C
541A
142A
6030
24E3
5E4C
46D4
586B
78A3
5418
4431
3D34
2842
7DFB
2032
5992
545E
7446
46FB
5E2D
343D
70B4
2190
46D3
24FE
6C0F
71F2
9F8
2F79
7159
4AD3
4543
1F77
4C45
416F
58C9
5D7F
2357
5230
6CEA
4507
68A3
24AD
6D51
3DAD
3F1B
283A
2E45
76A0
4E1C
7061
1847
55B6
384
720A
79CC
F1
77DF
5000
41D4
5711
2A3D
583B
120D
7EDD
146
2271
7C77
6220
4165
3C3D
5023
5817
7D63
65E6
3321
7468
615E
4783
5D12
2809
61F6
355E
35F8
2B14
30CD
23A3
5B5E
7B68
4F1D
1EEB
7729
2044
30CA
54A6
444
7AB3
1DA6
1FC9
4358
24
1142
3519
3CD8
2438
24A6
12AD
385B
72D9
5B55
3FEB
8C3
727F
25A2
4D3F
48AC
1568
2170
5AE7
1D8B
5965
5586
7E74
6D88
2EA6
16F3
2F2B
2BA2
5E2E
7037
5F5B
4374
6F49
5657
2A11
52B6
7CB9
6BC6
77AD
39A3
207A
423B
3831
1089
2FC1
2F14
5F03
4BFB
5463
1064
C6C
59C0
7899
21C3
2769
57B5
1F8D
661C
6E66
2025
960
62D4
B38
7F01
3678
5113
6D99
B70
38CC
70C5
7C15
73FE
53CD
788F
6FA9
7E64
4946
7D4E
213F
20D5
5360
42CB
27D7
6A1F
5DB4
7FCB
110F
1E48
5F8C
2683
1422
7140
42B8
4AB0
3E21
6D2E
5595
2D87
44B2
6140
4DED
308A
579F
73C9
1B5A
499F
1B2A
3D9E
26D9
1C62
53DC
7CC0
5FB3
1B8D
44E3
6825
43F
3883
18F9
295D
583D
44C3
7A4
6EBD
1F4E
48BC
6CFE
1BF3
22B6
77EB
230B
2224
52BC
6AF1
3D79
2CCF
3923
25A8
2962
6289
22D2
70FD
759B
3443
2381
7954
D04
6014
1CC7
2A7C
41D8
1E69
7204
2027
68B4
1550
5640
5D95
C67
2C42
5955
42D8
523E
72C
14FA
1AA8
D8E
2CB7
4833
7E59
2DEC
4CF7
61FC
3B92
2A31
61B6
6CC4
49C3
5E1D
5F03
6E80
6987
7751
437D
1599
1D11
566F
589A
6189
391F
95B
3B8B
61A0
68D8
203F
7DC5
6C20
4045
6054
6916
49F4
C75
1724
277B
1407
162A
2CF5
7F25
4835
6DEB
6D0A
4F82
306D
52AC
BBC
4BD6
6260
51F6
7185
5C66
4CE8
5779
1362
3B19
76EE
5D06
37FB
10A5
CD0
5E1A
1D
4FA1
2EA3
1AD0
3C11
2C5B
4B3F
7A9E
2E47
16A
7783
1308
F3
1BEF
395C
22E0
C25
6305
4351
1A87
2F66
EEB
30AA
3BEA
363F
4A97
C2B
75B8
6258
401
13E5
3E56
5253
B9A
78BC
70D5
693B
568D
2C64
5053
3BFB
64ED
65CD
4CC3
3926
1C82
5FA
6F4A
C24
1C7
3EAE
61C
26EF
753B
18F8
361F
263B
5423
7F8F
20D1
3439
60D4
76A1
2279
5CB5
59BB
27EF
5D2D
3B66
7277
2AB2
2903
34D8
1B7E
C7A
414E
3D0C
2B50
3F88
4BE1
7B75
2E98
2A02
7692
1ECA
2690
484F
6C3F
450E
1FEE
FFA
541A
3436
3431
4555
4DD9
7FEB
4D69
59AB
2862
2AEC
698F
5889
1674
7AB2
81C
7438
1C2D
3355
3C9B
17F4
273C
7A09
496C
3D81
69A
64C4
1598
482
3AFE
4A9F
9B1
10EE
5019
39D4
406C
2432
1650
65B8
2EB2
6D25
615
482D
57D0
7419
6EE1
1786
5355
D1C
3D29
1631
79FB
CA3
1677
607D
F00
28A4
659
4DC8
57A5
3EBD
4753
7EC9
3931
4948
7951
4636
7F23
4C72
2070
2FDC
4460
6E92
C0
2D30
3982
5AC1
4C27
2002
E1E
6D93
3A1D
14C
24D2
143F
702C
DE7
354D
67B6
333C
2DCB
6690
2EB4
7544
13C
4A98
7010
C0C
7722
67BF
6085
189B
55EF
5D3A
7AEA
258B
5616
1F60
68A0
4DD6
2A54
48F6
6DB6
46BA
65D6
7378
615D
5096
67C7
6A6C
40A5
4004
44C7
4528
6560
6846
2CF3
DC4
3C8
5444
1A5E
76AC
67F3
2A93
1162
4A60
6FFA
6EF3
1B06
1597
2A25
7486
37C0
53F1
6ECA
75D0
1227
395F
1154
26F9
289B
5F47
768A
5AC2
31A
43CB
B2F
3EF4
4B88
35D5
2545
7393
4004
5940
4B6B
3AED
7526
4FA
4A3A
6B9
50AB
1DF2
4FB1
1C1A
81A
6140
5EFE
A7A
3220
7929
3EA1
59D1
42A1
366D
3AC5
432C
993
612A
4F2B
88A
B5F
65B3
6352
2533
7B03
24E6
4A16
361E
285C
2150
4E2F
4009
166B
3B7F
7A9
1F24
3FC6
20E2
A5C
A27
784B
4267
7BA2
10FA
1679
3CEA
7D13
165F
2D62
2DBF
8C9
167F
1260
3107
3B94
EF4
339F
40AB
1052
29C3
A76
DDD
2D1A
4821
4F3F
2A90
614B
33FB
615E
5542
6D5C
6BED
37A3
1C0E
1939
3642
3627
62F2
69F7
2AEB
4262
3BC6
EED
1A82
1ABC
426D
37F6
3AA4
4A03
15AC
1A53
26E0
5DBB
3B56
7E2F
5314
6087
4E12
6CE2
278
6E37
6790
33C7
12A1
234B
22B6
66FF
53DB
2182
362F
689E
34BA
6F86
3CEC
5420
3A3
587E
73A
1D22
72C3
583A
16BD
1089
1CA2
187D
CE6
721B
2ADF
720F
F65
3F92
2126
1DBB
3C98
2C4A
688D
4F8D
6473
10FD
38F1
FFE
74D3
2B9E
5918
3EF
B7D
40CD
6D29
3F4E
62C2
CE5
7985
4721
488A
2081
2C7E
7A4C
6546
23CF
5FEC
2989
2A7
73D2
701
37E6
F5E
6511
1273
590F
5C0F
BB0
3CF1
2691
60E5
3135
3A1C
72A
7EAA
2FC
138D
1717
7456
99C
1B39
6C15
6DAE
778B
3E01
5143
5F41
B84
2879
2C53
5A16
6362
7150
602B
323E
5DF3
6719
262E
3DCB
6BF2
504B
437E
7EDE
34B4
211A
613A
7FC4
7936
4A58
2CEE
29B8
29CA
7CC4
681B
5050
15B
3A83
256C
58E0
15AD
A14
2518
3453
3FF2
7E32
C51
53E4
4550
2FF2
67DA
51EF
7437
6B84
63F9
5818
121F
6FAA
6CAC
313F
7A12
291E
3A8F
BB1
3A00
65C5
316E
25B2
2DEB
937
4AEF
7135
20AB
1979
19CE
464F
70DA
4EDA
508A
5578
769C
DF8
4CC9
57C5
2AEF
2F7
44E6
2CE0
4F2A
52DA
454F
6663
626C
35A8
16B4
4D5D
2CD3
3EC5
30D3
2B81
687E
C4A
6F8B
6136
2103
28C6
5B30
5046
12D7
19DD
4EA4
6EC7
7329
296C
1AD6
7968
754A
ADF
2C62
8CD
490D
68BC
2CB1
6733
2646
4756
4D78
1E0B
5AAC
6D74
4946
60D
515D
7762
53C6
1429
77C1
3026
3447
2BEB
E9F
69FC
23B6
71B4
2868
7FBE
4452
281C
5C4A
3A19
6B72
36B9
3275
1E6E
7EEA
7717
2681
4C1B
32E4
35A0
3665
678D
4B2
81F
71A5
38CA
4A93
48AB
1025
33C
6299
7CE6
52C8
1C1
739B
7209
70F6
7557
7F78
664
6D00
6C3B
1B22
4BE5
3147
425A
23AD
5744
4E34
6B7D
4AEA
52D1
5F88
64C9
3133
F88
903
59C9
3529
7025
4210
6F49
37E9
496D
48B7
7BD5
4FF1
27C6
371F
B0D
777C
7973
1315
2CD6
6D57
6D25
60DD
6AF0
70BD
50F1
478
79C1
6242
2B71
415E
448E
7067
6C61
61F
7E06
2820
7DB8
7D90
4EC
FAF
7459
70C4
43B2
6865
86C
A78
7664
41
3CAD
2399
1CAF
6350
65F4
499E
21B0
2437
F86
6D9C
5E9A
1002
6401
572F
12F1
57F3
5337
5E6A
6356
3F69
7EC6
4E39
571D
E6B
4A53
4367
44D7
3378
2AE7
3D77
4CDE
6FFB
34E8
7F74
33B2
F63
5EFD
49A2
1C41
40C4
22F2
205B
49A0
4BC7
220C
6B9A
3F69
3320
1FB0
3B0C
13D5
B1F
4806
4AF
209F
16AF
660
1CAC
DA7
7CA5
6286
7BE6
190F
7299
6EF
6780
B83
FD7
5950
3419
44F4
3CF5
6109
188
AED
2840
408E
1E0C
576E
5BA4
7F57
3F78
27E5
5D0B
473F
3CA0
713
75F4
3C09
7030
5E86
7A35
7A28
6A16
751C
1EE3
1F5
4ACF
5ECC
54DD
6C3A
3006
275
2E23
2FC5
3462
24CA
2F49
55BE
E8F
14E5
4929
4E82
74E2
2257
70D6
49C5
607B
7034
7775
5CF5
59D
4DF7
6190
709
79D6
6D5E
71AF
21EC
BDF
6F05
35E1
634B
7C3E
48D2
10DE
3A5
7D1B
3AC
69CC
6F8F
72A0
DCD
4A01
1E0A
5AE6
44D5
E01
7193
41FD
6D11
FE0
6F69
2786
50E8
1488
1E18
3413
71B6
29B5
6ADC
7136
47C1
549
1AB2
34A0
1528
383D
8C1
5FA9
2242
6EA1
1A21
4927
149E
288E
3C8F
1A89
3DC8
2F8E
784B
7129
DD3
7E25
411F
21A2
621
710
707E
7AD1
75BB
277E
2914
B94
258E
728F
3D43
1F0
2090
5F06
7906
5E60
39B4
38FB
4533
5311
696
6CD3
268F
7B06
6570
2738
28CF
7098
4C8A
7FC4
3558
212A
49B6
21D1
51A1
B04
148B
627E
246D
2066
63A6
69FB
1FE6
7A10
1C0A
5E7F
51EB
37DF
34E0
4E5F
F3B
774E
1EEF
6738
28D3
38EB
7AE6
7BDD
2744
1AF7
5975
39C7
1243
7D9D
33A0
3CEB
470F
30D6
3BBE
2EB9
44C
764C
3264
743A
81E
F95
6375
2D61
29D9
44B1
1523
3AF8
2798
70D0
3D18
7FC
5F23
344E
7404
72A2
C4B
7D59
2490
6BBA
2559
E79
4788
172D
29A5
7797
638C
7113
82A
5BF7
6597
D00
2751
2D0A
78
848
25A5
D3F
6F4E
7F6F
665A
3CBC
210E
1596
36C8
1424
747C
7206
38F7
6A40
7F8F
4666
62D5
2DB6
6F47
13BE
2A86
77A
3061
1D42
43E5
100A
2294
C15
6733
4B6D
5564
10A9
16CF
3C89
2B0E
484
49BB
181
2BA6
7C98
5D25
3488
40C0
587E
7606
7FF5
6A23
4878
5959
63F0
79C0
78AD
309A
D03
73D5
3EE4
2CC0
6555
333C
1A2C
60A8
3379
356B
30C7
5E88
42D0
11BF
6C05
4934
1C03
524D
38DB
5CDC
6D84
5B6
7562
2D09
41CD
6A7A
2AE4
2E2F
34AD
70E8
6FEE
4ADB
54FA
87A
3C52
6B89
EAE
5986
6865
49BF
72D0
F73
78A5
6F86
47E2
C94
B99
6052
4A66
4CE0
6922
481D
18EA
61E6
584F
4520
79
4435
1FB8
63A0
62A9
25C3
3891
6AD1
1F5
6499
62A4
D5A
22DC
2496
1F2C
36FE
44A5
49E7
61BF
4AC9
F5B
6CA0
155D
5A2D
7CB9
D88
66EA
2B06
53A3
7CA4
6336
596A
C5D
480
78EC
3576
1C9
D98
5A6D
460B
6459
1F5B
39BE
51B8
6836
B3F
7EB7
313
3DCB
6907
1ED
2DA1
1648
54B4
3C20
1EAF
4718
84E
1CAA
1498
4170
2496
177F
FA6
586B
16FC
7D1B
3F33
53ED
93
380C
69F6
14EE
2AF9
6A85
4679
4FD6
11B9
60FA
777B
625C
2C4C
5C64
3174
2844
20E5
7C8
25FA
8A1
2933
C5D
52A2
427D
46C0
23FA
5BF5
7C31
2FC1
13DA
11C7
776A
1F8B
2896
89C
1B0D
31BF
6994
EB7
B41
2945
1EF9
5C15
20C3
6F87
66F7
2286
977
CD
76A9
7425
691F
5FE7
72A9
7CC2
105C
7C7B
6D2B
7313
2D29
5159
31B7
2ECB
1B9
7785
113F
284A
44C1
7A61
6A85
48A4
541C
7D7B
2E0
6956
76C1
63C3
48AC
59F0
5B4B
7A48
689
159D
6072
5338
6491
684C
7468
5FAA
3AE9
4966
15AB
2A0A
FEA
546A
4D3C
5E4C
4548
3F5
7F3E
4605
352F
B4F
19A2
352A
52DD
2148
606E
417B
4D02
63B2
1BD0
7281
280B
119A
9A1
4CA2
70F5
4695
3F88
6943
37FB
7AB4
44F5
66A1
4244
3318
96F
58
7ECB
602E
692C
5EE9
3B5B
3397
2F0
2F7D
5C78
604A
1609
A01
114B
1E83
1B45
5A0B
61C5
2677
2CD9
72C8
6C51
6D3D
2DF6
1D7C
21F7
7BE1
698
6BA7
31B9
8E
67FF
4B16
6C9E
58FC
3380
1644
128D
6FB2
2A00
13DB
6C74
26B2
7C3C
4008
50C4
A1A
5700
155
198B
2166
3DF2
5D30
3554
7722
5E6
7F3F
E26
1E0A
F36
2B68
43E6
1FEF
4CF7
13D8
64E0
F1B
6072
3D8D
56B3
6ABD
2882
3159
FD
2454
7D56
3FAA
432C
9F6
10A
1AAE
6302
3C40
478E
2DDF
60EB
135
6453
7B3B
7FB8
19F6
4563
56E8
43A8
3B56
3E3B
FB9
B25
3105
596B
63ED
8A5
44D3
5DF7
69A5
340B
2D8E
7F2D
61A6
6D7
2E41
546C
49F6
28D4
83C
45FD
305D
58F8
1E49
475D
2E48
2C1A
7374
6D57
331
6860
6581
4EDD
5E37
2C5C
D4E
7E5F
3D53
38EB
13BF
745B
6DA7
1EDE
2CA8
3B1D
7A61
3DA2
2901
4369
DB0
6A90
6134
7FD7
28AB
503A
69C3
BBD
376F
3F69
52F3
7C7C
523A
4D7C
3A05
4664
317B
7847
61E4
756
211D
46EC
6D92
7801
A72
3523
27CA
1484
1FBE
2984
5AA4
4D07
180
7DCE
549F
74C5
374
24C6
6DB5
40FF
37F0
D91
3D8C
1372
41D1
3A42
2CD6
2CC9
572A
7DE5
4346
B78
79AE
5838
20A9
4690
3555
7AF7
3E
1465
43C3
1B5A
7279
4430
2020
5977
917
4136
2277
213C
31C9
53B0
476A
3D93
606A
4662
FDA
3E84
54F6
4D7F
2CB2
48F8
6C3C
593F
537D
6DE5
5C49
7E98
4D46
7A10
1780
12B
958
550C
7500
4EE2
2230
5405
6535
407D
1FAD
5DAE
6871
743A
7381
739D
7EF5
6C74
7FCD
32A6
30B1
7C9E
2DDE
126A
5841
7300
790B
633C
63D8
7B13
383E
7E32
586E
7951
347
B3
1F95
64CA
5BE3
6D15
50CC
4713
68C5
6C30
30
27A1
1F72
37F0
79E2
269E
7EF8
23DE
7EDB
CB5
2C66
463
2FF0
903
12D7
3EE8
206F
C03
3146
4F71
59F5
71C6
5DB8
48E8
1EFA
34FA
4368
2621
3659
1DF8
1D78
167A
10DC
5DBB
5267
6882
13AF
1046
1B89
6046
6CA5
247C
666A
1DBD
5EF5
4FFF
68A8
6FB7
27ED
74A4
4AE7
159C
7C93
3E98
4FC9
1EDD
5445
6870
185F
6C29
3581
37C8
A31
776D
42B5
EF1
2A2B
3724
68F5
33FF
4278
4114
7BB
2A87
2F47
43EC
6635
31F0
2A9E
BB2
2E0B
5E8A
334
28E2
484D
1E99
76DB
5A6C
74E0
1F9A
5445
2452
6405
1D64
147D
24E8
75D6
7739
4761
A67
7325
399B
55C0
ED4
297A
49F9
1267
56CD
48B
5E9C
33B6
3FAC
C5C
54D5
1F0
5B79
2F12
1EE7
9DE
2DFA
541F
BE3
3090
599C
505C
72AB
5B43
751F
4F0B
301
93F
49BA
30A2
921
10B5
1410
2753
4C9D
7527
790D
C3D
1813
6A72
C30
7400
3952
6887
4610
6287
14AA
1ECB
DA1
42B4
6D62
6EEA
1B73
27CD
4D78
30C2
253B
4047
14A1
6D90
54BA
153B
235
2F44
4892
178C
5088
2B45
3651
4F9E
1B97
72DD
35BE
39A1
18FC
32F1
594B
938
4C1D
7315
39A8
6919
3F92
2A33
51AA
6BFE
46AC
1510
3DBD
2F1A
13BE
669E
A43
738E
555C
6A9D
23A2
2538
514
2D2E
4E3E
4721
6910
7D99
5F5F
3251
281C
658
4060
6B23
7425
1F24
308F
4365
5EA0
39BE
2DDD
4A67
78BE
23ED
45E2
7A7A
6F41
6AEC
6213
72A5
6031
4FDA
69C6
4734
5BC4
6787
1D3C
127F
290B
46C0
719
67AB
2487
DA1
1987
4CBE
1078
7CFA
5BFC
A50
51EE
7555
4812
239C
7D9B
3205
4D57
42C4
43AA
B95
1A68
E57
3680
1EC4
5A28
5E88
6F70
1EDA
1DAB
7DEB
45D4
1E0
2CFD
193B
82
245B
5C5A
22F5
5B6D
39A9
7757
11F8
3639
163D
5B6
488C
4E3E
251D
27F3
64F
71C9
2773
385
3AD6
17E2
367D
2326
4D9C
7E04
6757
15B3
4C5C
41C6
1D15
67E1
D7B
52AC
39DF
1771
5B5F
519C
3B53
1F79
36A7
650
D7D
100A
31C7
1217
41EB
3B52
5382
785C
63EA
14EF
FB6
6F0D
593D
6BE3
39A1
6024
31FC
6541
70E3
39BE
42A5
2989
44CE
57B3
40CD
6EF3
338
34C7
5818
3FD3
979
6AAE
3448
AC0
6D0E
4568
4F26
66C3
2BD7
7A8F
476E
3F9F
D8
365F
E57
7FA7
51B7
44D9
D01
6387
1F88
4EE8
6BFA
ECA
21E0
1D39
7E89
63
1AB1
251B
59E8
6B56
4FAB
3638
7162
25A5
279F
132
3F20
482B
6FED
2E7F
4214
628F
64EB
67
197C
5356
C2D
14BA
50AC
3C0D
61F5
1D5E
521
7C6D
5377
601E
5C0B
40EE
2456
19A9
1EB0
1191
6D1B
49E2
68B0
2E3C
60A4
34BC
15AB
88F
36A1
3666
651E
7789
1A09
7554
7BF9
2EAB
18A0
6921
4B63
20F7
7448
76E2
2898
6525
42A6
4966
64FC
3F59
4477
405C
5E20
3800
7BAF
11A8
4C05
36C1
3066
4838
3ED6
14F1
566B
1D79
7340
4E0C
594
BA9
749E
2537
5C0F
2C35
3D10
110C
1856
382E
3937
66AC
217
1953
68F2
335B
4B60
6BE9
18C2
2B28
3A28
6CFB
2827
5A93
185A
353D
69C0
7D67
4FF1
A80
16A
24A6
22E6
12D2
73BD
791B
1943
7C36
1C2
5F0A
35E9
5B8B
15A4
554F
5FE9
A48
7290
57C4
23A7
3F43
42E9
6F54
7622
4235
1660
13E
50E1
59E6
57BB
45ED
B18
2FBB
4A42
2F1F
617F
6687
1CC5
6F05
7061
22BF
6B92
C5B
5DD2
4E2F
77F2
5780
49C
6783
857
606B
3356
3DDF
935
1F24
4589
63C0
1653
317
6C5B
2D33
116B
58ED
283B
FDA
7706
D4F
2507
17B6
26EA
5E27
22B9
77CE
5466
6E26
65B9
13F8
3557
A8A
5106
4C11
191
12AC
535
F24
482A
5B15
66D6
2AF4
5BD6
191A
408F
44DE
4ECC
4314
4C3B
444F
2AB9
51EF
7B5D
2091
7138
46CD
437C
2132
2F3E
3193
8D1
39A8
F44
29
25BB
DE9
23D6
77B
5B14
B80
5812
2522
41C8
1AC2
5DB6
6DBD
491C
689A
6513
A08
2790
27B9
AEA
1E30
1D72
2CD6
7288
34F3
2A91
36AE
514B
7780
5410
55E2
5AB3
C9
4B23
1E39
1EC
538C
324B
179A
3E20
5734
75A9
6610
611E
2AF9
17C9
7415
303
16BE
B99
2258
275E
715
330D
3A10
3508
645C
68AC
202A
44BE
611F
60F9
75A1
25D4
2C08
4BB0
4EEB
703C
3E43
B99
74AC
74D1
8EC
2AB6
12D5
4BC5
1054
F31
4E2B
5483
27BA
1749
27DE
2840
13EF
B1D
2C0E
4E71
1C1C
7D2D
A46
3EC7
570A
7705
15DB
638
7738
2D44
6412
1566
3EBD
43AE
763C
60E8
3A77
5238
14BE
1FDA
879
7C9
4B17
1BF6
655C
4FAC
4C6F
7900
371F
31B1
13DB
4048
3AF4
56AB
4246
2709
336A
5C60
C61
3C05
4E48
26D7
61F0
73EA
133F
20AE
4970
4B70
61D5
265B
3727
47E6
726C
498
1D43
29D1
2CE6
56B4
456B
7FD3
1BB6
4E52
5D6E
3890
8BE
4912
6A03
281D
604
3EDC
3C59
1E02
571E
A2F
254B
539B
57CE
1735
7FD7
268F
7782
482A
2B64
46EC
14E0
5DA7
1CDF
31FF
7559
6647
732F
3EEE
7E9
4C66
59D2
3620
4FE5
6DFF
953
5DF8
424B
5B10
7E10
26AA
27F4
371C
785D
3085
6089
1598
349
54B5
646
55CA
5E02
5998
264
4D89
26D5
284C
77A4
2C1E
176C
645C
74FE
10F7
1FF3
782
30F5
2492
104C
77F8
54C3
491
42D5
14E2
66C2
3287
739F
49CB
7B00
3ABC
6D2B
54C9
3FDC
5250
707C
37A8
6EAD
449
323F
34E1
5699
1FCF
1C82
7D85
7B07
3769
878
5354
1E2C
1258
2E9F
74BC
5DA3
2901
2210
41B9
4DF0
248
2393
75EC
23C4
60A4
1CF7
7567
3EB0
67A6
7B77
1458
1112
7521
4F9C
2883
6EF9
16EF
7D3E
2359
43B8
7B9A
402
74C9
67DB
681
618C
5BD8
79AD
A7B
6D17
2909
456D
192
65C5
122A
6222
1A88
2635
4D7A
3186
248C
2356
83D
1A96
66BD
CCA
6603
3B1
2B3F
6F
6924
C82
C33
42A
26E8
3219
7BD6
1CE4
11A8
5BAF
3308
6FCA
31E7
16F6
4EB1
670E
606F
5707
40B8
1665
4E19
152C
7CC
5A75
1986
3A72
6937
79E0
2BF7
20D
1099
5F6C
32AB
57C4
23CE
239B
3922
6FA0
22D3
227D
350B
1234
6725
6EC0
1DDA
531C
6CFA
28F6
47DE
67D5
46C4
5A9D
6C48
1D66
538A
748C
7091
3358
6C81
75EC
7673
269E
128A
3BC9
60BD
E86
42C8
5964
1F28
5EFC
73BE
401F
5DAA
41A
7E0A
7345
6F36
1AB7
29D4
3A2
3FD9
18B4
6BA1
3C4C
7A44
3E47
502B
224A
560F
661E
513C
6D9C
4A95
4614
654B
6474
3533
7B1C
5E34
2B01
33F7
362C
704A
543B
393E
5B6B
71DA
28
56F7
5E92
76F1
26D0
3F0D
6A76
990
60E4
7D9E
53C7
2FA2
462B
7B5
4B13
7EB0
4B6
39BC
68EB
878
58CE
6A1E
4731
451B
A69
5E17
127D
337F
1612
32A4
6E79
5458
220E
3185
3EEE
392C
3833
3FF3
4706
30DD
418D
53AF
32D3
14F1
393B
1B2A
661A
14F3
4D49
2798
47E6
156C
527C
437
7E4F
4871
7184
413A
5187
20DB
933
4D45
75B6
71DA
6B17
3D4A
689C
1C6F
6D5C
5A35
59DA
4D51
C66
552
349
167
4001
306F
7BA9
2BD8
2F10
5CBE
1E56
5C40
131D
F75
3283
4F39
2023
3D6A
76DC
4167
94
9A7
712C
6D07
43B1
7919
5AAD
6548
22E6
2797
5EE1
DA8
33CE
336B
D31
5BED
2B2E
4CE5
15DD
66C8
9E5
73F7
50AF
1C73
4AE7
7BE6
3789
6D94
642D
4D62
196C
2587
1826
16CE
6A21
37A9
7C33
C9B
2C9D
2C05
6077
7ABA
45F1
523E
5B9F
2816
52B5
5855
494
4455
49AA
7FD2
230
30FC
339C
1CCB
2C33
1066
3708
4BDA
2F48
6BC3
361A
4D20
311C
853
6763
3CD5
77C2
4697
3088
26A1
573C
2A69
390A
6085
2360
2746
417A
7B1D
2919
213A
7AB2
6C6C
CF2
549F
659
1909
AE9
4696
449E
80D
4D47
145
21DB
226A
16E
33B5
6D17
232A
325F
35AA
783E
6C40
67D3
6204
378B
EBB
3ECE
79CE
57BE
6EEA
284F
7D5F
4B0E
4E6D
386
447
120B
7354
6FEA
3555
54C5
3977
15B3
34A2
7197
57E1
755F
630A
2C62
A83
2FC5
6FDA
7ADA
79B6
7B31
211C
7D73
5ED9
76CA
2ACA
706E
6CC0
23F5
3390
5978
6A53
1B4E
5F57
37C4
3677
1EC5
CB4
128C
36C0
268A
756A
3F51
11DC
4E00
266A
6EE4
33C3
6B0D
6F75
4B2B
6B06
300F
7701
439F
5D80
B6B
5DE
D73
30BF
2B12
76C4
1986
2AE5
4585
1E7
56E2
292B
432F
48A1
18E1
648A
6
6A86
30D0
3AD4
746F
306F
C75
434E
68E9
1420
6F6
4A4F
796F
1DE5
37CE
790A
49C1
5545
6732
5F6A
4F52
5B15
64F2
4169
635E
CFE
1507
5EF7
434F
1883
6624
3B9A
66C1
12AD
3124
5953
35CE
5024
2A4F
79B
5D53
7D88
ADC
660
1957
4765
709E
484E
15D4
75C
5EF1
6FCD
6B3A
3EE3
7005
1134
2816
684
3E63
28AC
6321
329F
65C5
1068
43F6
42C2
1590
2C5A
2D1
EFE
D45
6ABC
2EF0
7112
3103
DEE
37CD
3DB9
675B
3F24
48BB
52A4
48B1
613E
68AC
56EF
20D7
1554
3012
127B
4518
42BE
3131
755C
1ABF
4264
3E21
F73
3C2F
55DA
6DEE
7BBD
2724
446A
2B58
5EBC
336B
1E50
4E5E
7542
4D04
4FC1
1611
16C
1C53
C56
6F9B
1A95
44DA
1807
7B40
2E5F
3B22
3BEA
19CA
1EA7
353C
1957
15EA
377C
586B
4830
2535
16B6
6969
51FD
28CD
7BDF
5D81
27C6
12C8
3409
1834
266F
322C
527F
15F6
1D27
7EFF
7C9D
115
2F53
29E6
5DA1
63AD
1D58
5079
7052
61B1
F56
75D7
237E
547C
64A0
7436
9A6
6A82
6F45
1678
7797
38C5
3676
5FEC
39D7
2E4A
837
11BB
74CF
42B1
5974
227
2A87
42B
43E5
4F24
54C7
4AEB
2DA7
278A
76C8
423
7149
164F
1E82
308A
11B9
3D18
2349
565B
261
2BA8
3150
1BB
3A50
1A28
26A3
4D87
56D6
278C
2BD4
39A1
1554
671C
18AC
6BBE
58A2
5963
5BED
4717
2958
67EA
100B
2E44
5004
1A2E
2D43
794E
193F
490C
7F3B
36B6
7451
696
21B9
2D8C
7246
2A22
375E
2A7F
359
790D
10A6
45B0
5D40
7AAD
5E7
1BBB
7F7C
5332
61EB
166D
726F
7BA8
320B
5002
7C2D
5572
2223
4E8D
F8B
5329
5BD3
3BF4
7084
389A
1D57
13F4
5AB2
5359
4983
6AF6
47FA
5D3A
1E4C
5392
1754
7813
6E39
550D
4C89
EE0
2963
2F3F
56D9
34A9
46F2
41C1
1BE3
6750
4FCB
7272
37A
7585
1485
3971
35C0
784C
115C
B0F
29E7
4441
7AFF
415D
54FD
46DD
6B20
1C63
5E51
BAD
3176
7A14
7E34
3111
5BD7
5476
4FA8
6368
3B6C
1873
5C0C
4005
4B32
26F0
2B66
45EC
F45
5752
1E90
73C5
4BE8
5446
7530
7ECC
6374
59AA
2C00
69AE
45DA
6EBE
35C8
349A
6A3B
153D
5082
331A
B70
76D
4521
7D95
26E8
1D05
7981
870
521
2B4E
63A
4B54
4507
5628
1A04
4AAB
1298
7160
217
43FE
FC2
7186
2ABF
25C1
119B
585F
1CE9
2867
3C19
3975
66DB
11DE
7651
CD2
62D9
30ED
6204
3DBE
6226
6D0D
2826
72D5
7535
50DC
AD6
6DF3
7BE5
3E29
562B
71AE
61EA
13B4
2A98
724C
1CC4
36E2
3689
2861
6CB5
2899
1EA2
53F6
2FD1
24F3
41BE
4164
7A26
7D26
4EC0
71FF
4209
3F3E
352E
3FA7
6F69
3C5C
17EA
EBF
2312
26AD
6429
1251
71D9
4947
5F28
6995
5054
53BF
445
4C08
3EC6
4FA3
56C4
4C77
18B7
51C3
3ECE
1974
7485
4307
3043
649F
5A8
7A0E
438
7DFD
6962
33EC
6CA6
7084
558B
6F2D
1B1D
2F9A
69A7
4497
10C6
5C00
6291
1A4B
1B08
562C
2547
B3F
23D9
7FBE
7952
1AEC
3835
30E5
169A
54C4
2627
19DA
28D4
4FA4
773D
53FB
2044
515
545A
5470
B43
B8
3758
163F
6129
4BE3
1930
6B99
625D
1C71
7A81
3406
5657
5A5F
1FF4
4737
D46
3D1C
38
674
11C1
7127
5465
4BA2
5EA3
A1F
1708
6124
327E
BBA
8EE
6463
4B0A
6858
5045
74A9
5827
2E57
8C7
BC0
447D
6B45
3E73
574A
3EB1
58
4E4A
1E70
5340
3231
14C5
6511
BE3
7E45
729F
6DE9
375F
46B9
3881
2A89
