67B1
5708
7088
21C8
6729
4B68
3469
6269
6D0E
392
4F18
F62
708D
7392
1368
34CF
699A
CF0
4529
1D8A
6515
39D0
5916
6CE4
5E58
29D0
EBD
4A8C
5F13
14F9
5A94
3BDD
5DE3
44C7
6184
70B2
517D
7D35
3B48
4511
9D0
219F
E98
5507
D53
2123
639
4679
82F
6575
3C50
65B1
7BF1
7D03
3129
54FE
792E
7777
6FD2
110E
26DD
3CA
5519
677B
636B
38AD
5E9B
5AF7
791A
6CCF
40DE
756D
7920
7E9B
12F9
5A39
358E
6EB4
1C4D
4EA2
5E66
70D3
75E2
78E6
37E7
914
7984
4B80
2D4E
4EA9
580A
8A3
65BA
570
5C05
1D4
27CE
316
5A7B
41B6
485
5E01
74F4
4604
7AA8
7C0B
634A
BD2
E4B
41B8
552A
41CD
461B
7D2B
5925
4E7B
5F05
42E9
6886
7316
35FF
5363
71F4
2794
1ADA
C5C
7235
306
1E70
1173
774D
2969
68FB
5D95
2E04
77D3
4934
5E27
6E4D
5870
29EB
2CEF
2F45
6831
1EC6
46AD
20E7
38ED
5424
4CF4
5236
F39
5F2B
3440
DBD
406D
36E7
7FB6
261
63C7
5DC6
1AC3
670D
178D
50F7
1547
A45
2677
4280
651B
233D
7410
4C4B
275
781F
2CC
5D1F
19A5
BD0
3934
1792
36A3
383F
3A45
2A6F
44F1
6861
3F14
7B33
2845
251A
19CB
372C
5D8A
13
37C1
384C
3C8B
7384
5E47
6341
2833
7648
3171
5C94
5BF7
1672
1536
364D
4C7C
2B8F
54C7
4360
4F7E
12F9
2B3
75C4
7080
2B59
6028
29B7
1512
3D8C
7E11
1D26
4A2A
243C
441F
2B30
6405
5271
60DB
2146
7CE0
16EA
39C5
7675
2018
4AB
6F75
5B40
22FE
784D
7AC3
63C4
6035
3F8B
28DD
C49
5051
57F
7DCF
D0D
24A0
6F99
23DC
796E
5A8C
7BDA
4135
5E4B
43B4
5C9F
E6
1687
2C5D
12D
482
20E9
1354
24F2
546
6160
653D
213B
4BC1
75A6
65FD
3BC7
688B
C56
2EB7
7490
19F3
856
4076
5541
2755
6D21
452A
36FA
D9A
5F5E
789E
1001
76CF
3A3D
3AF5
1D2
1DD0
6E4B
34C
48F0
2A83
4573
5F94
77C6
7A9
2C68
24C1
2680
2ADB
3F08
3E07
C34
14DC
524A
3C1D
51FB
A91
5D87
43D3
1FA5
5A43
3253
2CDB
21F3
4A16
11B
4308
4450
4B13
511
1172
6615
5D4A
3466
442C
5DCD
50D3
6432
7726
3EF1
47EF
55FB
5729
7A21
147C
2CE0
245B
668B
899
F9D
3B0F
3FEA
6BA5
22A4
1F86
5198
1E1
7AAF
60CF
4FC2
4891
3A86
76F5
754B
3C67
4E25
5CD5
65C8
405F
633F
1B61
1AA1
5EA0
7267
1BB8
FAB
44E0
3549
268F
294A
7B0B
6171
4C56
7EE
99E
6277
25E0
7532
72ED
3176
3988
3797
2878
56ED
742E
703C
6F9E
6B6E
190E
4254
586E
6B8C
1A37
E71
4F8C
3610
6110
2E38
46A4
47A1
5589
64AE
1DC5
3F0B
2F33
2F88
5DF1
73BD
BB7
649E
47CF
5CF7
2F1
1746
C27
5FEB
645D
51D9
6E98
37BD
395F
5872
D5A
34F2
7B95
2493
60B5
6C7C
1E24
7B79
57CC
4573
2AEB
6BF8
3DD8
4892
4360
74C9
6D04
708D
1296
7778
75B0
2D57
26D4
7FB3
650
716D
2B77
4B97
4238
6959
5028
3175
16E
5DD6
168B
5DE5
1725
1A51
6311
5E87
4802
1483
4104
2802
2E87
2BA1
6488
5C5B
5E8B
6368
1D56
5D17
294
7B76
43C7
370E
61FB
5568
75C2
4DD4
245
1901
70CD
3488
4E3B
4008
123D
20D
1656
6FD7
7A40
5062
400F
4528
20E9
4B5D
68B
4B45
625
5ED3
140F
7C79
43AA
D0D
70BF
4B1
48A2
67ED
4A7E
3C8C
44F0
34CF
4368
7FDD
60A3
697A
68D
29E1
1A0
6815
5495
5259
60CF
341B
4B46
5259
A5A
C62
5CE1
601B
53F6
5CD9
52D1
3A72
3D64
42B8
72A
5E0E
517A
3DFF
34E7
3739
4FBE
3EA3
770F
1FE
61D8
2ECD
5757
379B
6B06
355E
BED
25CA
176D
48AE
22F2
5A99
2CBC
826
1E2F
32E4
5D26
5DF8
1079
3826
6065
78C9
27EB
633F
3EA6
41EF
7CFE
511
1C6A
4534
AF7
BBB
75EB
BA6
3D9
64A9
4394
2FE6
479E
78E0
2813
76B2
17B4
3A28
1A5B
5FA1
51AA
6527
52D6
30F9
916
5218
3EA0
60DE
1C41
36F
1226
6107
1E20
2B12
6A7C
4641
769D
173B
8DA
65B4
4661
464A
1848
6248
4EAA
7EE8
2ABF
6D77
6C47
7DD7
A6D
7887
7D9C
5783
532
1820
6DD4
777B
6312
77B0
64AA
2E5A
1296
707E
4A6A
6133
30C1
EC
7EA9
54D
3A7
33D2
4887
237C
800
184C
3CE6
3BB9
7BC2
5B11
6BB1
7009
38E7
3350
2876
39AC
3E25
32DC
4E85
560B
3E96
2425
1A92
564
2AF7
161B
1E83
67DC
60A5
11C8
7040
6622
5A10
574
2ECF
4455
59D7
6C9C
52CC
315E
7DBF
7A75
2EF7
5C8D
2261
6D6B
57F9
6726
611E
3951
3531
555E
302B
7F2A
48B9
4DA3
5639
3A6A
5FDA
4FA9
D0D
7E46
5C22
63C
2E65
52D5
400
5EBA
114C
5E97
11A5
1CF7
438F
1E92
33B
2E52
15DF
62C8
5860
4D9A
742
4FDA
7F1A
1C40
162C
74BE
7FAE
4C30
4337
332C
22F7
3628
14B5
7838
515C
3ACF
5562
6710
50D5
7771
3584
3C89
10DB
ADB
7FC7
870
2BF4
518E
B02
6A21
4D
16CE
45F4
4590
7A9A
3C82
1B6C
31C8
3693
793A
6D32
4F1E
30F3
41A8
6EC5
5CC9
440D
73F
7FC1
76E7
2E16
251
1069
B05
6604
51C2
18F5
3772
20C1
60EE
1E1A
5E8B
37A7
2917
3410
327C
3AEB
1A3F
913
7E1
7C25
603F
5BDA
2E60
66FD
673B
226
5A22
63A2
618F
88F
7DA3
5073
3D67
4B43
370
7590
5F27
5DF9
106
5661
3EBE
4BD7
1154
2EAD
116B
391D
4B43
4970
3B54
3A23
7F02
5152
B71
1BE4
6AB6
11E5
1D75
623B
2CA9
7896
3680
2615
701A
79BF
2854
2538
66FB
26AA
5385
3806
6935
5B26
266A
7AE9
3F55
644B
7E45
453
4DF5
4BD3
1C0F
DC6
51E2
3D72
3D88
56CB
EDF
2327
7E64
1133
11A3
12B1
37A4
76D9
525A
76D1
54A9
54BA
2546
397C
6DF8
C0C
4F9C
4012
39F5
585A
31A1
BBD
4B40
58A8
27EA
7FF
6D40
6AC2
6EEE
240C
7E37
C56
40B7
14D4
2AAA
1E43
6F0D
6275
4DB1
7120
18ED
5455
7499
438D
4DDA
2C30
2977
79C5
1291
6079
3C40
7B85
289C
7B6
1CE9
56A8
18FA
15E7
2D81
62E6
75FE
41AE
72C1
949
4C68
C0F
4376
3B12
59E
1728
33D2
471F
2CF
6548
270
6855
43CE
30AE
66BE
2D39
14C8
335
2688
581A
5419
233D
7C70
795F
7419
4909
3948
60A1
3423
5C89
7D09
5F6C
5999
114D
3078
6D17
13C9
39CB
14FF
7900
4D32
2CFF
3618
3568
629C
24BD
2321
A4F
4C9B
5AA5
36F4
CF9
5FD1
830
61D5
7F1D
93F
461A
5137
78EB
2B95
3E50
426
62FD
E80
2A4B
C65
4B0A
3DB
490B
68B8
417
5329
48F0
350
12A3
51DC
72F3
533C
7600
7B2F
4254
478B
19FE
132D
2F16
530A
77C2
640D
C
301
36F
15C4
2E01
1870
6ACC
3E89
649C
37DE
1FEB
1AD
5D5E
79A3
9C8
52F5
3007
4DE4
4C7E
7967
326
4CA1
DBA
7AFA
3F7C
1673
4B74
AB2
3F30
5B35
3B1A
13B1
3D08
18CC
420A
36E9
5E26
37F4
6E5
4137
7687
4D5C
37CA
2CA7
107F
44C9
2E49
7E5F
4F92
21F0
FA
331A
2757
5BFD
BB5
606E
304D
2FAA
3F1D
1FCE
7A06
5CB5
1FDE
5704
2A74
D2D
7FCE
4142
5793
1173
3710
51EB
4318
4FE3
1CD6
5A29
49FB
5244
38CB
3F6
B17
7575
63D0
4BAD
4083
2FA1
3213
6BC1
3314
5097
5F2
5447
53F7
C7A
3356
7320
1E5
5068
7F20
17D0
6063
5ACC
4249
4BB3
13DB
302F
4DA9
7F7D
6B26
FA8
769
2BF
7191
51BC
6DD0
6B7A
3E74
217C
78CF
46A4
22EB
4BD7
3AB2
7AC6
2991
1F4B
61D7
4A9F
77F7
3AB2
6C5B
2D40
2583
23C8
461D
3CB9
1A90
721E
406D
7779
2C43
4821
47A5
3AE2
47E9
5B97
8AC
1BA1
7352
3FFC
2B0D
DB3
6D5C
2BBB
915
5CD5
7F42
AB8
5AFE
343E
4DAA
166C
3F9A
A56
5E6
31AE
6719
1655
22A9
5E72
12D5
890
1C49
6899
30BD
5093
6D94
77F0
621
1189
46C6
24E2
3751
1CF
5962
2736
DD9
3DFE
5362
51D
6A0A
2788
4474
5FAD
CB8
3EC6
72ED
3D93
1D54
32EC
469E
6F3A
4538
3A63
41C6
3E10
3F03
3DE5
2615
7984
6244
63DB
2494
7C35
686A
1B5C
184A
3942
2B9E
1125
59AA
5D43
5ED4
3841
3165
4AA4
DFD
1DA2
1F13
2B7E
1247
6E91
6278
548E
4B0B
3044
3C5E
712A
967
CD5
F7B
6FFB
1799
7F03
6BC1
6548
48C5
30CA
398B
728
6F36
6809
1FC3
40EC
4A9A
17E3
57E4
616
3699
47B8
163F
1DC0
20EA
3926
3FF9
27A0
6EB0
37D9
6C85
70D7
4618
6DE8
182E
2E2A
3993
4A44
7AC5
5172
2F19
4684
3524
4949
6EC
3452
68FD
6E4C
708E
518D
4026
127E
6EEE
1901
4768
3132
1205
6C94
30EE
6080
1717
5F60
5EE9
E1B
6482
18AD
1676
4343
3EDD
3DCD
46B6
2A47
15C5
966
4C4B
64C9
77A0
E0D
1BE8
187A
4881
6995
6FF4
3234
2F25
6F02
75D2
46B6
37F3
10EB
4525
5932
60CE
149B
545
3452
6137
6575
940
749A
7289
5230
2A68
2154
1391
10FE
6488
2C7
5489
286D
2DF7
6EC2
693D
24EE
3000
4B33
1EEB
E3A
40BB
6233
4A46
3E1B
792D
13C
6C11
3CA6
B0C
41B2
27F9
24A7
3B64
502A
472F
2354
5273
5EE9
5DBA
391D
D3
5C37
3F4C
3D28
438F
3432
7625
5A0B
2758
3E94
5EBA
35C8
6E31
384A
7537
7698
456B
D00
387B
4A7D
1776
6B8
33F2
5C6C
E17
4540
28B0
52B9
1099
4326
6AC3
73B1
36AD
3D95
6B6F
39C5
6743
5E80
6A0F
59A0
7975
1B8
2CBE
7E1F
57AF
5654
1B9D
6F3B
202D
3D35
6089
5C35
4F30
2FDC
3160
2ECE
2FF
3624
3A78
1092
1374
513C
2027
75DE
375B
6E58
8F3
7A8B
2B86
742A
7210
778
1A77
73C9
2A2F
1BB2
5FDD
68E1
5188
22A8
4A2D
7580
67FC
3FC3
31D9
3364
7EF7
6654
7A74
396D
6125
52E
B60
552A
1F63
194A
66A8
44D1
806
7276
3958
1AC
72E
324E
20CD
51A9
5937
251F
7DB5
BE7
4C6F
5955
6D32
5E4E
1DA
1A56
2730
156
46B0
5780
540A
672C
589B
3319
4DFE
697F
12CA
90B
5A4
3257
5A6D
521D
77E2
4A10
33AA
6900
361
391D
1D08
216F
41B4
7EF3
26E5
23A5
5DF9
3595
106E
7DFD
6320
56CC
57DD
58F8
4F2D
110
B71
822
7140
525E
994
2050
8DD
3225
239
3C3F
40AB
4EDA
5535
57F4
5A93
60C5
1111
3576
65D6
1CCF
1256
6CCE
4A20
D20
2E2F
5955
76D1
5530
4B24
7FEF
677B
4F7D
7733
570
84E
2872
12D8
11F1
1108
1139
7B21
4B01
4585
1821
44DE
845
6E57
6408
1169
423F
53D
5EAC
7AF4
72E
275D
2352
3B6E
48DF
4861
4EC6
7AF5
4C31
413B
36F
6709
3216
4769
1AAE
28FF
C45
4C31
2886
45F8
6DCE
3628
53AE
1F3B
29BC
4531
59C8
3926
342C
5FA2
16B7
7D9C
5FA2
696E
141B
2D40
523B
1615
268D
4E57
37D4
2F4C
77B5
49F9
4FB6
318D
2622
C57
55FC
2895
336D
48CE
3C1F
3A29
7328
232
578D
7D96
6D51
5E04
20D2
1387
44B1
7229
59D1
2CB3
2C7B
5BE6
5FD5
10BE
D39
6B80
4016
7AA5
377
6AEB
6585
6699
4EED
2006
76D9
41A3
3175
2131
2B62
47A0
6970
4FEA
3E22
7E4D
60B2
4AFA
72B6
4AC6
67E6
4191
2B5D
185F
62AA
401
7C9
93D
5BF7
2699
2AEC
234E
781E
5C48
7CC9
2EC2
7BC6
581E
5A82
1CDC
7D32
742
264A
22C9
63EE
46CF
68F7
2D30
7291
7CC7
50A3
1BAA
4D87
1097
1B07
2EE
42FC
4981
9FD
5D5F
7850
722D
25B8
28DF
2B78
132
7F64
5D59
711F
5F16
6269
40B9
387B
45E0
790
2508
2444
1985
2826
5C50
1AE
7F4A
6E3F
D73
7E60
7252
219B
1F3F
4029
7EE1
2ABB
46C9
4C8
409
51D4
5572
3109
380A
4DC9
1D1F
4216
730D
263D
189E
626D
1C80
36B0
69D7
6524
1DBF
7D2E
196A
3D6E
2281
5110
298A
5514
7A7E
33B1
63B8
2033
6FD5
45AB
5DB2
4CEC
5308
768
434
4758
5525
74B8
33BD
2EF9
6072
74E3
7325
28EF
2E6B
4CCE
BA3
12B6
6D40
1703
34E6
33F2
12EE
6964
3889
F54
666E
F85
4B26
6A28
BC7
4D60
EAC
5289
4DC7
55E6
53E2
6A3B
6C79
7F0C
9EE
1EC3
766C
B6F
7062
5D1E
2AEB
581
13D
322A
6852
1F0
4332
2197
38EE
2A15
7250
4916
2131
4BB1
3912
24F8
7B3C
2FF9
4E3
14E8
55D5
528C
43DC
2185
6C74
6692
49F3
6AC7
4B52
42E5
CBD
445E
31E0
48DB
6FAB
2724
7752
7933
4AE
35A4
19F0
49F0
14
2FBF
40C1
5355
2B2B
7E57
7B27
5BF0
5760
469
7D82
8C0
1A4
52BE
2EF6
6C24
7511
554B
1A12
1287
2495
D70
4643
2D00
4CBB
6019
429B
7A7
7A53
6CF1
766F
5B39
40ED
E44
6EF2
6D04
4ED5
673F
337C
984
676
236A
17A9
422
7010
1B79
614B
5424
E96
24C4
13A7
4060
7838
701C
3B83
105B
5566
590B
4FB2
1F7F
5533
7ACB
5080
19BF
3239
7AB0
1928
3FAF
5AFB
2F64
55E0
3A3B
7556
5E78
32F
2E97
166E
7B4C
60A5
70E0
5967
2786
698F
2D85
5450
437C
35CA
6E06
15B9
5F0B
699C
3901
5286
7129
789A
4841
2331
2FFF
7EBC
1063
4EDC
1C05
1EE6
1DAD
63B3
432D
1C92
77C4
282D
7C40
23AA
4FFD
2E69
766E
2049
54A1
7D29
2027
7730
474E
3495
498B
7AF8
540D
2A0E
161D
21DE
28FA
3F59
7BA3
1AAD
3CFE
51EA
142
6C92
C08
27D5
18EF
5746
5B16
3963
F7
2475
568
79C
1906
4059
4A64
4D86
6DC1
6E4D
34A
703B
13D5
7331
435B
715E
64BD
6AA5
24F6
E34
59C8
45FB
7880
B09
7432
FBB
65AD
608D
2808
3FBB
7958
7B28
67C0
911
7CF2
26B0
A67
275E
2262
2D8F
AC1
33EF
2A35
65ED
4CD3
7E71
35AF
1BC3
1C38
315E
44B6
D6C
5B73
5490
7641
3FF7
3F32
47E7
5531
488D
7D4E
B36
4FE0
1298
7B6F
7CE6
4ED
38DF
35AF
6D58
49AB
504
466A
5D71
4FC7
5147
4348
5861
4D19
39E2
3431
4C8
27D5
33B1
4491
2BC8
45A3
3CB8
19F9
4F11
7CB2
5403
5D0A
1327
D59
1B62
1C97
FA1
7E34
1C67
BF1
7A0A
E3F
630C
27C7
F0E
34BF
4BF
460B
5BC1
774
66D4
4C5B
719F
14DF
6113
50A3
D4F
456
711D
2E79
46D8
44B9
5E1D
5880
29FC
42F1
7F9B
3EDB
23FF
78F0
57AD
42F4
1131
5AB4
72A2
4EE8
5A7
2DA4
1010
4D8F
38ED
23B7
7202
2392
6B83
6037
2EA8
3973
16F5
14D1
CA0
767
5013
79AD
4432
67A9
526D
256E
1727
209A
572C
1FC6
4797
6BE
1CEB
3526
4A71
7B
E88
279F
2658
2018
43EE
775F
1BB0
4DA3
1FE3
73B7
54CA
71D4
172B
7DB7
2C56
7328
7158
7522
6802
45EA
47E1
45FD
1D37
2444
C76
6025
26DA
666A
18C9
32A5
1F2E
4780
FA7
490F
246A
5325
59AA
2AF2
30C1
143E
2AEF
72BC
6BEF
7139
6634
5D88
6E70
3A56
76A3
5C89
6F55
54E4
29C5
4910
618F
4CAB
4371
6B79
2427
50C0
2AC7
577E
6257
4040
718C
3521
75C2
13F9
6152
47D2
4728
E02
2D3F
567A
6DD1
553F
6E
3C5B
3D25
570D
1EDA
3A00
159C
2856
1D82
176F
302E
212B
2ADC
2541
1F5E
2A19
6355
7A1E
43B2
4E8E
731B
55A6
31D
52C0
91F
19A6
3BB2
1D1D
18E
2D14
3D31
57DA
74B6
19C3
3EE2
94D
4B66
7C4F
2CC4
7B8F
4BA
4F7C
10B0
5446
1883
2BFF
5E8E
64DC
6242
35F0
4D5C
1A67
6A9E
4E21
2C4F
6360
6099
17FF
4CDA
2B2C
3A1C
6D68
52A
1F22
6E94
B88
73CB
29B9
13B9
6962
155B
EFF
79C3
4BE9
77DD
1C2C
2F2D
2BB3
7485
5364
253F
36AF
2B40
6DBC
6
43E8
73E7
155E
4C43
1784
52D1
7620
2A8F
9E2
67C8
7138
6E82
57CC
4C35
3A0A
2E6C
43CB
3628
6766
1CCC
1305
6321
2BC1
748A
58C
608A
72CD
2192
15CD
3749
6B39
2481
323C
651E
2C3F
50A4
5E61
653F
D59
492F
13D5
1272
776E
144C
24C
3397
728D
1205
4562
15F0
59DF
509
56E6
3491
1484
3442
6FBF
C6B
80
27F9
7C44
1978
57E2
4667
6DC2
2AB4
59B9
5E08
35F4
5EFD
36FD
522E
630
2885
3116
2D02
1846
2FAB
6FBB
74F8
1C0C
5B38
2DBB
1851
2E3A
4AEA
37AE
2EEB
4087
3655
233E
56CE
70BF
4DF1
657A
303B
5677
5D34
3B80
6CA1
5681
289
60EA
1BFE
7CB8
489E
5DE3
1D06
1023
24EA
56F2
15C
7668
4B07
6846
4BC8
9
7E95
323E
3CF0
3C47
2EBA
380A
498D
69FC
213
2D20
3A07
34DA
1E3
CA9
3BA7
5304
55ED
C8D
48CE
5752
59F1
2489
450B
591E
54B1
2C4D
145A
356C
628C
87A
D1
3084
5C58
3117
5FA6
4C6F
71D5
5C91
715F
D0
1CBE
6B93
15C7
7EEF
53EB
3264
2E86
180F
5FB5
283C
4B80
76C6
FD0
CF1
430B
4586
3E9A
4417
6618
42B7
3507
59A5
2185
38D7
5EEF
2372
584D
2BB4
11B5
6D42
1FAE
2C3C
5769
1B26
6B0D
5515
3949
73EB
3E29
67B5
4C85
3696
36B5
1AC8
2607
C41
4FFB
12BD
4455
211A
3E1C
4E47
8C2
2B54
4D05
1835
70EF
6310
76D
1ABA
658A
5083
6CE0
2AF9
455B
3423
12D4
293B
22B3
2B15
6651
57B2
5D04
35ED
463C
3CE4
24EA
41BB
989
7A68
6A50
786
5E1
1FB7
3E23
426
1B94
1557
1F35
1B57
67D4
11C1
22BF
1081
71E0
7A70
3B9A
2FC1
486D
25D3
21B6
6D7
74F1
4C9D
5460
64B6
4955
526E
42E
3AFB
4790
56B
2132
67A0
293D
192E
31A
1F53
55
2F56
5214
61E3
A9B
680D
6DD4
4462
1563
6A4B
7FA3
558E
6305
44DA
2028
2A42
507F
20EC
7984
64D7
26D4
D67
6E3B
3329
47ED
7A3C
4484
7ACD
5B44
5E0
1771
5B43
3C70
6FE2
6D8C
196B
631B
546C
31F0
4496
2388
F52
3D97
7C20
43E6
35F4
4891
34D6
693E
7C41
37A8
31AB
2512
59A
1130
2EA0
5FEB
4C97
41
300D
5AFE
6CD3
5295
79EC
726
4635
517E
4196
34B6
5C93
F71
62D9
7EB8
5263
49B
4988
6D34
10C7
5D84
1F8E
327A
5FFE
6AD6
7DA
7680
7DF9
3673
357E
5BF9
1135
6B39
436
23AF
3B2E
709B
79F5
5B0D
6971
161
3E02
7C79
78F0
8FF
7D2A
6DDD
1D4C
13C4
27BC
4CE8
4A97
5384
11D2
385C
4D5E
2B6
21D4
116
50BA
5028
1E4B
6410
2F1F
45F5
4004
2962
64CA
7E25
9DD
2CB8
442D
1EF3
52D7
654D
50D4
774C
790D
2E97
1FEB
7BAC
455F
1EC4
3543
EEC
3215
45D
61B4
6E6D
15C6
23D5
3CE9
270C
59D8
1BD5
1A50
1AF2
2831
7A00
6215
6F3E
37AF
2633
1377
3B18
3D8C
4920
746D
55DA
4757
66EA
782E
3971
328B
5D4F
723A
554D
4F8
70BD
7E92
4BE
5541
2761
48C2
5886
3C53
5225
1D40
2958
5068
3C07
1DEF
232C
24D0
3D24
115B
1749
76CF
FFF
5A77
6024
282E
57E9
BBA
4EA3
6EC
2CED
6464
3F1A
2F8A
29F6
3544
5AF6
13EE
54B4
7E8
6EDA
537D
3DBF
3450
371A
40AE
2D11
F54
2752
6CAF
7E5
71C
413D
64AD
1155
19CD
2045
580A
30B3
4F2C
C37
1CD6
4546
5F3
3AF4
5255
60DE
30AA
3544
131E
476B
38EF
18F0
3226
6E61
848
4B
10DA
3F75
6395
481A
7D96
52C1
4391
19E3
54DA
2ACB
6D1F
67AF
512F
D29
5D4F
44F6
5F41
7964
6066
DC1
4091
7C98
55DB
171F
2147
6FB4
10B
5FB
36CE
134D
2E05
260
55A1
290F
1276
1DE2
65D9
6C58
3D23
5882
38B0
6B21
3E76
2FF5
3508
56F0
4E43
4E76
2DEA
5F18
43E4
4405
6A88
2886
4FB
2854
4C39
6561
4CA4
43B0
59D0
2628
6664
1319
4006
1C89
615F
72D4
461F
5BCB
5BC4
1065
1EA3
5241
699
74FB
4D88
2601
699A
7372
B29
5418
7987
54BD
6034
2B5A
D97
63B1
3A72
7929
549D
427
6907
DCA
24ED
58DA
72A0
143A
640E
7A41
7D6A
536
7D24
3599
7152
58F5
1CFD
3E75
34D7
5845
2937
3578
29A1
1647
4D00
6ACA
1874
A2F
1D0
482F
68D6
22A5
4F8
538D
711B
4E97
E87
78D3
7B37
3CE
3897
4010
4D37
736C
262
4EEB
18D1
4186
567C
42B
2C9A
7064
46C8
AB3
2088
11CA
4C87
4E40
1
6C51
5E2E
25A
48A2
3517
4FA1
2094
23BD
C87
3704
2932
4D45
E2
135
48C9
3AB4
15CC
3DCF
4CC0
5BA
71BA
42DC
1D93
7A9C
76A
5CC7
A7C
236
420A
216A
16A4
1888
360F
795E
7D82
1F7F
38B
796B
35B8
6A53
64E7
410D
5F08
F2E
3A9D
119C
19FF
6B09
19A1
137F
7D08
8B7
1DB5
43D7
31D0
399E
50D8
2AC6
2D47
7D3F
61A4
44C4
3185
D52
35BF
7FC5
2456
2BF4
65B7
449C
3BB3
3253
4D90
1B74
5B35
8B3
25E8
3C7A
79BD
C23
6B0E
67A6
1EFF
7859
2E49
337D
2A88
F6E
7B0D
212
38B0
6B8C
C36
520D
6920
3ACA
5EE1
18BF
262A
4EA5
561B
7951
273D
1370
7A75
6057
20FB
63EC
74BA
6770
FB8
6E99
6D0E
58C6
5DF0
4CCF
1025
3875
61DE
78E0
7F6E
77A4
609A
5AC5
1950
6D68
1600
486B
78FB
5628
644
674D
57A8
4C41
66B7
61B3
1F82
9A1
6D8B
637A
1869
3BA1
38A2
312
20CD
4F3E
6ADA
7B92
1C68
199F
2AD8
3FBB
15B1
3AA7
6717
7CB
2933
17F
3B60
4F4E
7CAB
5B69
144D
18EB
5433
7219
7C86
24A
28E2
476F
3BC1
5379
22DD
356E
53C6
47B6
3549
43CC
50AE
7C33
3495
4710
1C63
56E6
75FD
1057
3553
1835
373D
5186
6260
56C7
645D
20BB
104A
126D
564D
5121
382F
45C0
6C16
76CD
39A6
53BD
4FA
758A
36AB
11C0
1D08
7585
52A2
4D39
7C43
39F
3E08
421D
1F41
53A3
3C6D
29D0
54FA
67DB
7FB3
61D2
259D
34F7
5A6A
7AE9
497F
5F89
724E
28ED
5D6F
26FC
2E7C
4361
5DD6
73D5
41
2253
2CAF
1AAB
73F8
2903
3E83
6012
2C0E
5A89
4F09
2E94
512
495E
432D
D09
4C47
179
1FB7
6E59
7337
7B26
6AC3
11F3
225B
1534
7897
2FF2
4A5B
4CE6
7FFF
1923
682C
E89
147D
61A8
7327
1AF0
D7F
D73
37F6
4FCB
7160
6118
2CD1
1AAB
5865
771
6CC2
4E46
7823
6DB4
4710
4B00
3EC4
EF7
19F9
6287
6FAF
2C3D
2572
39AA
41C2
4F1B
73B7
1A00
4CC3
61F6
704C
4EFA
2F34
498A
6E43
4C1C
5403
2A1E
5091
4BAB
4974
3568
33B2
6B2B
3AA7
5887
4F78
27CB
3407
73AD
1A89
2F2A
79E7
13FC
4423
2AA3
A3C
7BD3
429B
6183
2A7B
1FBD
880
76AA
4CED
4F3A
B16
4BDF
FAE
2BB1
2B2F
7422
28A1
17F4
5AD3
5E33
7336
11E0
7B4A
301E
14FD
12B0
5F85
3017
1AC4
20DD
2E6E
7D65
54CB
77AB
581C
2D2D
5313
7B6D
6C48
25B6
6844
53C8
24C0
2571
3289
4B5F
4E97
6485
4FC9
6B8E
D72
4E7E
258C
257F
3880
6E3D
5D49
5535
55E4
247E
1AE5
D9
367
3909
1713
16E2
731F
5B68
80
7786
2E27
6199
1358
5791
29D2
5262
35F5
5B6E
26B5
10
5F4
405
CED
36CF
5AFC
43ED
2DE7
2BDB
2C89
60E1
5647
41FB
7C4
445F
387E
2F1
62C9
6D9F
5384
1BF4
4D5B
42FA
3B49
132
26A3
42A3
48AB
5900
6FBD
4C1F
6E4A
449A
1A9B
73DC
55C7
402F
5EAB
2AFD
16
1E47
47EB
579C
574C
2E81
DE8
4C9A
92C
758E
47B4
B82
4452
2AD1
5AA6
CED
5C8A
FEC
74E
5D3
3896
2346
A31
29C8
5B36
600D
253
228A
5568
2CE3
36DC
6635
8BB
3CB
3F
3A1D
2736
3AA0
465C
5A2
6FAD
153F
1D25
306D
7156
62F6
570B
B1A
3C53
4C3
1FAD
1F83
6A12
1289
5D37
2B96
35A0
3562
75E1
142
15A6
1D6F
1F76
6CAC
7E33
1787
6839
11A6
31A4
6811
24F3
1B93
1224
4642
3D13
5FD4
7AE8
5EE9
1EC4
6C2C
7558
458A
27E2
6DE1
109C
5E20
78F
3B68
7629
2BF4
25EC
78EE
40A5
72A9
27EA
2AC0
2150
3A1
40F0
13C3
34CA
546E
1CBC
56E4
3AB0
310D
2A27
2DD1
33CA
1858
6FDF
5AE8
5865
199A
1E11
1811
607B
3328
6890
74D0
B06
7E06
214
2C53
7219
3681
749
6ACF
365A
73FC
957
475E
11C
4DC0
6166
3E27
1505
92E
6E89
5501
18E1
658F
5A8F
6BE0
34C4
2E53
3234
78F6
E29
4C6B
5596
1661
2BB3
47B4
3781
76D9
4333
2029
2571
26B8
55FD
4531
5C9
39B0
36A8
4D03
2493
4421
F00
1F11
BBC
6386
1ECE
464C
4ACB
5EBA
67DC
6E95
60
4E5
5CFA
39F3
1E64
1B3B
1742
4F4F
41E7
5269
48B7
4CF1
5D
3C38
55E7
751
301C
3351
458C
5190
4299
7B12
69F
B71
46E9
714F
4E75
A52
27FE
498B
4008
1BDE
47DF
3BD3
4879
79EA
72BD
548D
695E
3939
64E6
1AFF
48BE
3E5D
51F6
3E86
5088
15D6
289C
1693
6FDC
4EE7
443E
34F0
6C77
1E59
1D5D
C61
5B13
71B4
2805
272C
74E4
95E
64BC
1652
497B
5494
3CD0
3A33
5400
13CB
682F
4DBD
175A
784D
2589
3B0B
1422
3D1A
7D71
F8F
CFA
52E7
3E8E
1E11
2A8F
1FB3
12E1
6591
2C9C
2927
C2B
173C
7E4E
526D
6205
45B3
3F1B
43B1
3BD
79ED
6BE9
4EC9
2D13
3F5
6237
1A03
3D79
2FBA
2D9A
12E9
77E1
4789
1478
28FF
3358
5C6A
5C69
6A15
239D
6E73
6ED3
253E
3BA6
3F9F
12D4
4AA4
7EDC
C69
3411
3E52
E34
446B
63BB
1376
211B
A61
1435
46B
4149
7F7
3D70
3906
30BE
29F2
39BD
715F
4F4A
6DA1
40B1
22D1
25B0
3DC7
577A
433A
1C02
479B
2D6D
540D
3F75
4915
2C55
48BB
4C6
86C
DA
21DE
64AA
5779
4C11
1EF7
CD1
7504
46FF
45FB
2F53
22E1
16CE
159D
5F47
4C0A
1F50
2AB8
7DFE
69E
4666
5307
4317
6A92
6C51
27DF
1837
A24
27C5
1B82
45FF
17E5
1D9B
11DC
1EC
25CA
64B3
129F
5F9C
3AE
4884
1FFF
4A5B
2C54
6C1B
64FE
43CA
769D
5633
2C0C
22D3
34CF
20AC
554D
24B4
6CFC
5668
1F8D
5576
2548
5D52
235F
7506
16CC
5391
23BD
30C0
2C08
30C2
347C
77C3
3065
3CE4
6E16
2870
3986
307E
2670
38AA
7370
421C
40B4
364D
BC3
5099
52A0
4B80
3A64
26C5
2E6
4E42
2B9C
7537
4200
5AE8
F8D
14EE
2932
6C68
3BAC
7C1B
4129
1AC6
7A51
224E
51E2
5DB5
5E46
7B8
1B28
194D
4B34
2D40
4104
1EE6
C15
52F0
7D50
1DF4
2016
2E86
577F
5B1E
1B26
1095
715A
1CF9
AA6
32ED
510A
579A
5DC4
533F
5FC7
A9D
6417
41EA
551E
EF0
2FDA
3D38
7518
35DE
281D
36F8
3C62
70DB
FA3
2F1A
2834
7F80
891
2883
BA9
6CDA
282A
65C0
123D
1EB6
3783
7DA0
6B33
2718
502A
2D32
22A
6E92
1C2B
42E6
4C78
D09
1230
3EB0
44B3
8B
2020
761F
7C91
70FC
27AE
6CEB
5B8C
515E
947
4729
5402
1D9A
32AB
3FB8
819
278E
4A3D
3AE1
494F
5FD6
201C
E5E
584C
3CC3
3AAE
3CC7
7782
7543
77A9
3D94
752A
1605
5F7A
2FFC
1EBA
209B
460D
4A77
75B8
6885
5185
738C
5954
30EB
6415
4631
2204
3016
2DFA
5422
2346
62F5
2BE9
781E
1752
1A51
46E9
99A
7B20
6437
38F7
3D25
5792
2E24
7FE0
26F6
2969
378B
3FC7
3A6D
4C6E
2116
7DC8
7255
11A7
3886
15B3
20F3
320
20C4
33F6
80D
3B3C
3446
57FB
121F
2044
50F3
3BD3
489B
661C
6E99
724C
13E7
74EF
398F
4774
790B
3D36
69B1
441
4D36
225C
3E75
5546
1312
336D
6AD9
55FD
4A43
17C4
3B65
4A0E
4E00
AC4
74E3
296F
6AD1
357D
66AE
466
2CCB
6A85
5A1
5893
618D
49A5
124
698E
674A
7EE6
4375
2E0D
8A2
749A
4749
BBA
1916
345
E90
44EB
49F4
2891
2E85
511F
6BCE
D1B
5653
66D1
5319
5CC5
3C44
774E
A6E
6397
18F6
47F7
4665
5D47
57B7
5E3C
1AF1
483C
6C5B
38DF
2641
20DF
69CC
2E40
69C9
32EE
1C1E
1735
768
4210
188F
7CC5
77AC
4FA6
2E60
B34
2203
6AFC
79C6
279D
72B7
585
5A0F
66F0
2DC9
784D
2B59
4A1D
4B24
601E
7E4D
75A0
326D
39F4
5FA2
7299
5408
36E5
7102
5AAD
4A13
4023
5B99
6EAF
A52
6338
5C67
74B5
3D4D
70DD
3FA
3D39
1AA3
1F3C
7B1E
29C5
6AC
631B
7C8C
22D
288A
6FF1
4380
4AB2
2520
2666
16DD
60E4
6186
2DA9
725E
7F81
52D5
2602
5D70
7455
6D79
2B58
35B0
3235
2873
6FF0
3960
2728
52BB
27AE
4518
48B1
5478
1729
394A
335B
7F65
5D4E
7C4C
6144
48FD
117D
70
659E
59ED
654E
6DB2
3D81
51CF
2B51
728D
283C
7444
823
5485
7A50
3966
6B4
23EE
36B9
55F8
3305
3CD
5768
2AB0
4DCA
4A73
5FD4
7D32
3EA5
46D3
1215
39EA
1D3E
317F
4388
3E94
7B7D
1FBC
4BF
6D79
23C
2259
70D
1F30
4E03
3DDF
36DE
4CBF
10BF
7A8F
7F6C
431
47D1
14F1
7CE4
3780
53BC
2251
76A2
2D3D
5E46
7DB3
56F2
7038
11ED
2688
2102
1B5F
7038
F36
3368
5255
4E4A
1DB9
6947
12F1
700
751C
73FF
57DB
4A4D
5C36
62E
12BF
3EC5
4A32
16E
3C1
5532
16EF
592B
2333
4950
372A
4561
2C0A
67C2
41E7
69EA
2286
22CA
4525
DD
42F
1E18
C6D
2DA8
365C
159A
58A4
1FB4
4DE
3C59
19F1
6952
38AF
1BF9
5F57
7B13
CF7
69FC
80E
50EE
6602
53C1
7BBE
6BB9
3799
4C22
4949
77FB
5297
5EB3
4F48
553
408F
62BE
3921
1918
AA0
2718
11BF
1084
2229
1A93
396C
6BF2
3E37
322A
767A
5689
2527
553F
23CF
6C49
544B
3DAA
1EE9
2933
6715
40EA
7E35
3E45
1472
56E8
4D66
3E94
1288
16BA
34E8
4E12
331F
498F
5B1B
2B3E
3E72
77E8
72F8
6892
4075
52AF
5870
39FC
632D
36C9
6D51
23F8
57B3
C12
4721
12CE
7D93
72F8
75B1
285D
57E3
1EA6
5DFD
69F8
1EBE
54BC
1CE5
4269
8E7
477D
6CDF
129D
5719
3AA4
45F3
456C
56A5
761E
1F24
20AC
32EC
6AE8
2897
5246
5171
696C
43E4
13BA
7666
5AF6
4BB3
2206
173A
108D
5D4C
4354
688B
4AFB
4223
6E64
26D2
1EC3
2A07
45CE
5E70
6AAD
68A6
CEF
2E1A
737E
5B52
2D75
2E86
AA5
5449
71B
3DD6
73D
35A3
58B6
6562
20FA
337
192
3A22
45AD
14E4
2F7A
7CD0
5367
474A
4121
4990
1154
5F5E
599F
635
2955
468C
D9C
3BEA
634A
4236
753B
422E
29C2
1E15
6D84
77CA
2DDF
BF9
5D0
2979
71CA
7832
6076
8ED
1146
5E34
3488
4426
F44
B41
4A49
300A
5807
110F
3691
58AD
4CF7
4821
4CA5
22
2DDC
280F
483E
105D
659C
40E2
289
3101
383
904
24C6
16CB
CB9
6D5F
71E4
5735
64D1
40C0
625D
2F48
4B4A
187
1E65
6ADA
3B3
639E
7E1A
2889
18FB
5ECB
5B0A
1982
2873
11AB
40EF
3D4B
3E71
A5D
176A
6A7C
78B7
588F
1A03
1CBA
224F
1021
2082
1A6
2211
74A2
5779
461B
6EAB
5A92
5607
648B
7A09
643E
5B56
1B4E
564C
31EF
4125
5F2E
407
504A
3A23
31F5
9C9
1B6B
2662
471A
34C9
5751
1155
48CD
7BB8
3A4D
211D
220C
4C2B
4494
7933
93F
7A4D
74AD
5176
76A3
6FD
2DD3
34B9
47ED
2345
7C45
3D90
263F
47CF
6119
896
357E
13D1
7427
3DB4
1883
7BDA
7F98
39CF
7469
5CD6
6C7A
62F
6965
554
472
182A
13F7
2F47
398C
6865
42B5
447E
1071
7D4A
1595
CE4
1FB2
273E
34D8
1C4C
5E53
447F
406D
75A9
C3E
48AC
1BB1
46C7
7C7A
39CB
64A2
1A20
62DB
6DEA
3DEB
2331
2138
3523
33D7
2759
6DCE
7FE6
376A
1167
5F2A
5028
7561
352F
25F9
12E3
15FF
72CE
5881
67AF
4F74
1F5D
2BEF
E34
9E8
4DB0
37D9
1FAD
5E39
7CB6
5503
7988
643C
3249
5976
3AAF
7B88
3E88
719C
313A
73B6
4B77
2DF9
77EA
368D
2E42
741E
5BE4
7CEE
6B59
1827
455C
1949
5EBB
7EFD
611D
1D2E
7EB3
56AD
31E2
7141
7C3B
5C62
7D2F
5645
5829
537F
7F23
471D
65FA
2665
6B9A
6388
7253
68C9
172C
2A63
583F
1150
19E7
1B5
1DD0
6DD
5CEF
61E6
6ED2
85C
39FC
57FF
46B4
2D53
1501
7493
20C
4A7C
1468
292D
2B89
227
AC8
1C6D
6226
7755
7F84
2725
669A
5E99
3091
46C9
7C4F
60E9
40A7
2B4E
B7E
5B15
1282
1038
4F42
55A
4FD1
3CFF
4807
61E2
2FCC
65B7
15DF
5A26
527B
424E
4087
5C7D
1552
2FB5
6654
7C2F
1B00
32A7
1B1
27AE
12A9
4D9
2354
3C21
406C
5B1B
428E
6014
5CF8
FD4
3C95
6641
3915
2EB8
5882
A7B
115E
7011
11D8
2B8A
2278
6739
3CA3
2689
4045
1DB2
1B7B
69B7
F1B
7F26
5FF7
5B0B
2D47
29D0
1C32
4E37
6B45
5BB7
33B7
6662
64FD
4C7
5946
69E5
5CF2
6CF9
379E
27CF
3E14
11D9
4765
E5C
7E1C
1702
5563
42B5
72D1
6BC1
5D30
1C80
4C36
1FD1
17A0
2354
27B2
7A37
7BFD
2811
13A2
6A29
466C
32BB
537B
56E2
3F66
6BC2
1374
3C1A
495A
292
6545
615E
4723
23D0
2249
F06
3491
3C51
506F
3B7B
5157
40EC
397
4400
5D04
506A
397F
3872
3F61
138D
1F8F
74F0
3887
559D
3E36
651B
763D
7F8A
1380
2CB7
3C8B
2C13
2D5C
1CE3
7D26
612C
457B
787E
5D99
28E1
571E
5EC2
916
3554
42EC
5A61
18B0
508
52BD
5058
7C90
53
42A5
730
3F9
47CE
64E4
5BE7
7185
5CE
1A23
47A3
29E0
5A2F
543F
58BB
4CA0
506
3E21
35D8
3DA8
2973
4A8D
4591
3053
5954
4D0C
6104
5B77
280C
68C2
6AE0
2517
5ED
4218
2376
1C6E
745B
678E
C95
675F
928
2F69
401A
1B9D
677A
379C
1D69
6A94
4521
1BCA
5106
5992
1165
3E7
69BD
7B19
55EC
63E5
F54
1D4B
3CEE
437A
7837
57CE
3E20
1738
2FC6
33AA
472
7C14
5848
5CF8
2D76
23BE
49C3
1687
70FF
171B
1580
49C1
1C77
6056
498C
1729
3937
3006
1D37
550D
552D
5999
5F68
2D2A
789
ACA
3390
3F14
2F97
5A60
BE3
5A3B
177A
5246
747A
77D7
107E
10D
7DCB
1552
253F
6254
65BF
1D3B
4F73
45BD
5601
622A
42BD
3BD8
1B35
1F15
7829
C3B
55BC
7728
2E9D
3483
3567
2DF9
2080
7580
4ED3
2FAA
1704
68B0
6AAE
46D9
491D
1FAC
79E4
6F75
373B
7D9D
40F0
1A96
10C4
B5D
6D02
11EC
31FA
1164
65A9
6683
F85
5FC0
3439
4EA3
6C85
6B9
5C49
2B16
25C0
6A45
37AE
484
5DB9
5183
3DBE
489B
7AA3
428
17A9
3DF2
29B5
3AF5
71CE
2271
5749
5D6B
5301
3D2C
4B9D
1F9
56CB
2FFD
3FC
8C
7EBB
3DEF
2E95
F6C
5229
253C
3B85
3948
7589
4D8B
5CBF
40C8
6EB6
3419
7FF9
33CD
71D0
48ED
622E
5319
5E81
42A
54DB
2942
4245
596A
3821
2571
2FF1
6C9C
2957
4948
4D8D
3A77
29FD
3D01
705F
589B
18EA
D6A
3AC9
BE6
6B3
518
5B8D
75DC
396D
1DA7
4250
530F
78EA
7A42
4397
4E3E
55C3
54BA
1D92
56C2
852
7AC
5C3A
4150
4048
3277
AEE
3826
1EE0
6BD9
6BF7
1B5E
7E9A
C9E
2AAC
533
D24
7D0B
5DA1
3661
76C6
2C00
26C2
6233
229B
49A1
5925
41FB
16DF
3A11
1D0F
4652
4654
4EDB
5DF0
2EDE
1ADB
6DB9
40B5
6B5A
B15
1101
7416
74C4
633C
37CC
4941
1A8F
5B28
7C06
239B
62F0
1B3E
7D20
2E72
63E7
2C8F
63FF
6CB9
7969
FF5
3C3D
28F1
13C1
6FB3
64B1
29F
5EF9
33A1
7437
A49
7E7C
5BF4
15E1
1776
5A40
79BB
2827
358B
5629
1A81
280C
3A75
58FD
40E5
210A
2411
7176
5A70
1D36
1EBD
2A3A
75BF
4F67
2CE3
63FD
683
261
3769
598A
5E1A
2C5B
6C33
4995
6808
7B56
64D5
28B5
1253
1862
4C29
7620
901
5425
1F73
30EC
245A
517F
71F6
1E7F
44D5
4128
12DD
7687
710F
1FB
3EED
2542
5759
F66
5C4E
620B
5241
47E6
5359
7311
4D52
273B
7B00
766C
7C13
6ACA
7100
4CDC
334A
4FED
4F88
3B66
68A6
6D6A
24F0
1FD1
1900
2701
55E9
FFE
77E9
353A
53D2
76E9
14C1
262A
1196
7448
31FD
406C
19BB
69B0
3A0D
6676
2FC3
5A79
4835
4AFF
66D1
59FC
6586
7AB0
779C
1CBF
5C15
460B
7EDF
5E4D
416A
1472
32C8
15D7
3AA8
221C
1C9C
6430
66A9
5CFB
4818
6C85
3BD9
2E71
4C1B
284D
45C1
7068
6991
6F6D
3F23
7082
45CE
5771
B49
1B45
7C14
3AA
26A5
4FF8
4DD3
2241
5520
513A
1A2F
CFA
40F3
47D6
479A
5789
2730
1EF7
24D3
6D6B
46A0
751C
2E0
5C23
1BC3
324D
1269
225D
6F44
459A
634F
4D16
5E4A
639
5402
3370
71C8
19D
6CB5
4CE2
41F6
7089
55F5
6619
44F5
471C
5427
4E5B
181C
68A8
6C4B
125E
3F67
337
398
6D75
1781
3B2B
3674
4721
686F
3BB4
3FE5
207E
2878
364B
6CE4
7ED
62B1
4A44
3271
2965
187A
630A
117E
1F13
6C9B
1330
2D43
7402
2D26
1752
2EFA
C
47BF
13C6
7A8
2FCC
B0C
188F
2D9E
4173
696A
127D
2B3A
79B6
41EB
160C
6359
1B8F
4849
3428
3532
6CDC
44EB
3FEE
7359
2F49
3982
5CFD
28A7
4289
3809
3E5F
2092
7171
45B1
2B28
578
2316
2EE
6AC5
3276
252D
3801
42AA
D6B
4577
14BE
6623
59BA
67B3
DE1
27F7
5625
E48
50B5
2DF3
122A
2BEA
2771
70CE
1B3D
3A86
3340
6013
59BC
6C23
180C
53B2
B0F
2939
9CC
34E5
29BB
1A75
66EE
53A5
410E
2959
36F4
7F0F
90
372C
46C6
1F33
7D77
C8B
3659
11E1
561B
25C3
4B5
608F
7847
3A88
70B3
1845
13BA
33E2
5E5A
647A
5AA3
5DD3
5866
731
64A0
3C2A
26F7
7FFB
5A9D
2B13
5589
7D1B
6EC2
DE7
6CC
5871
222C
D6B
56A0
3E4D
5A4B
210F
2A66
3F52
1237
7D3
574A
BAC
52C
3609
780B
453F
2DBC
745
4419
21D3
35F9
2CAC
70C4
6E6B
47C0
2DE7
4C46
7780
E39
5DD9
C95
34F0
5EC9
33A
1CD
379
3A34
7204
4E48
11B0
5D52
335
7103
4CB
5C32
1594
4980
7E6F
1575
90D
DFB
2571
1063
732A
3987
4342
1C33
2AD6
4F83
FF9
623D
5A49
9D8
6BA5
1ECA
250
599A
70D6
2731
390C
6CB8
7263
216B
4DAC
42BD
6CC5
550B
552E
6477
651A
71E1
13E4
219F
17CD
6C03
E89
68FE
4FC0
6DD2
6B6C
47A8
52DC
3FC6
15C
5812
6774
AED
4349
34C5
2750
1AAE
1B2B
6CE8
4434
6A7C
694C
17BC
6527
792A
53A4
934
2DD0
3D70
5927
1744
22A9
72CC
1880
4263
2BB
1BD
5B58
211F
A89
32F0
25DA
74A3
221A
BE7
622F
7725
2DD9
363C
341E
6951
5169
F27
4737
4503
180
3E18
1BD1
4895
718B
147B
77D7
56B2
67BD
612B
76C1
33B0
4004
6EC2
3CC4
54D9
6D8A
1D22
3BF3
41A6
6F27
778
535
170B
50F1
3DA0
308E
77A9
304
3FAF
744
16E
70E
6D27
3A09
B97
558B
3DD2
44DF
54FB
23C1
AB1
30B4
276C
4E0E
6190
20C0
89B
4082
28E3
242A
335
4B2F
7827
56C3
48FF
3C0E
7CD8
B6
2FF5
2913
5FEF
5B73
303E
6E69
44E0
741F
18C4
717D
7D1E
2160
14CE
4E3F
1295
50B1
573F
19E4
726E
37EE
43D9
65B9
3DDF
3483
31C8
3284
14E
645D
5372
56A2
2ACB
3A3A
2CCC
7BAA
5985
73F9
1618
34F2
4922
E37
577A
642
2F6F
3F3C
390C
43B4
1156
1E3F
13DA
58A3
7351
404
17B9
48D2
79DF
6FF1
266D
6498
53D4
1ED1
5FAC
1D2C
15EB
37A9
29AA
31EE
32A6
622
1190
650A
4FFC
B5C
7A0C
5E95
5953
3115
6FA
7FC8
6085
7547
6995
3F6E
3DC2
1502
50E1
4A50
42C1
6027
1691
5A3C
7E9B
7579
508C
63F3
7C55
5A91
E68
33C6
20D0
6A67
50E1
40F0
791A
23EC
7677
E9C
6CE3
1A95
33E2
37E2
6AA3
62A
43FE
6412
6089
3934
27E4
1C61
1B06
3042
5998
38FA
28DB
54DC
47D
1F40
1329
6E9A
7428
3EA0
2691
5EC8
16FD
50C5
4996
794A
1F4
2391
1B32
4901
3D54
70F0
78CA
1510
67CA
541D
1EB2
5DE1
77E7
6FAB
5F44
277
358D
779C
6AE9
104E
4917
325
4F0F
28F2
4055
6EFD
562
59D3
3313
1ED5
1D2D
36FD
592C
15B8
25DD
3AA
22D6
769A
6CB0
1FC3
5D4D
34F1
2F4
1BDB
2334
3958
1AF9
43D3
1221
6A85
3861
10E9
7ED3
7272
3A85
5855
1AF7
6289
597A
5A60
75AF
1BA3
8B6
3646
57ED
4341
70B9
7486
51A5
7208
2E51
7015
7487
1263
6E4E
9E9
2A5
39D0
74F3
23C1
EBC
1707
6168
4E2B
314A
38D7
1E2B
5E59
279B
7B8B
297F
2856
3863
548D
4D69
7269
F63
4A80
66EA
16D1
48AE
700C
6C0B
2984
4DB3
2193
3435
50D2
4712
6DE6
29ED
66AB
5803
3221
26BD
26DF
D91
3B71
4C3A
5D64
13AB
37AB
4292
241B
2C49
6B16
27BE
44BA
33C4
3B1E
33EC
4707
129A
8C4
5AA3
169D
3946
4DF0
DFE
3CC3
2F87
6FA2
73F5
1A72
1D0
3403
BEC
29D8
2AC8
7B6A
4709
619
5402
5FCB
C2E
7E1D
75D2
62C0
1976
E24
582
7C6F
2B01
2B7
78A6
70D2
21C3
19A5
510C
644C
1E86
5925
2EA9
5850
6510
1F3
1D6E
3659
7140
DA1
7D9B
A8
59BA
B82
7DEC
4B9F
261E
29D2
6744
3C37
951
734C
6576
3F5F
17BF
2A2B
4BCF
3F5D
1F4B
252D
5648
53A0
7708
206A
693D
3D0D
3BC2
3265
486
4872
2E2E
7D41
2997
5AD0
3E8D
7292
4B41
3089
49CE
254A
5EA5
2868
5218
6426
5819
A7B
1F5E
C6E
51CB
88
7080
1728
75D3
4062
4990
7811
26CD
358F
27C6
2DB7
7CF2
3825
4F7
1C7
2F02
45EF
E8B
4001
1143
5343
69F2
5926
29C
3601
2AAB
657C
56BD
79B8
7ED9
3FA6
3DF3
897
2DA0
3CBF
125C
A75
130A
3A6
7D
26F0
649A
380B
F4E
2808
1A3C
2D18
5F6C
75A9
5728
7B6A
27E1
4D4C
6D07
1D1D
9E5
5599
7CDD
61A4
F93
59B8
2C75
74D4
619C
4D6C
6FFF
50EB
38DA
12EF
2BED
395A
4A8B
51BC
6942
4AC4
2B66
4970
29DE
48D0
6E26
5C6B
418A
729C
17D9
1416
3B3F
52B1
3534
6AE
4951
1E42
67EE
45B
4D5A
5FAF
E14
3042
6A18
841
617F
4480
1022
6B
39CA
720F
42AA
6347
7D7E
8A4
EA7
68C5
4AFC
7B64
52CB
3248
632
160F
19D5
C33
383F
65E2
5523
5C92
FC4
10E8
3CE
4BCD
5F83
6A1C
1F35
63B5
CA7
1785
122
76B8
4BD5
7BFC
6345
3B3C
23F4
808
4AB1
2849
7EC6
285C
217
4723
5D66
3FCA
7BCB
5E85
7466
5E50
4E54
7196
40C8
66C6
793A
4958
A26
3421
1D48
4396
4010
7DDC
420A
5205
75A1
48D4
75C1
34DF
108A
2E87
880
1112
158B
34BE
5EB8
5151
3330
3914
5D38
60B5
3275
3D84
3AFA
7410
932
2F8A
3B74
3B50
2E9
2193
861
71E2
6D62
567
5CD9
54C1
3FF7
50F8
52F4
40F4
27B2
3E1C
37B
67
6010
48C4
22E3
1CFD
5DB6
7EBE
2446
1908
619C
647E
43BC
357A
4099
422F
BF7
6127
5FD1
59B1
5586
17E7
60BE
466E
11A0
7F6
771A
4D84
7555
68BA
425C
45E1
1129
4B2A
7530
6367
52D2
CE6
67A5
867
2577
73DD
54F4
3036
7AF1
764B
70EE
690C
455A
3048
2650
5516
AC3
1F4A
19A5
2D0D
5BFA
56C5
393A
58F1
7188
3359
2015
1E13
E59
4E3
4B7E
6CF0
1E33
6C5
6DFA
3933
2617
447E
74D7
1B8D
6034
7B9E
18BC
7000
2037
74CF
666B
9E0
45A3
3067
106D
4B8C
137B
629F
1BCB
3D6E
13ED
1146
59BB
7633
28C0
4E48
7543
6974
7DD5
2DD2
77BE
69F0
138E
6826
9A0
61E
3654
305E
2902
3808
6801
6C3
4D7E
3C13
2D9F
2FAB
2D7F
4A18
2601
2E49
9F9
4A61
287E
67E2
3489
1281
1BD6
6070
2A30
43F0
7961
29F9
64DD
35D9
34D3
59D6
5888
9B7
20E0
4992
2718
3E6B
5589
62A1
403F
446C
1EC0
5F0F
3907
C97
1CCA
31AF
360A
5707
3F80
5703
250A
7222
79D7
7B54
513A
3A26
2E0D
683
5E50
7369
493
7D09
32F3
5796
1F03
2EF5
245D
378A
63A3
2571
6074
2D3E
658E
8B8
5BA8
54A9
281E
7381
2F59
2C82
1140
574F
A8F
29C8
3189
78F5
6E9C
4B12
2762
3226
7C3C
7887
5C2A
698
51B5
51F4
7F27
6785
5531
3138
164
6415
3C08
163A
175A
2284
5AE0
46DF
2B24
C79
6CC4
3884
3055
59E6
559A
4C6D
2E24
5712
44A
1B7C
55CC
591B
2E16
37DE
207C
43D5
C20
7D83
654F
5581
53EB
86D
4278
E45
4285
5AFB
52A3
7416
37E
247F
65B5
4DA7
48B4
3BA2
228F
9EA
3DEF
6960
3D00
71E
4927
1111
4D91
1790
5672
1DCC
3618
5DB9
120F
7810
6E3
41C6
2E08
3623
6CD4
13D7
38CF
3B2C
BB5
58B8
5D1D
7AA4
7498
777D
1A8A
6DB6
417C
12C5
19F7
72E4
7F42
6942
431
5EC
127B
30C4
256D
5056
53DF
5946
1D36
242D
755C
72C0
1C7E
71B9
5DD2
20A
4D1B
33A2
25B5
4BB9
4AC7
7ED3
6DAD
3231
10DD
2503
737C
7AA6
FA9
7F9C
7FAF
4ABB
7AB5
4060
1E9A
3331
64D7
755C
4988
7ACE
E6B
20C9
2281
7EC6
46DF
B6A
354
664
5116
2A2D
7E27
4C4F
4091
11DA
4302
9FC
6404
2339
731D
1261
1616
1C42
71BE
1CAB
2390
19C7
3F31
2F5E
418C
6DFE
2385
208D
3592
347C
5E25
4724
5D20
1C9
52CA
55E7
7C3
5427
2F64
7A83
7D22
3058
736A
3F69
1070
4033
4484
7417
C87
7C42
68D4
3C2E
5F5A
14D0
2A32
58F3
65D0
3B5
1E07
22A2
233D
56FC
1A04
20D
2E38
1780
670F
7773
634C
72CE
7EF3
1638
923
58C4
1CE5
5BFE
128B
7E35
692F
6336
2B5D
1C6D
5DC8
6AC0
5E62
5357
69E0
5A0E
6281
542E
2EF1
5DBA
6253
12AA
1DBB
4908
1B8C
2A79
4DD1
19EA
4072
721E
5094
5C46
AD
3432
52AA
BCC
3C4B
671
3E33
3F28
61C
6B89
55EE
A12
43B7
54EF
D26
644C
1420
7863
3C6F
437A
436B
7743
1A81
10D6
3F64
3F5
ADA
31A9
79D2
C3A
4C90
D71
2511
69A9
700B
60E4
4BA0
611D
37FF
4C2B
7E65
4CB5
7DB7
3653
1CB7
4DEE
4307
815
5362
2DAD
4A2D
2285
72B0
1496
5572
3219
5508
4B4F
4C1F
799D
6006
3FB8
363E
7E6
52C4
60
383B
80A
10AE
4D65
58E0
318B
7841
6B96
4BE4
4A4A
548D
22C8
737C
4C6F
2E61
51DE
1460
30EF
EC3
4EE
4B98
121B
ED3
6129
534B
1F9B
13BD
6D31
3B95
245F
7FD7
3D33
50D2
7ACF
11F0
2876
6271
710B
236E
C0E
7FE3
157E
6BC
1450
6BA7
6985
64C
44E
645F
6C46
834
415A
3BDC
5AA3
4E04
77C0
171A
1276
2E49
68EF
14A8
741
84D
40A7
27E1
1CB1
2568
7164
28F2
2D18
23B9
62A2
16A5
18B2
53C5
4830
5AE1
7E8F
75BA
74EE
572B
1483
3777
5265
487F
7077
6372
7B2
7BD2
59B8
4EE8
157B
548F
5697
72F5
4E92
54EA
965
138D
1795
5888
6E4C
6046
1128
2DDB
553A
21DB
6A9E
DE8
912
4573
3950
57E1
3350
4FD
B6C
4E05
42A7
6AA4
57B7
3AD9
691B
78FE
3AD5
2586
3E8D
51F2
26A2
5BF9
A03
6EFD
4F3E
85
38FF
75B4
5960
3231
1359
1539
44A4
2ECF
5D1C
4922
21A2
52FE
1AEB
1F0A
6344
2C6C
837
5C14
7AFF
77CF
5B7C
27F9
212D
F6B
7AE3
20DC
632D
5603
1724
2172
5D81
83B
54B4
2EC6
2CB3
1216
5FA4
F82
2DCD
585
2AE4
7CF6
4984
24E8
19A7
6425
306E
5CBA
6DFB
33BA
71D0
1F93
ECD
2F43
2CEC
AA1
27E0
1B2
7717
6CDA
75BB
6918
615E
16BC
11E2
1448
4281
410A
641E
745C
29B9
1FB1
7CD
4A07
4C9D
29F1
1871
243
269
5745
32CC
29
3E16
1C6B
748A
F6F
5FB1
6347
46A9
1111
6FED
3CD4
A0D
525C
4C32
74C4
70AA
597B
36A2
68A5
7153
5446
7F4F
427F
65
48CA
49C3
44B8
668A
122F
1C39
2A26
5832
22CC
301A
2F34
380D
6B0E
591
6859
5719
6449
70BE
2298
602E
2B60
717C
69D7
34D2
9BB
1012
8E7
418C
6BAA
64D0
1240
6BCE
3E26
22B5
6415
7FE1
2BF0
11C4
37C5
7236
5B68
4BA2
4203
686C
4DA5
96
1212
69CA
1491
70DA
7A52
1B33
6F1E
C66
687C
6CC1
16F6
66E8
65F5
6005
4AFB
224B
34B9
7992
CF7
3CF2
763E
40A3
6AC5
7F4C
118E
3977
7B3E
2B2E
5692
129A
F1D
2FBC
11A0
2C20
330F
4656
4C13
CAF
FB0
4C55
7974
2A48
2765
1C5C
4E94
3631
4E65
19BE
2CEE
7E9A
59FE
12D8
C89
50E5
5FDB
6336
288C
BF3
4182
10AE
3F16
86A
4D33
1305
3E1F
9C
2C3
6545
5BBB
5DA
6E4B
262E
41E8
14E5
257F
4183
25E2
393F
A84
2998
4913
37B0
1937
536E
20EA
22F8
1A40
6E0A
55CD
3DE
28EE
CAF
40D8
7A41
C0B
68CB
27CF
3D09
66D7
5CF8
539D
3610
6D74
163C
4F9A
2F1A
2096
3078
676A
37F5
5399
56BB
782C
6CAF
3EDC
2D
34F0
5F98
2D70
7679
1BB2
3232
5479
BC1
F57
3A97
28E8
93A
4D07
3363
47BF
60F5
288E
1A68
1AC4
169A
48E8
1F67
5A2E
212
780C
11D8
5315
6829
1B73
1532
4790
507C
E3E
2480
524C
5134
7155
3846
26D
406A
5F4D
6338
4637
305F
7CAF
5989
1D1B
70E
160D
34B0
2BA1
2E8D
4567
256C
71F9
53D0
E35
7BDA
774E
4544
496B
3751
4179
27E6
5EC
48A9
13E5
49F1
77B4
47D
8B1
2349
2F67
4A91
3404
6855
1A26
22E3
7EB9
3295
598
399E
7F00
1F88
7DD8
39BD
2DF
38EF
3BFC
67A
24EA
7167
2F0B
6BEE
3450
1781
6E46
3D39
4E2
7F24
CCE
60C6
331E
765A
14D2
3C04
38BA
6D48
12F2
7A22
B73
B85
58CC
2A24
185B
499
65A7
607B
1262
5777
3A
4773
3C6F
5E2B
38D6
66DB
30B6
6587
61D7
312
29B6
1312
78E
3A59
788
1217
91D
C25
682D
7B42
4F1C
439D
4963
31EA
6EE6
16CD
54AB
A98
71FB
79E9
6B37
832
5DF
782E
7ADB
69AF
266B
669C
352
790B
3638
350A
7CC8
1EB1
2959
4C36
1D43
2B7C
17F8
2FB4
6D98
733A
7C80
3058
5A2C
17E5
6053
71D0
203C
248B
4B7C
2E1A
7633
2C55
4121
50DE
49E6
56DB
3A00
50C2
6884
59D5
25C0
5B54
7775
3AE0
1253
4B9E
2F62
7532
1F2D
5D29
7ED8
50A7
16EE
3003
3816
7474
7C2A
6B7
77FE
A68
77CA
7FAF
2505
23C1
5072
4454
367C
5640
7CE5
CF7
6290
1035
7A3F
63CD
2671
7AC8
5712
178F
77DC
1140
8CA
5D89
7AAD
1206
2F57
2B16
60BD
167B
558F
6D8F
2F65
10A4
3493
7969
63A
6C0E
938
5DF9
78A9
3C84
177F
7B73
6113
3CAC
66EE
7A5E
465F
32BA
5738
3596
7EEA
41FF
7921
244
4876
1D59
7E60
1974
2B7B
5E94
2A8C
18F
78E4
1A59
5174
47A5
CBF
5A84
F8B
325B
58F6
15E2
B8B
48
145B
74B0
10F0
6E21
594E
3DAC
18A7
788A
708F
6527
4F1D
26F4
54F6
6D8E
543F
2EAF
4C79
66CD
6BD5
7F9
2EB0
555D
79A1
1109
4F2C
6684
6929
5528
2EA7
19D9
68B
50E5
10AA
6910
718A
1305
4C46
73A1
2722
4E65
2FA
58B9
7661
317B
240A
3992
7A8
6BD4
367B
64E3
3DE1
3AE8
3661
7AFB
F41
45CE
44A2
2094
5244
2D87
4E27
7A1A
4ABB
16AD
7998
7B1
24D3
15FB
525B
2E6C
4DB6
6D96
2009
4809
63EE
3635
3DCB
5D6A
34DB
3F8F
461B
24E6
47A9
3297
89
81B
239D
6430
65DF
25AC
2171
7CF5
1276
F83
4871
32
1A7C
531F
771F
1BDD
6F53
7A1A
2F1F
106B
64F2
4F22
525B
6C0F
1D24
268A
2522
5093
7B05
2910
2FEB
9A2
EA7
1F9D
959
1146
75BC
346C
65CE
5A95
44D9
176
3B44
3D89
5783
6AD6
6192
63F4
3286
45D6
FE8
1FC4
275A
1E52
3265
3D5E
698E
390A
A62
794
2093
632C
4467
7BBD
4C3E
64CA
2F8A
4F17
3200
14BD
44D6
600C
7A58
5E78
2543
1D7B
5A43
1F94
75A5
6F26
4A4C
ADF
5005
4C61
1D0
415C
695A
F13
24F0
2908
57B
18E8
1E4
3C42
9F4
1AD9
6152
225A
56D9
49B0
457
1459
43FB
1984
3AE5
590D
2419
409C
66EE
5AF8
147E
3D8C
5CDD
71F6
4029
7687
2C0
4506
422D
48C3
4530
4BF5
683F
4501
38AB
5109
53A9
2BA4
10AB
452A
1214
5382
5EB6
7949
555
7416
6940
EF2
6AAC
7420
654A
1C57
6A35
4F38
5637
30FF
7207
37BD
2D60
5C59
1EFC
3267
3171
2F94
5C94
516D
7CAB
2CAE
5E70
70AF
2F4F
1100
2BC8
5949
569B
6D33
3912
4FF1
3BA9
70A8
1DDB
6AE
DC5
2FBF
5315
33B6
4D37
AA8
55D8
7B19
5FE4
55A2
67A1
75DD
24F2
21AB
3FF4
FCE
2988
7C5E
4267
3FEF
356B
6539
2E1C
449D
5A40
7865
6879
16D7
62A5
73AB
3B3B
24D2
702E
11C
716A
5081
1BDD
7B22
36A7
F22
9A5
4B36
50EF
6C56
3539
5CD2
2010
555
6916
70AC
671D
2453
417C
79A5
6887
79D4
625E
6111
2352
75B9
69B1
2DAD
6F18
650E
53BB
3EE3
74BD
A6B
6F0F
3955
39DA
2A09
761D
15A3
7483
470B
6816
1D91
6605
37DA
7D43
383F
708
6265
632C
595
146B
78F0
326D
4801
44C0
1EA2
61A
1B69
7C2
41BC
4BE1
1947
5097
161E
79E0
2939
26F1
7CC1
2C2F
533B
7051
7DC5
697D
36A6
6993
3734
3960
2B0D
5960
150D
72D8
38B8
3946
696D
6A87
4137
17D1
7884
60D1
221D
43C5
B30
BCB
44DC
12F6
1FEA
6B9F
4C93
19C6
5219
12F2
423D
71D5
635C
2B2F
7D70
47F6
15D4
AAF
31B4
5EA2
34D
6386
6CAC
20B8
5BD0
135E
4B28
F43
47BD
12C4
18C1
4BE3
7B4E
5C20
23B3
6E75
34BB
4568
35AD
5EB2
3FF5
327F
3456
4153
7216
952
4369
6D83
734B
7DD1
3699
4DCE
7595
6D76
5108
52E5
5C26
1BAB
1D9
B68
6EFC
7E7D
6CEC
70B1
463D
4105
4906
445B
6DB1
2A1B
14BA
42B2
7F06
21AD
497C
6E5D
613C
4200
2E3D
32B2
ACA
3A50
2840
11BB
78A1
7E7D
3870
65C5
8CA
47D1
1CB4
2937
454A
1985
7EBA
79A
FAC
3588
67
2E0
6446
4A58
4D11
4E89
5B04
5BE6
50E9
333F
3B91
2DB3
1FCC
1987
1821
3017
2162
7BD2
7325
1EA9
32B4
1C81
170
316F
6D36
3EC2
6998
5EA4
5AE6
3E8B
236E
1678
6890
5D3A
3267
2B8B
7834
2FC6
7B3F
576E
70C4
4C1D
1C0C
392E
6D8F
4823
3EE1
701B
1383
B0A
18B0
D51
1BCB
26D
247B
2749
7D8D
281F
4B5E
33D5
32D8
42E5
2884
58BB
14FB
2F1C
C3C
4718
6D4F
271B
6B3A
323D
3154
76A
4295
B6A
7B0D
78C5
5E44
383A
536C
19E9
2695
53C2
340F
6543
17A7
15CD
6B07
5BE3
6640
5027
2F40
206E
289B
399F
4B5D
3245
341
1F88
6FDA
4FB4
119
37C
42D6
61C0
766B
4790
5FB
4FD4
591
5D40
2B26
7E08
25ED
7A2A
2F54
3515
2016
5963
3083
5864
2C25
7560
3D48
3D51
54D9
3BD0
1B5
2328
1BDB
996
3DD0
7D8C
41C8
2ED9
2C37
4E4
1DCA
47FD
1FF4
4205
34BA
2E5A
48B7
2793
7C9F
7594
2595
1CDA
1B2F
4C71
18B2
265D
5A24
1F14
5791
5A12
902
50DF
7834
5899
66EE
3C45
35D3
185
7659
5274
720C
34DB
4E6A
2EEA
2692
34C0
4F09
6865
5265
72A5
616C
7636
374C
4825
19A4
53A3
2A15
68F5
1DCB
537C
4139
62C4
748B
1E28
20E2
394F
6DA2
2612
6AC3
7DFC
660
24CC
61BD
334E
659E
21CE
54DA
41F
742F
5EBA
5269
2632
3010
2BB9
3DA9
43BA
6AB0
1CF6
37B8
5D19
244F
22FF
26C6
372A
505
26F0
1262
56B6
7F7F
701D
E48
371E
2288
78F4
5A98
4E8B
4CA9
2A17
55A1
14AF
7C18
4911
6EE6
46ED
4F73
29AD
6590
2EDF
2E58
3934
2C3F
5386
4E11
3FE5
2662
3E28
44FE
2D68
7DF6
3C59
333E
37EE
61AA
27C1
6259
2416
6C48
37C1
36FA
4C6B
685A
A7A
6379
1DB7
3AA2
5135
62F2
2072
50A3
272E
3318
F48
7B0
68C7
28F6
2460
6398
25F4
37D
1305
23A3
611A
5816
2686
101A
3141
6CC8
A0B
7C8D
B34
C85
157E
72DB
758C
12DE
78C5
5EB6
34F1
90
7307
1724
4753
6F18
54A7
23D6
7A40
4AFF
3345
4AB5
8D5
6CC8
5618
21A1
6A32
277E
3FDA
634D
3500
207F
1FD
35C2
2029
2063
7B96
2DF1
22DE
6307
5B4
1EE7
133D
6FDC
E4D
1CD4
1ABF
3DF0
45C3
7A5B
A69
1230
6C1
1D6
52C2
72E8
1FCD
487F
5C04
ADC
788F
3D61
3F56
E1D
7892
2514
736E
7AEB
1A03
5DE6
52D1
68E6
27
1FC6
798A
230E
23FC
57D3
244B
A87
1847
411C
2990
1C8D
5BF7
3BAD
F6
2950
247E
273
23D8
15D
7CCF
1CBC
29BC
231A
53C6
28DF
1664
78BC
295D
6555
7A38
1FC2
57A6
5FDF
63F0
F2B
2DBE
730A
7FD0
1152
6935
D03
647C
751B
7784
6D07
2BE7
1386
6C7
5A77
3174
573E
58D0
1199
6E95
11E5
3A02
419A
1FDE
984
D4F
7B4E
1F2
28E0
2C78
44F3
29AF
164D
3EFC
1CA9
7F8E
337C
1FBC
FE1
4240
1799
39DB
40F9
31E7
3AEE
52F5
211A
3532
4550
7AE5
5C2B
D5C
31F9
2CAA
57DE
75BF
543F
D65
2BA7
6410
C0C
796
647B
58A5
75C9
3D01
62BD
763E
214E
5F02
5DE6
25A6
766A
6E99
70C4
34AA
5C49
653B
60DE
1635
14BF
33C7
54D3
37F2
FD9
436
7F4A
E41
719E
E9B
5CC4
1CBF
6707
50BD
731
3D6A
7CCE
6467
3634
2497
5647
353A
3577
3051
26F2
5E63
619
244B
20E
2F4
5B09
1AF
336E
6ADA
6224
1682
4C67
4639
4307
2B9E
7B2F
154
5CE4
2FC
6611
5A65
3522
6C23
4A8A
4056
47AB
3FA0
6021
3441
4992
22CD
423C
1094
7319
4E28
751
27A7
499
13E3
6AB5
B81
684
964
54B0
19F7
12E
5C31
3E13
128
1B24
1413
484D
1F48
4FF7
3B5D
560
3A45
14B5
29C5
E74
4245
3838
53FD
15AF
1B94
1E38
5E2F
5AE8
79E9
6EF3
521C
7E47
B66
7158
34D5
508A
322F
6CA1
522B
60F9
7BE5
1E0E
318
2686
766A
42A1
5036
3F1F
A48
31D
F24
78C3
2C95
7640
6E39
74DB
3AFB
15FB
54CD
31A6
5ECF
3D18
6618
5531
471
1F1B
59EA
26F4
533B
39E6
4A3A
6352
1AAF
309D
3ACB
2160
2BE9
10F4
745E
2AE2
ECC
4411
264F
27E
3066
1D1A
1ADF
1C7A
1195
6060
6D05
25DE
3BD0
4FC5
3F36
7CDF
4EB6
51EE
7B72
7FEC
F56
108B
3C35
59AF
6F5D
5EDF
5896
3D66
2EC1
98D
2018
FB2
4433
5271
63C9
6106
46B5
7EAF
662C
1715
4AFC
7069
1471
1DFA
257F
7647
33EA
2257
2D84
6B90
4F0F
44BE
1934
6B90
64BB
152
606B
325D
148B
4A79
78D6
529A
644A
1DEA
8B6
3BB
2965
78C1
71EE
514F
41C9
1355
431C
7618
36B7
6D50
794F
4092
556C
3ECC
53AD
67F8
580
2E01
3247
792C
3BE0
675A
5CA4
7B7B
42CB
1B54
7D82
5C86
6A13
4DEE
27A9
D1F
67C6
1287
3804
2D3
7452
5E38
29D0
44B4
35B3
3259
624D
187D
70DD
1E46
6865
2794
70FB
2CAF
62
5953
1221
4710
7CCE
C
3C4E
63B0
7D88
51BB
7DCC
6AF7
D35
3AD2
6C5
3F64
3250
F2B
3602
25FD
2236
7C23
51D0
C46
6119
50
1B1C
7265
CBA
9E9
6ACF
5314
3803
660A
49BE
1E08
2532
102B
ACF
861
1ED5
2618
6FD1
575E
6B09
433
4BC5
5C37
27E2
5C40
691B
3FCD
552C
7536
4847
1D66
4E78
61BD
9F8
466
51D1
362D
426E
54E9
51C
5F0E
2E34
354F
A3B
706F
5AE8
4E3A
5BE0
4CF0
9A8
19AD
478C
2955
5C00
180A
BB1
E59
799B
7735
2B9
6F67
4876
20E4
767A
4054
4F4B
447F
44BF
87E
6AC8
5F84
47E3
4C17
294E
D0A
EFB
2F39
3E59
2E6
1099
5ABE
713C
2239
754
1DC4
7715
33A0
2CC9
693D
2537
3810
7F87
53EF
1EBD
31E5
1A55
1CD9
519D
2CE7
1ADD
A6A
71FE
5463
1F69
6643
588E
6E22
DFE
5255
6F41
2FE4
41F3
3EE1
7CE
4D50
611C
6A4F
5F94
2D94
5428
2E93
69C2
6E48
4C47
55C
76EF
4F5D
42F2
4F80
5217
63B2
1B5
7ED3
2903
7785
5CFF
37FC
1E08
57BD
5304
1356
975
5AE9
5009
36D2
65B4
408
71D8
64D8
74EB
4501
165E
1F3A
6CDC
7609
7F98
7E89
14C9
386D
4371
62BC
73A8
4676
5DF
771E
506B
2BC4
4E4A
3F22
36EE
41A4
6480
55EE
CCA
3392
637B
573E
4124
1F25
58E2
1E39
D
6E0B
62E9
32CB
708
56CC
1144
5C95
5E19
7C75
C95
6727
3F43
50CD
1DC5
7716
DF9
13C6
4C88
5BD
50AE
798B
3CEE
781F
628E
6857
6E1A
62CB
7FDA
7D25
61A7
4944
1D48
7FCB
23BE
315F
358D
4DF1
3A5D
4F4E
211A
4F40
3314
33A1
3AF
5F73
445B
1785
383C
674B
1841
33F
37F8
726B
F9F
2A3C
3849
6628
444F
7021
7B18
6E9D
5236
56F3
E49
7071
618E
1E7
6C4A
2490
50ED
3896
1055
2358
2FAE
378D
61EB
5C97
280B
7108
3A8E
2A58
F01
5A87
40A5
294
3148
59CD
6D4D
4572
2BEB
4A83
5742
33CB
5F71
6540
586B
4080
2F46
7349
44CA
5E6A
6532
31EF
7DB3
193E
2F4F
49A8
40FF
5B1E
14E
7EA1
7B47
6945
1953
7B57
2FD9
2F0F
7330
4399
3D89
628
44D6
D97
1887
5DC1
1996
77BA
3106
4F50
5C44
245D
2BBC
103F
2C04
69B5
9AC
6403
2807
50F
6235
49B6
4718
4AA
238
594A
622A
1AC8
7FD1
8EF
4754
4E59
FB2
2533
7909
12CF
1180
37C1
2FD5
384C
31BF
60EA
13C1
3AEF
5E2A
18A4
2CAE
73B0
7BC3
4AD2
1A3A
314A
654F
1F51
79BF
31CC
6D17
156E
5336
562E
2156
1735
661C
6B2E
31AF
3EF5
BA3
2C87
3749
1E8F
3E37
5D89
51AB
1E31
4945
48A9
6CDA
69B3
409E
6DC9
216E
5881
732
DAA
22DD
2685
1621
63D6
1E38
5348
6694
1873
185A
E66
7FE0
6AF8
6D7A
6515
533C
3190
54D4
67D1
6E40
77AA
6251
7BDF
3A3
1ED0
7C6D
43F4
2C3E
1110
7DF0
4FD2
560B
1CCB
1DFB
56E0
6CC5
5077
7B05
7F0A
7223
2C9D
54AB
13C2
10B0
113D
4C72
71AB
5816
335C
6548
5061
52BF
1C81
30D6
1D03
4A28
4E91
5D6B
47C0
62A
7FD
8CF
1F4D
57B9
18BA
3B61
3145
3A64
6CE1
3D79
725E
D5
1ED4
3C20
1E1E
2132
4CC4
CD9
717C
7F1F
6EAB
4AE6
7017
93D
C1D
B5A
32A9
61E6
2B4D
6B34
1927
4008
745B
50E8
608C
19B1
2D65
222C
35CD
10EA
70CB
5634
6C19
3403
400F
548D
70F
4599
729B
509E
59AC
48B5
7D49
43E
29DC
162A
10D0
4C3A
6DD1
4E20
16A2
36D0
5B02
7BD4
3732
4AB1
742A
79E9
62CA
7468
1737
1E9B
9B7
7FD9
322A
4235
422B
6B46
2F6B
5BB5
5F0E
2707
454
3EE4
7AFA
17D7
A57
D41
19B
273F
2426
336C
7B2E
5A79
1A2E
D7F
48D4
1E4E
3DE5
2909
4E93
2C7D
16EC
42A0
71F7
2076
158F
53D9
5F97
1081
1A05
1B1E
5FB7
12AC
790E
4CB0
3004
74AE
2BC1
5188
23FA
20
B15
5CE0
27C
6D18
5610
735F
1892
2CED
5637
C9
7032
5FEB
38E2
4F7A
348D
683D
1ADD
10B
7213
F2C
30D2
2E3F
5E61
AC8
505
D82
5477
4DE2
5B97
6A74
4476
55CE
7884
3DA
539F
387D
30D3
41D9
7DC9
3102
78B7
1717
99B
44AC
3872
3943
5594
566A
697F
40B9
68B0
689
6CAB
1556
7639
63E4
4BEC
6154
639C
48B1
553A
7CF8
7D7C
2E82
6DE9
6D33
1B97
45CD
54F6
293E
130B
CA6
16E2
CAD
1624
7619
6ECD
1B38
7213
3486
5B9C
41D8
3FD3
3A1C
7FEF
4E7C
70E1
6F11
7DCD
28F7
1BBD
79D0
3159
1D3A
4549
51DF
32D
6D37
38C3
3016
5EFE
2597
332A
621D
2DC5
6B84
371C
7FA5
1A26
6BC1
2C41
2793
381
7FF3
992
2107
4205
1086
55B8
558C
62C3
37E5
F6
614
5DDE
7A4F
3E5C
3B87
194E
3C7E
59F3
3348
46DC
9C8
7DB8
3ED8
542E
33F0
5AA8
1EFF
12C2
391B
3DD5
19F3
7012
AC7
356F
67B1
6386
4686
3D35
4F29
499B
324B
E20
59AA
7911
56
7D3F
AD3
4E63
237E
1343
3E83
307F
7F45
7C5B
3246
623A
44C6
479D
3A66
6525
2C2D
5A13
7464
3DC5
623B
6145
43E3
6780
1B6E
6B1E
4C15
F0
2EBF
1AAA
35D
5C8
633B
5F72
22A
14AD
66E
1AE4
60DF
28B2
3DEF
670F
5364
49C0
1A25
903
5C9A
14A0
476E
CBD
414F
1429
4F0A
28ED
16E6
3806
5FF8
1837
5903
58C9
52C1
5CC8
3E69
4AE6
60AF
1B5E
5DC
6C74
17E3
4046
EB1
42F0
1F68
62F4
3A01
7A5B
4FA0
5059
4B6E
265C
3568
75CB
337B
24AD
4941
7B56
52AF
1A8
752E
39FB
47B4
587B
1975
182D
50C6
1AF9
3106
688F
5E6F
36A4
2F47
5C1B
5367
2334
72B4
81C
68C7
1427
338
142E
2814
6E96
3D78
3BC6
E78
2790
3EA9
700
BE2
2272
580E
15E9
1FEB
5A58
2299
3922
4410
1735
66CD
5C8F
2F5F
28F7
29D
71B6
133D
4CBD
7C0B
5803
4B4D
E61
2EA2
7C28
992
2D57
724A
443
21BF
253E
66A2
4E04
1CA4
666C
12F8
18D5
5A0A
3328
73B
75BD
5C6
1AC7
1942
2417
FDB
1FBA
3FCC
6737
2C13
9B1
1DE8
1FF5
129E
31D0
7B1E
5D67
7985
2994
4435
669B
2B2B
217
380F
337C
702C
6639
527E
707B
79BC
AC6
2159
7943
2885
59AA
1DF6
3AD1
2B8D
203A
6A67
7BA9
331B
62A5
7D9C
7467
205D
765D
4FD
4F83
C48
4F03
3771
71AF
6EBD
1381
68FA
35E8
4D96
29CA
3474
645B
7AFD
70E7
618B
15C1
2F94
894
61E0
5593
4672
20CC
1C34
1B6B
436D
7888
7084
3461
70CB
2530
3419
742F
71FC
2747
4B1C
3063
2165
718
1DB1
249F
44A
6D0D
2CC3
452F
1873
65A1
539E
DD
6CE4
3B71
59DA
201F
58DB
3D31
C1A
2530
252F
170F
755F
235E
4DCD
A78
1EC3
758
6E33
7902
4739
71FE
5690
5C30
1530
3E24
6574
1078
58D9
7305
68E3
66D2
1EE5
3FFF
2ECA
29FA
581E
66F3
4D01
17C7
8E0
21F8
3179
6DA3
6B60
2D0
1685
6CDC
7659
3C3
21B8
24FF
14C5
16F
6814
B3F
7D9B
222E
9F8
1899
5109
4524
36D0
1D48
525
4429
1B33
E5B
268E
3877
2083
3939
6657
2952
5F6
32F5
3A80
763
2762
5407
33D3
5EF
6F32
5483
1CD4
698
16AA
11BB
777B
88A
46A3
3F97
43F4
19F
103
2824
18A4
A6C
3051
6E9E
1F4
4FB9
64E8
51AE
1DE6
D19
5899
540F
4ADC
1717
5FE1
6D2A
1523
464
262F
234C
2B5E
B69
2CF4
6211
539
7881
38FB
3CC5
41A7
6F5F
2C5
2759
60F1
183D
7B3
643D
7043
4960
54A8
2792
5B34
29F1
18A7
4331
1F7F
74D2
69D
1907
7715
79C8
8D
7D28
3672
3774
1D16
5047
1BC4
2192
64C4
5DDD
216
8AD
68EE
1046
4643
1DE9
6448
1A96
3F32
689C
5CCF
48E5
4C13
24C8
7741
33A1
139A
5FF
17D7
8B7
3622
880
41F2
2B0B
7B1
29E4
323E
687F
13F8
7E49
39A4
5BAA
4CD4
1F66
4EAA
786C
5189
28EF
4689
6412
F56
DC8
1870
220E
5E6B
380
2A13
5A30
1A0
6271
7631
66A0
56BA
44C5
5EE0
3080
493D
DD
5A79
700A
1F93
577
6BA4
794A
2F93
4E44
5057
3AB8
2212
77F3
16AB
1627
772F
7CA7
60EE
63FB
5E97
13F4
275
618B
7A7D
343B
685
192E
3046
44CC
53A8
4C15
7F7C
2026
53D3
5391
4B43
46B6
954
6EE8
1400
21AA
32A0
6D16
9BD
29AE
382C
7B6E
1484
13F6
69DD
5467
7A80
4DF
678D
49B0
5CEC
4B55
2367
73F5
1A52
5F9E
5E62
14D7
31D
415A
58A9
561A
4A8F
1F0
150
5973
34A8
6FC
1E8B
3B2
7BC3
3406
6CAD
58B4
2D0E
40B0
3E2
5133
3EB2
303
5E3
224
5D8D
6E76
34DA
1A7F
1B54
872
78AF
7E7D
A2D
34A7
5940
7BBD
3C5E
4A51
40E5
4B52
41A6
6C39
36AC
27E3
4758
461A
4A14
744C
30D4
3889
7A12
285F
43BF
61B0
ED
2E4B
6CBA
A3E
414E
4D2E
4051
2665
6DC8
7E72
3310
2E84
45CC
129
203B
7FD1
41F
61AB
4565
4A2F
241
4DD4
6F06
6FC
3363
3DD5
1A2F
3741
209E
2B4C
EE1
67E4
532D
4AAE
5DBD
2E65
7375
210E
138A
2EC3
480
5B6D
39D4
102
7B01
10A8
E7A
6840
19FA
2BD
2DB8
502C
4AF7
735
4D2D
416E
672A
768E
3B3C
5C1B
5D12
1D1C
661B
3B49
28EC
207
1E19
61BA
32A4
5281
64B3
6F29
5B13
1CFB
7808
54A6
3C66
BA6
4A21
37DA
26EE
652
505F
7DC7
3A13
16F6
7CB4
135D
58D7
7BA3
1FD
519C
3349
3C98
47EB
49AA
4E0
3908
3068
3F1
70A2
2384
1F59
631B
11CB
2DA4
40F0
3A3
48FB
5BB
56B8
5655
3A5F
5975
7C85
307B
12A7
4577
6F22
6196
4CB2
4E06
2F84
610D
869
6858
7CC7
49B4
37D2
45C4
A91
50EA
40F1
6D14
6351
4DE2
4590
19F5
3A96
747B
1621
551F
726
7FAE
EA
29B6
17ED
34F4
81
11CC
89
50CC
1493
4272
2710
ED3
74AB
52FD
39C
373A
16F6
EB0
221C
3861
3473
2190
144E
71DE
7679
67CC
73E1
236A
5935
41DE
754E
2C0C
534
3347
5BCE
1FD0
7350
B44
3B8
541C
121B
1D9D
1FF4
7C29
17A3
5BF1
24B9
3DAD
7E27
1566
2EC3
90A
11D9
17A5
56C4
3851
2838
3635
6B48
5BAC
4E4D
62FE
2B
4D73
75BC
2AE5
3461
454E
6E9B
1894
3E5B
652D
7631
25A4
707D
5F61
1736
3DFB
19F8
349D
41B4
7810
716C
5E3D
7657
71B2
E19
2A46
5547
4CCC
1549
4DC7
C93
7FED
1D6C
199B
6486
3C1C
EF1
3860
57C7
1FF5
447
720D
69CF
4A53
4727
9D7
7E6E
7204
33
2095
77B9
6369
3D31
3BC3
6152
5668
5FC7
664B
1F52
5D87
4F80
37E4
1A3F
3C0B
3CDF
4A04
2AB6
7F93
45C7
77D1
27E
6765
3545
2EB4
43DB
45B
4556
5E8A
3260
72BA
26CE
1834
55A4
2B20
8BC
745
2B0E
54A6
22EF
2A32
1A8
3D5
4E49
532
6071
664A
6008
A8C
6EC9
6937
2FDF
4062
5EB6
4F
5615
E9F
7807
3BF2
391A
18FC
2B09
2E68
398E
2E62
41BE
11DF
310B
10A4
6359
1E1A
340
890
5D1E
41DF
2039
3D66
5C5C
6CBC
73E9
586C
1FB0
393
120D
377F
26D6
6FDB
3878
3CC
692E
1306
4D20
166C
102C
1925
3842
2104
5C71
78AD
481D
7E11
58BB
48BA
6D27
3036
7629
5193
3B48
77F7
1B00
7AD5
3A85
1BCE
7CEA
6756
2B52
9A
7B16
3900
2593
4C04
4509
500F
215E
46B3
2C1C
6118
6A63
2CF0
4469
B3C
476B
5CBD
3A89
3DF6
18CA
64B3
567E
67D4
7439
610A
1678
315D
47F0
4E61
5760
E85
5F14
687F
4849
531A
60DD
20F5
6602
7182
5DE4
65A7
3311
558A
5CB8
1723
6419
10D7
23BE
1213
4AD5
3BC3
1E1B
37D7
4B8A
39C7
2691
4F34
86E
7EF3
6CF0
4C9A
5946
2AA5
4D15
76CB
AA1
3AAD
68BE
20A3
35EB
6742
5FDB
204A
744E
1598
2433
41BC
4EDC
52AB
5A80
4407
367D
70F0
7F68
7531
3173
29A3
22BA
5A21
7E22
7EF
7D32
17DB
60B9
5277
5C9E
81
5442
4170
12A0
12F2
4829
4525
6FE6
414E
3997
214C
53E6
B49
1699
3B5
7FE5
61E6
2C04
2C27
733A
61D8
78EC
7980
6813
2A46
D5A
1CF9
5920
13DB
2089
FF2
77DF
199D
9CF
70FE
465E
BA9
89
48A0
804
4515
DD1
6C2D
4777
3BF0
5C48
297C
1BFB
444F
6A5E
1CB2
7891
7ED7
4F23
7CE0
18C8
3678
404E
324D
816
4935
C88
2983
2254
6A2C
30E6
5653
69D6
38E3
7FAA
24DE
397D
2443
7487
1C76
A5C
306C
5FAF
45DE
50
191A
4C21
2462
32A0
506F
E96
22AB
26F1
2DB2
4423
672
116E
51EE
4103
645B
5FBC
1A6E
6AB9
68FE
6B4
522C
41EA
1048
7EF4
4AED
5902
5FB5
50D0
BC
C3A
1372
3D2
4C6B
699
4670
3D84
66B2
144F
30
1ADB
4EAE
D48
1FC8
3B93
2A87
5FBE
2989
52A2
1A12
24F1
329C
2B95
5E83
2532
2A0B
7A24
4196
4407
313D
29FE
60FA
1107
6AAA
4231
7655
5B77
5E13
439C
27BE
1189
78AB
5913
2051
B97
5E24
1936
3A22
2C13
F6B
3B87
3768
43E2
4004
11D5
540
48
781F
7816
774C
4E3B
1A25
61BF
5223
E51
2BCF
7F01
8D1
5EB8
1764
2D08
1869
27F5
2482
71AA
8F4
78E0
1E98
3C3D
62AA
2F5D
458B
909
5C99
32A6
103D
6734
5FC9
56D9
15AF
5108
150E
7149
2BDA
20D
72B
163B
4576
5CFD
49E
597B
6F75
381C
3FBA
40BE
614C
52A2
F80
6A63
A5
3D94
41F5
701A
9D3
3FF7
3020
63E4
4727
4AA8
1CE6
6430
53F0
7674
6EB4
80A
2128
66DB
6F0C
49EF
1383
2691
29E6
302B
6DBA
5A4F
2B4E
645A
E05
7CB1
68CC
982
2B9E
26AE
5EE7
38D5
6740
7341
47C0
2F26
6099
2141
4A8C
3121
3F14
211D
3593
7CA0
742B
5954
4D13
5D05
6D53
4C8
43E6
56FF
460
23F3
545C
6543
8EF
27AB
739F
33D5
7BD0
79FF
6797
50A3
2738
3B53
43E1
6CE9
347B
592D
240A
137F
3882
171E
531C
196
3CCE
37E1
5A87
7D9
3194
FF3
69F9
2F1A
7FEB
58CE
854
14B7
3DC4
766B
1927
28E5
5E7F
3D53
5725
3715
16E5
4575
17A7
595F
541
486C
63F9
5D8F
5F7B
6D52
6547
478F
72B2
2203
30EF
52F8
82
1B13
2137
129B
5158
70BC
7D80
2F06
3DBC
7F70
7BD8
F81
50B4
378
733C
2650
1C20
7FF2
1593
5176
64B2
2C80
4C8C
6A14
1917
66C4
329B
2A6D
424
EEE
758F
29C8
2C9E
352A
560F
7F13
7F97
9FA
351B
4AE0
2ED9
7ABA
3338
7AFD
4B50
1F
4AB2
2EF
20DC
C2E
1033
5768
3514
7E72
40A7
D30
19CC
1CE3
48FD
5904
3FF
36D1
4842
360
7193
2B21
651E
4709
50E7
732B
DAF
11C4
27A4
1D2E
767A
C81
1949
79E8
51D5
D51
297D
15A4
6CCA
6539
479E
7838
27A3
7CD4
2CB8
6C71
44C3
5F84
407D
4D4
70C8
69A1
5021
6362
40BF
3E7
2CA4
3A1C
44A8
3CA9
166F
3DA9
5C7F
39BD
773A
2260
106
7956
6C4D
12F7
58C9
2524
3E57
4067
6B17
3137
6C20
6B97
505D
1D7A
6E55
5140
2CCB
CEF
1C2D
4940
17B0
46A2
7B80
3817
5DB6
5272
494E
1410
1A56
3922
3C8D
724A
1F00
2DA9
E49
2F3B
7EC2
701A
7B08
6E5D
11C8
50E8
CB1
51B
46EA
17D4
536F
4BF9
1A60
5EF0
1A9C
1930
1B71
2FB4
35B7
228
639F
35E8
3CCE
9A9
4564
335F
52F
6544
3A9B
5EB5
6FCD
729F
7F25
44B6
2C5
380
44E7
7D10
6904
5ECD
69
5464
6B90
501D
29A1
212A
5A03
23F0
7E40
63
7A25
69CC
6DCC
7177
E6D
2598
6877
2A19
2F3E
36B2
283A
3061
264C
3F67
3166
1427
467D
7698
3F40
D14
7280
3222
4872
2B0D
177
DF9
3C6
DBE
629A
B24
3CB8
7B04
7CD0
1471
5F6F
3393
F2
3571
5605
78CA
5BAB
6F70
53B4
6993
54B7
49D6
38C
46F
5654
1B76
4819
149F
22D2
6840
256E
54C5
729C
1AFF
6721
6152
5312
4DB
738C
7D9B
67EC
48AC
1C9F
F8D
19A6
60FF
3F63
5D33
3EAF
6789
45CC
5319
1378
341D
5830
54CA
6321
27CC
3EDB
45F2
3712
5A56
2EBE
68D9
3E2F
4FC6
70D7
679D
48E7
27A7
1027
21EC
320
5A80
9B6
110D
263B
19E0
26D5
73CE
7A01
2E17
6940
409F
32E9
D0E
4F54
7035
4E91
282A
D8
41EC
3C54
671E
2E9D
629C
E8D
10E4
405E
3759
6B1F
56D1
3474
5CA9
C0
1A6E
2966
6E22
3124
2017
5E66
60AB
26D6
4C33
6CF5
723D
1427
3479
6312
6330
2043
1654
7A4
35F3
D58
4B3E
766F
3136
1052
5132
4CBA
6175
34D2
4D83
6FC8
25
374
3E42
3A1B
6567
2F48
5136
7C18
1F46
1CEF
53F
4BFB
1C9B
182F
472F
1D9C
5156
5D30
5DC2
3CED
6668
7F1
3DE2
33DA
6BE5
444
115F
6D5A
1631
5F13
15BA
5DB9
74DD
412A
3BEF
31F3
E6A
114C
42B7
5288
4020
1428
43DA
1C33
584C
4D1A
5D7D
4673
37F4
5D98
3C6
4EDF
C21
593B
5237
23FB
7834
3F3C
852
79E2
2A36
676F
3FC
60C3
49A6
40BD
7A5
231
4E8A
249F
7D48
2E07
1429
2638
79D7
1856
6556
1A0E
2040
46CB
6EA
52F5
5E6A
7BAC
2486
1023
1B70
3843
3D05
2699
5D3E
305E
4B29
761A
4E04
3130
247D
3324
65DC
2946
7A49
63AC
101A
7170
4552
4551
27EE
3530
4EA6
5410
52DE
3D93
5BE9
4DA0
6C6A
545F
2B95
6EF
116D
24B7
1C58
32CA
774
7CE8
5E9F
3B24
59E3
921
5
3C12
665D
44C9
3B63
79D8
3DC9
7E9E
895
3C0C
44C2
FF2
6B97
2267
3E85
751
6EE4
21E5
7AF9
EDB
5B2
474D
B2E
1081
2634
3534
5EBD
5407
21CF
1071
3210
52B5
5484
7756
7CCD
276F
4421
5D7A
66E5
2F40
4CCF
3240
669E
12AB
2898
4F05
19DF
73CD
466B
7537
212D
248B
14E2
7F98
54EE
7F28
6227
9CB
1375
30C3
309E
35B6
21C4
28C0
29A3
716D
40E4
7110
19B3
662B
7AA8
7150
2DC2
21D4
4FFB
7A18
14DE
7D59
13A5
711A
25B9
1650
665C
6858
6E6C
259E
4155
2A13
1EA4
460F
18F1
946
10CF
7B31
6767
3455
12C0
2B62
2D44
3DBE
71AF
BDA
67EE
1E18
44FE
116C
1F17
73F5
3642
5ACD
53C0
58D3
73C8
7EEA
34F7
4AAB
1DDC
A82
77EB
2369
39EF
5181
26E5
2D18
6DF7
1B7F
7E78
3B71
74A1
3249
66D6
3DB7
7F7
11BE
5CE0
3176
2D34
3DDF
5768
8A
47D3
2C6A
4049
141B
14C2
E08
6AEB
1E0B
6147
7171
5A42
5A2A
5281
20DB
DAA
3DA6
72CC
456D
6E8F
4B67
16CD
197A
44DC
6881
5737
56B
1E95
1E1D
5DE3
7BF2
1DB4
27FA
2C1A
407A
57FE
2528
67C8
484E
74D4
220F
6E1F
54B4
5237
6382
136F
15A5
A45
4CD8
D4
53CE
62AE
73A1
16C8
64F6
6D75
3683
B58
6B8B
C28
615B
3017
20F3
2BB3
165C
65AC
35DC
3D8F
2593
1B7F
35CD
168B
4F6D
438B
39A3
116E
18BA
44DF
7F8E
335
6EEC
65F3
1D18
3016
6AAB
3D37
56D7
6791
62C3
3850
32EE
2CE3
4126
54D9
717B
184E
23B3
2249
27D1
4242
3118
793C
276E
6716
178B
5EE8
7A04
7F19
49B2
6FB6
F4E
C1F
7994
3553
5020
FAD
839
2F81
4829
15F0
2CD3
10FA
572C
219F
3CE5
C21
76C5
2D9B
364A
5DA7
F92
7E4C
6CD4
9F2
345C
56F6
4D3
1FA9
CF3
2CD4
333D
8AA
45C5
2C80
74B6
7F8B
4F94
445E
4872
21A9
4683
51A6
3F19
114C
69EC
5A0E
5EE4
5154
2D90
42F8
7FAC
4415
7D41
4685
1619
5CA1
4907
44DE
3D74
17A8
1ADE
52E8
6F34
70E0
5C89
3050
1BD6
6652
6116
4BAC
4032
455
42C
6C56
EF5
4FBA
4D8E
977
56D1
743D
3A51
59A7
29F7
47EA
58E0
271A
4A47
1B57
58C1
79DB
57C7
183E
484E
6977
6BB8
65C6
406D
5899
21F7
6313
477B
5F7B
5935
236
554B
2508
4AE0
25C0
7E37
27CC
5BAA
2488
2406
1FCC
1662
79A8
5491
1CB8
449
2420
58EE
4CD2
66E0
1944
22B2
5536
17BB
1F24
6D4A
3B3E
74D7
70D1
43A4
5E07
42F1
42EC
6D02
13F9
AB4
2273
7E05
1AC5
4BB6
3233
1342
7DD3
5C9
6BD0
1356
3F8E
7F4
68C7
476C
530D
608C
5F20
54A5
31C4
4A54
51C4
1AA8
780
3500
11CF
6BED
65AA
5D77
4ED0
1348
458C
4183
425F
2D84
7CFC
358D
7818
9CE
7A5
51F8
3E9
7BD
7160
60CE
3F05
7C6A
4F19
2D05
4A15
7906
74E8
6343
1CAB
54C5
605
70FD
35BC
4FC
3A9E
2871
6D49
6B50
5CBB
562A
7BF4
3669
3F06
1183
215C
2489
29B6
7907
5FBF
3BCA
193E
6511
365
6D98
230E
6415
462A
2D1B
6A0C
3DB6
5573
221B
1853
7263
57B6
4AA3
762A
419E
4A1F
121D
3499
24BE
13AD
2575
2453
CD8
7266
264
5322
3A0E
3A3D
1CF7
5B39
6155
1486
7E98
262
5FA0
F4B
3BB8
225D
61C6
2E29
6087
CDC
50A7
6186
4F12
31CE
5E6E
5E77
1B20
6FA2
2518
7774
472C
1D64
2F38
1CE3
1279
646C
AAB
EE4
420D
3411
4DF8
7EEF
6E5F
4249
334
F8
17EE
7714
368E
3326
50D7
2C12
7419
2645
1E06
54C
EF6
7835
35DF
11CF
191D
24DB
496D
1CFC
45E4
1104
60FB
B4D
5F38
2F25
5F27
5578
16A5
41C3
368A
4B22
107A
73D
3DAD
501E
AC6
50C2
3521
1983
48ED
393F
7C63
44D4
6103
D04
C66
2E91
24B2
6EB5
58DA
1E40
5173
7BEF
221C
3D17
35B
344
2567
2251
43D6
56AE
1257
124
152
6A9E
1461
4B88
6122
10D4
4DA3
6EAD
5C66
5424
A95
1982
BDF
2AD2
1CD7
4023
1B88
4C8
2FD9
2DAC
3E25
6D8F
16B1
5D29
5D22
3121
69BC
1304
70E9
5238
4FA3
7BA6
6FAD
4E7B
54AE
676B
13A6
5CC4
4CF8
758B
747
3869
21EB
3F4A
2242
653F
5380
62BB
68AC
55C9
26E4
2CCA
69A0
47AD
7B20
2014
49B6
7BA5
5DC0
42CB
696C
63D6
369F
1A53
6E4A
3F29
5EB8
58BD
1B82
5DAE
16FC
7D04
5AFC
4F5D
23C9
53EC
15
7F2F
704E
7EED
F0
11C1
7665
7F55
2453
49CC
3D63
7576
23EB
1AF2
75E6
5EC8
1473
1CFC
5C11
6F
5DA8
327
58E4
2D9D
A0A
355E
1A73
1A8B
6C4B
AC0
2DA8
426D
137
2DE6
289C
2F69
765D
4476
312A
5719
38D9
6F49
4927
5756
3DFA
283A
1C48
2C23
2131
4629
3880
6702
69B5
1958
7D55
4D22
11C4
1DC
4577
BFC
71B5
483A
651C
3675
BBF
3FE
44B1
1466
4A61
1011
479C
7B09
280C
6ACF
1C83
AE4
7699
18A8
2DA
524F
2FCD
621D
1187
12A9
8C6
7FC5
74BC
4E58
C7
709E
574E
66E0
1A2F
5BA0
5C4
101
547E
3E61
1A52
18E6
2AA4
5483
2EB7
6B14
6DCE
5C2D
428D
7E2F
D71
5933
66AE
705F
5653
2489
429D
5277
6E35
1B01
2402
5243
2DCE
60FE
7E47
74C5
CC8
39E0
63AF
2A
3948
66DE
42C4
56BC
6406
5044
6AF9
110B
812
51C0
25F5
59A2
74EA
5C16
7855
5483
654E
5AD8
672F
1848
3E74
6BE1
4FF6
43A5
629
7D7F
6B3C
3825
13A2
34C0
4913
4D1A
6A59
5A28
16BB
69FB
D86
4051
4113
75D0
31F1
5D51
1D74
C54
16D6
2087
6D37
1219
D4E
26C1
2961
2B7A
360E
61A7
24B
3A7D
55B8
4FE8
332A
64FA
76DA
58CB
3013
6B71
3D88
2961
7E0E
28F1
2BDC
1265
3187
932
77E9
1F69
1013
3C9D
5A67
17B6
4BC5
771D
711D
3E75
3D46
2DA6
3101
31A
2310
5D78
6324
160D
642B
146B
64B1
7EE8
5F7A
307E
2AB
31B7
F12
7A57
3E29
1E7B
50A3
303D
27AB
386B
21F2
2E40
2E3F
1252
76A4
296F
2036
3852
75F6
559F
3745
52CB
683D
66EA
586
471
4C44
7DF2
2218
3FA2
6AED
6803
629
42C5
DA8
5051
3902
21E5
3151
6946
4AD3
195C
6584
2E0F
56A7
6FCC
4EC2
7338
1324
224C
200D
5350
11AA
6420
6B4C
7327
7DE3
7284
2DCA
2636
2540
1E67
1BCB
6AAE
13AC
3F8
3788
5A3E
28D6
36ED
590
456F
556E
5498
65F9
4B93
29E3
2070
599
6C9E
75FE
4BE1
67C7
465D
2407
450D
444
6C7D
5960
5BA5
2FBF
1287
4E5E
1755
C71
780F
58DB
6E9E
392
5C7C
5685
F38
7029
3100
24D9
623A
6E2E
3BB4
16C6
6DD7
2877
2041
74DB
2EF9
60AF
2822
16FE
54BD
54CF
7FD4
54FE
9B5
4EAD
62AC
3766
2E5D
8B8
22ED
D43
1484
4A0F
2D69
7535
6698
46C6
254E
2159
44D3
7A80
3669
6DF1
4111
341D
7650
78F9
400
7E0C
E56
2CB8
5404
16CF
6BDA
59DB
378F
605A
59F9
1EAE
24AA
58F2
532D
4851
4742
3390
1032
7F54
D02
658F
1DE
40D9
236
852
1E6C
4877
6764
5B28
1B2E
2544
8C8
7DB2
2400
1D2D
1967
6936
6B32
2C06
417C
48E4
1D6A
7EFF
1079
654D
17D5
F67
2440
64E4
601E
681D
BD3
689F
46D3
40FA
3C1
6741
788B
6756
7C57
75BA
167A
7556
4463
3525
597D
7AFB
632C
5409
5520
5ACD
3527
7C6F
6C55
C88
383F
6ECC
4331
74E
1321
1E7
7291
C83
5DCC
72B7
336
1B95
4AC0
788C
69AC
6D54
6459
10BD
48E5
7395
5A2D
7FC8
1793
57E
4CBB
3226
61CB
4D86
1514
E56
4B70
D04
3BE7
62C6
5171
181
3BE2
5A14
166D
73A4
589E
6395
7749
575
4771
254C
3C72
7C09
73B
1FD4
7747
1E2F
580
6C6C
37EA
1464
21FF
50D3
C4C
703C
1FA1
7B5A
61D
75A3
31D8
1F9
5358
6DE4
3F1B
79DE
59B3
4D11
64DA
1570
6BD9
BE7
981
48F4
5B42
50AC
40D3
4F88
4B3E
564B
4C18
5AA3
85A
C34
262D
8B4
13FF
158
315C
4B08
34F3
43E4
B0E
2EAF
B44
5E5
7ECF
209
91
2C06
1E7B
1E8E
64CE
4CEE
6C64
50DD
2154
E5
6135
1FA5
3774
1EAC
51DE
A07
4B9F
6816
7BD4
7FAC
7012
316D
6C98
1F71
F8D
5231
4435
1132
3469
6228
5E55
61E3
5D48
1213
498E
1FE
5B55
6DE9
4472
65A4
3EC5
655C
7212
1810
5D3F
35BE
201F
28D8
5197
4A65
46A
5C20
1C5E
F66
6F5A
695A
3BB1
54A3
773D
2856
A8F
6131
30FF
1227
6C3E
8DE
158F
3EE2
5606
108F
14C0
5B77
7AA9
42AC
5BC9
5EEC
3289
4E4C
5B6A
886
7C85
3F0F
6CBC
4274
346A
5597
548F
23C3
2B5B
41CA
8F4
34DA
7A16
1DB5
1D0A
7EBD
63AF
5AE6
6580
3C44
3A12
87A
2253
7D06
576
BA8
62EE
1DCF
663D
7161
61D8
793B
6B67
59BE
340
5C9
4451
7398
25BA
4DA3
4B5D
6228
7C4B
AAA
61DB
A05
5FB5
624F
73BA
3639
1031
60B7
15AC
7AC4
215C
717
766E
4962
6B65
6388
1A7
6CDE
7F79
49C7
572C
2B62
55A1
393B
5443
72F1
9F3
7FE5
3981
1426
2B61
7655
3AA
2AE9
1199
48B9
2FB3
41AC
E0A
2087
1F09
1E25
1E49
62D2
F7E
5E6F
5D4C
4662
6ACD
2C35
53AE
337D
3334
6B7A
5E3E
1FAB
F66
1281
6F01
747E
245B
2808
45AB
61BD
1F72
1F17
2DFC
7602
38D0
604
4B2A
3EA
200D
2508
6B24
728E
7277
36F
25BE
909
5B95
78D
1BB5
1582
62E5
3E44
27BE
4A56
6AF2
6738
AED
CE7
1A54
6BC3
21A9
5EB
16AD
6B58
5D4F
46DA
48EC
DC
4F9E
2AE7
7FF5
5494
435A
69F6
5B99
4A98
4C9F
325E
2F9B
5718
D97
160
1E76
6B2D
73FF
332C
673D
7230
5FDA
19A9
56C0
5FC8
71D5
937
4678
1757
6822
4512
2922
17DE
2FFC
23B1
424B
58FA
3D49
5906
7431
49C0
36D7
1608
503A
7E6B
6EB7
3CF9
7451
5AE3
110B
7635
59A9
4A0D
7C3
35DA
180D
40B
445C
6746
1B4B
5321
4E99
12AF
6074
5FDE
7208
3B8D
7CE
702A
13BA
5EAB
7E9E
354A
23C8
70FD
2AD2
6830
6800
7677
3D33
358D
2835
684B
1CFF
6F38
43C4
25FF
2DA2
80A
11C7
4970
4494
5BFB
43E6
3FA3
619D
6681
4139
7A50
14FC
43E
3F29
44A3
505C
7CB5
6FBB
655
3F3A
3CED
565A
9FB
61DC
5797
6605
3EE
29BD
4282
26FF
5844
3A72
33CD
18CB
39C4
5C4C
7732
5B77
4585
753C
74
7574
60FF
C58
3B4A
6573
67F0
103D
3BF1
2262
146B
2B3A
57D
3123
2479
3659
6023
3DBA
5941
C9
3180
5400
21BA
5ECC
479B
6650
45FF
3781
30B3
9F6
51FF
5F2B
419D
7796
76F0
1611
6670
31
42F1
58FF
3C42
1868
5D55
7C73
6AE6
524A
6D92
2412
3EFE
6B11
2BA1
15E
3365
49C4
2011
2ED
66C7
C71
5934
830
4B4
4B79
46FF
DDE
7F9E
3A8A
38C8
57DE
A84
7AB5
66DC
55B2
3F54
1A06
20FD
1B61
281E
18B5
1E6C
115A
5C37
354C
63C7
1646
479B
5F0F
5601
5F1E
6FB6
6DFB
387D
B4E
1096
28FA
662E
3F2B
1C50
43E9
6B9D
461E
7DB2
930
1682
148
2E52
7575
7211
4E85
7CEA
6AD3
68E9
3E05
550F
7482
68C3
7494
4FA1
338C
4C79
434C
186F
68AB
4203
6464
7882
4B98
7B7B
27B0
6D68
1650
1F80
1A7B
7C09
5328
36F8
67F3
5897
15DE
7161
7DC0
6375
2911
96B
3EF2
FFC
289A
4BB7
7ECB
2F61
6F
7000
31C7
1437
2674
6DAC
666
3783
DA3
1917
161
6CA4
75A3
10F3
1674
179F
66A1
53DB
1199
2E5C
718C
B42
71E
17D7
342A
508B
19B2
676C
55D6
43CF
68DA
1A04
41EF
74EC
14BC
26DD
410D
3B5F
4F4A
30D9
3385
408E
796D
5847
3D89
2F4B
46F1
6319
21FB
64AA
5C94
4300
1810
1C36
14E4
7F67
3469
7C86
6F65
4E26
1ECD
7B50
7A90
509
2A2F
7696
11D7
18E3
4E77
3EB0
43EC
74E8
692B
7392
39F6
4A83
6FDB
5B7B
7C06
13D8
493
5422
BF
5803
7A9
3F93
798F
6CE8
5317
1054
19D6
2AA0
5452
5E24
6A58
625D
4BE2
1E0A
3A61
591D
1876
56A6
1E29
2EAE
240E
49E8
3564
102C
66D8
765E
6973
2510
12A6
199F
6BD0
65AD
6347
7D41
5F04
5C6A
7A1
749
2E1B
A00
1541
63B7
3089
10AA
107A
15B
4367
5826
689F
7258
4DB0
728A
2412
32B5
7D0E
47EA
286F
7875
3CFA
6D4B
6500
7E43
6AE2
7437
1080
3B4A
68C6
4961
3D5C
43E4
79D2
27B1
4F9F
22A3
405
469
415B
1E4C
7502
2BA8
555E
1D3F
11E9
6A75
6565
E68
F9D
7282
5380
5918
67DB
6AE
5F50
5632
78BE
2178
796E
2AB
7CB2
558D
4960
4DDB
47B4
4233
3D25
6F15
4055
13FB
6744
6C2D
B8C
18F7
110
5A4F
579A
5343
1781
4FBC
3905
58EA
774B
25A
6573
38FC
3DC3
7F5C
1058
35A1
1F85
1625
3189
74FA
39D4
707C
BE6
72E6
6784
2209
485
288F
180D
741B
41D
69DA
3A56
5F64
40FB
4460
4B4F
5CA5
7D40
1873
1F61
125B
4E65
14E1
278E
38E8
601F
6D0B
7357
5A2B
69CA
18CB
259F
3604
5236
4FB6
5EC4
CAF
7F3D
2B44
6ED
7B6A
67DC
6D89
5BF7
2447
38B9
1207
5111
40B2
AEC
A4D
79F8
19E8
CF3
68BB
3389
4310
519
7C5B
6143
A40
2A47
3600
40AE
28C3
270C
543B
4FF1
532A
3087
1063
7974
56FE
6809
4EE
2F93
768B
3233
1237
5D4C
2A79
4511
30CC
228A
587D
43E5
191
4C47
732B
3B72
6B87
25C9
136A
A11
5DBC
29
7A08
544A
32D7
2EF
7C55
1A47
5669
5BD1
584A
297E
69F0
6045
68B3
1315
D64
7545
2203
71F
712
4765
5B62
7C74
A2C
25F
7B9E
3F44
49F1
5FF
5796
1059
76EF
7FFE
2036
24A1
323D
68EE
6B4B
1012
53E3
379A
5A1E
4290
3C89
3C54
2BB2
1519
4AEE
359B
63D
7398
2BC3
904
3D60
1147
6FE7
6159
6768
699
1030
37B
51F6
2880
3CB1
595D
3C25
2C0E
1D33
74D7
3A32
4BA6
5690
3280
2A38
4CA1
291C
6FB5
4558
6BA3
6CF5
3B8D
5EF2
2645
1D8E
3817
76BB
232A
C2
7BD5
3A13
27F0
48A9
24C8
195A
32B7
2833
65F5
4A2A
4019
4DAD
4BCF
76E4
28A4
F1D
12B4
1761
5D0B
36DE
F2A
1B42
7B8C
A2E
6B39
63C2
271
419A
3759
1EFE
700B
15D8
6BFA
3105
11B3
1F6D
5733
7262
14C3
282E
C88
DAA
24E1
1365
4FB
76EB
245D
614A
5D20
4D9D
4AFD
26E7
4F53
4972
2511
5BB5
D4F
6BE3
8D2
B26
4A4F
5F8C
25B1
DA5
8A5
78FA
6A72
20D4
36F1
5AD4
53E0
2F38
4F82
4BDD
54CE
3740
5D1C
6F8
3010
C36
31EF
1AC9
62D6
1E4A
3C0D
32F
4C0
EFA
6CCD
36F8
2E42
1089
5FA2
1DA8
46D1
71BF
53B6
40C3
7E43
3778
6D41
5B9C
1EC5
7B68
A19
5B49
17BF
6DE5
2B3B
313F
463E
3CCC
3B56
595
2415
291
4B73
BC9
63D5
4CF3
17F
37DD
4E3C
18E6
366
13BB
5BC9
2611
2D7C
4613
35FE
4316
3A7F
51D1
25B
56AD
6DEA
1975
54D3
3029
6313
6008
1EB1
52DE
39F1
2E5A
F5A
5C6E
2076
600
3D75
3744
8F0
1CF4
50D3
4DA2
7811
402E
5BD6
131B
37BB
4ABF
17D8
4410
3259
7745
C27
5EB4
5D4D
99E
4DC
4425
46C0
8A8
4CDA
1604
7641
2395
4D3A
744D
611
3A24
4841
2910
4C54
2D07
4516
3134
7BF3
210B
3EBC
6D16
5D12
164B
6BB4
5F71
6D08
71C
6196
6767
4031
2800
22B4
404E
4404
2609
3C6B
4D43
3F17
640
1C99
1A0C
17CB
2A0F
432E
1CA4
7140
4140
A2D
7264
68F5
523A
136A
69F8
1A
6BBF
51D6
308F
10E8
3417
E0F
3555
54F3
37C2
57E4
2E01
18BD
59ED
46CD
6F97
6755
534D
3AD3
7451
460
5626
241A
7C8
5D9E
155
355F
392B
CFD
2EB
734D
4A66
CA2
343A
3BA8
4B40
4010
6BA3
2C80
670
3195
70B5
7774
5E5D
10C3
7A01
59B
2DA7
12BB
68E1
2845
51B9
3571
12C6
BFD
258F
7A50
4A3E
7DC1
54DA
AB
6636
5F60
2FEA
34DF
525
390
499F
207F
63A2
431D
46F
472F
7EE8
2C9
D08
52C4
530
7CFD
67CA
2090
1FE8
7917
4A45
29C8
400A
D90
217C
62E3
5071
635B
5F45
5899
4388
1605
2CA4
22FE
32F2
A35
40DE
15A7
6FA
1033
776E
508B
4A10
410
70C0
EF5
2254
19C4
598C
4F7F
B9D
4100
2DA4
6442
31A0
1CD4
3790
59CF
4724
32AF
27C1
1846
4EBB
62B4
1C3B
782E
4FF8
F0A
44C8
70E4
7B76
216E
188E
4427
79F4
37E4
16BA
6F27
2554
741F
7A7
49D2
3BC2
14C0
A44
1A51
2C56
7871
381A
2179
5F18
4B06
F9A
42E7
103F
4CC3
EF6
60C5
89D
5AEA
1BDF
773C
2934
1169
3FB5
36B7
715C
5392
679B
426
7E73
4EF
6AE6
63AB
64CC
10D4
3F65
7565
1B0D
83E
5983
2B92
20A1
77AB
14BF
5CE8
7E5E
6E01
448B
27F9
626
150A
16C2
1D52
625E
25B4
34B3
1BA
24F5
382D
37A
1A6E
507F
A28
1E0D
76A3
74AD
7767
7462
715A
2A1D
177D
1791
60AB
3519
B8B
5630
16A5
21BC
2975
6D26
5787
726D
72BC
3994
1714
4E05
10C1
61F6
2DA3
34E0
4133
6759
6325
2D04
72C7
AFE
9A0
2B0E
1934
656
5BD4
7E53
4C5C
7704
55FB
5AE9
7BB8
2FFE
23E0
4EBD
5A74
4AC3
424A
3D92
4628
5D94
1B60
6355
2E9
584C
1DA9
5122
53E
7B6D
1E8F
2C1C
2D7F
5B94
5A10
7D87
21AB
507E
2475
188A
3518
9C6
5D1E
7ACD
1DA7
2B11
7233
4036
672C
36A
2DEC
13DC
4FDE
6E70
AE1
49C8
7EAD
51C3
41F6
21E0
2BEE
3F3A
EBD
6C7C
1110
704C
2059
3AD8
6E9C
7DCE
3109
17DB
43AE
C9F
3DE1
415A
7AF6
2D3C
5F7B
285A
5DEA
3028
6F00
4970
3960
C68
1A08
BB
7564
371
4CD8
4E22
447E
1147
767C
3F0E
46A0
34A1
EFB
4A00
52FF
4102
4648
413E
62AC
719A
29CC
EE6
7AFF
6ECD
5AD4
2D61
5895
230D
2679
13FB
7E49
29B3
709A
2F9A
438D
622E
8D7
7CF1
3844
C71
5738
8D
78E6
1F80
1312
166C
5D5B
4F59
73A7
1702
633F
2E08
5782
11AB
5B05
63AE
2E88
4FF3
657C
7A3
779B
1569
26D7
1810
7922
3D3A
1796
DAD
386E
4B2B
47D1
2622
B21
5AD7
6E3B
48B8
76F6
664D
647C
7320
35D2
2CCA
5B74
7DB3
47E1
42ED
4E28
4E1B
1A41
58C1
33BF
7CF6
44C8
2572
74BE
507B
5BC8
1181
3B2E
7F01
FEB
193B
4B20
469C
4D7E
C75
52E9
7328
511D
4418
6B8E
52F8
4A06
6900
3A1E
1CB1
69F1
39D0
3226
1ED9
1C8C
2D7C
55CB
3952
3F0E
7D61
5C73
220F
6AE
7E17
6B76
6646
4129
41BF
B22
1C6
5E6C
285B
1694
4B83
1B51
3AB0
43A2
10DC
68A4
1A94
42A0
4255
D27
4B83
355F
5ABB
2599
71B0
4375
4F8
5314
11FD
2874
3D92
3C4
2DFF
35AC
26D4
44CF
35B3
6046
1A76
7F15
7050
3532
562E
A
4726
1B17
28A5
4834
6C2
5CB1
213
6FC2
6274
2793
3931
36C8
5DF8
6375
7EFC
157
872
16B9
BB6
2CF1
16FE
5865
1C31
2DCB
B39
1093
79A3
5FD2
4FFA
2A77
767E
3C7
2E9A
511F
50C9
384C
12E
20F3
413D
950
17ED
910
55B7
633F
349E
291E
1C52
1191
5368
1BA2
4D30
45AC
277C
62FA
677
1E56
36E5
5EA7
5A80
6E52
170C
21B0
5384
32E9
7173
61A8
4DF8
610F
638D
670F
38E8
3B1E
63FC
7353
2EFF
12BA
3E5A
3718
1AE0
381F
3CB6
5485
5A14
164D
4FD7
3805
3C08
2E18
533D
186E
142B
44F2
4308
2EB9
5B74
3397
4085
6374
5880
277B
E44
4BB2
40AA
B4D
2D1F
37E1
48A5
F83
4EEE
7D08
490C
95C
6D9D
41D
6EA
4F92
4E4D
414B
21B5
71C1
5C38
6432
2D8F
2E8D
2A7E
D6E
5C59
7B40
26B8
4CD9
C2A
75C4
7D9F
349A
EF7
5880
A31
528A
1D0A
49DA
1CD3
55BD
E49
1672
64AA
5AE4
34FB
1BA
2467
51D4
79F
1922
601F
7315
62DE
2547
6B6A
805
461D
130B
5AE7
1202
3E32
6706
2244
1AD0
172F
11C6
1565
6B28
41AB
334A
2F43
270A
6C12
FB8
3BB6
2EB4
B5F
22C3
5F94
CB6
5077
636B
7C2
6865
C40
731B
7C46
666
48F9
62B7
5AD1
35F9
3DAC
7AD4
4B78
70FF
3473
381C
257E
9C
4959
6A83
2FEB
3298
5D7E
5DD9
4AD7
30B1
7B75
6B90
209F
7E62
1B9C
1353
65C5
6469
745C
65A9
3FE2
527E
4BB8
5C72
4E4D
740E
1383
555A
2BAB
70B6
599A
1C9A
6D19
45F8
2153
87B
4825
28E1
631C
5F37
4C22
6007
6F9C
4C84
4405
956
6FEE
74AF
B3
7F4F
EF8
3D61
46BB
417E
939
298D
7D65
57E5
2655
4FDD
6339
1C93
23B5
26C4
1FD4
1380
5151
3413
15CC
269E
6C22
20C4
6E18
71E1
2700
1175
202B
44
7907
46B8
18C1
3602
4E52
3EA1
5BFA
7188
1966
1B76
3828
593C
67B
41D8
4A79
22E7
19C8
14E5
6555
79D0
3042
80
2878
B97
17DE
5B27
70EB
6A2E
6BE8
2B98
79E0
4243
66ED
715B
419B
6DE9
6296
9BD
4683
2C37
9B7
36C1
22F5
3A69
6522
452E
3DFF
54AA
16F5
29C4
7F25
1D01
A55
266D
3990
62FA
6693
3373
9B4
2262
167F
70C3
48CA
7822
6015
460A
5CB3
7AA3
7FBC
7BDC
7C2E
677B
6AA9
3FE2
793F
3ECB
69DA
2EB8
39D9
7832
11B4
1C56
2DC1
1200
2E31
111E
2495
4E5B
4061
22C6
3125
5307
23FD
EFE
7DD3
5221
2918
105
3D1E
C76
6416
2BB0
76B8
BF2
5D2D
5E64
57F7
4A3A
3710
AAF
11
475A
6583
68F0
E03
228E
797F
4F6F
7103
53AE
2ACF
2CF7
534C
61CD
551B
31D3
3040
6136
53CA
24DD
F20
6FB8
28B2
4CF7
67A4
6CDC
1543
3529
11ED
57F0
42C
5446
7E34
7661
3943
F15
1A6C
19D
2844
49CE
5171
24B4
6323
1B31
7C51
5BFF
343D
45BB
DF7
3A47
2044
62A7
60B5
62A5
3E99
5C9B
2689
4A5
3E35
3F74
5164
4B8
457A
5A50
1A13
6595
232F
1D9E
1192
5759
14A0
6AC6
A3C
690B
CE3
7250
405F
514B
5B31
5F51
BAC
1636
D96
1031
69A
E4D
2EA1
2087
41EA
63AD
39AD
3DB5
28E8
69C5
72EC
77C4
105
41D
6631
22
3BB6
44B4
2595
6459
2E67
3F7F
5FEF
77A2
46D1
697B
43BC
1439
7378
BD3
6C00
6E4C
3DB7
5499
2B8
6278
6D16
2297
554
6766
358F
68C
7349
7FC7
742B
3E7A
3F98
57C2
2F47
4FE4
42F3
2F14
1938
2214
5483
7B55
2AD8
735
20C6
1186
1907
463B
1FC3
1C2D
70BF
145D
4ECD
55D3
2A83
5354
7B9D
4C8C
10EF
29CA
5BA9
667F
7909
6E84
6D7
3FA6
BC1
36E4
5038
169D
5DBE
753
7D5F
6817
705F
D0F
4386
612A
5C75
5B84
2D5F
5C31
1F6F
1E33
3E95
5CF5
2604
101
78EA
2B3E
3D83
37D8
3552
7B3
665F
51B3
5B74
3F47
6FD2
3C4C
61B7
1CDD
676B
25E9
7694
17F5
5AE0
2CA0
4B37
7276
9FA
210D
27D2
19FF
6A9
5ADA
3D16
55EB
6668
5B64
7CBC
2444
2E5B
61E6
38E0
1510
11CC
73FA
64B1
7189
4C76
54F0
5D19
6B9F
48F
7E1
1259
F58
369D
57C0
7263
5BF4
33BE
24D7
7E22
23A8
2F1
7C09
508
282
2D7C
6274
1685
6459
19AC
133
12C5
7B36
4B0C
451C
44EE
57A3
10C
1A0F
6C29
262B
3A21
1DC9
5413
37F0
4776
82E
5CF3
1B74
1D95
12DB
1BA7
79D5
3667
7E25
38FD
2184
54C5
6056
32A0
33C0
2652
3676
5C81
4D6C
93F
59B9
2AB5
234A
4C2E
3F84
12A7
3F16
60DA
6457
4968
5E89
4FEF
30A3
1529
304B
6B90
9CA
3EF
2F63
D27
6D66
158A
7B73
72CF
5627
7048
E16
6E52
5559
72EA
3451
6199
2F23
5130
913
1C0D
6C09
2EBA
13D6
1F2D
2724
1AEF
7821
5E5C
2664
60E5
3DCB
61ED
4F0B
35D8
7ABA
229B
37A1
176
5130
67BA
2A65
2A79
582F
5F05
6724
19D9
88C
4B33
67CB
23DE
7272
7024
4C33
3FC4
79D2
590F
3207
471E
184E
4FA2
364E
7078
59A
11D0
62CE
60DD
5D80
3FD6
181A
3C9
6C5A
3A9E
7B36
1AD2
4A3E
133C
2485
409A
3F37
52B
42EF
246D
7A0C
183E
1177
64C1
3C22
4494
21F9
77F5
5BE3
38DF
BE9
C9D
34CA
616C
2DA6
612A
3ACA
68DF
EBE
10FA
92C
4E2A
6DE5
438A
73A5
1A64
7077
7F08
3A91
5B55
803
6F9A
1DE5
557A
10FE
7C1A
2AE3
2BCC
702B
611B
6BE8
5414
3A89
4A20
2263
5C56
877
1946
1C3D
11FA
4492
1231
4B93
79E7
3B26
6400
E54
4F67
7119
70E1
724B
3E99
3219
1279
6A4C
7E20
5FA9
7D7B
2AC7
6126
2153
53C3
5756
7CA7
6461
7227
79F5
5C9E
772B
666D
2245
19B8
10A4
1EEE
36C5
7319
3513
4941
1A0
30CF
706B
419B
192C
55D5
4291
23AD
1BCB
1B2B
3BF9
3AB6
1E46
18BD
7C8E
6F4B
2A51
11ED
6F8A
E28
1A8A
5972
335E
416B
20C
6895
5EFE
5920
ABE
1580
5835
5AEF
510C
679A
2412
F16
516A
3FDC
97E
39A1
783A
7EAF
3D66
2FB0
3205
CAA
1C22
100C
5F48
4E06
5C7C
5934
59F4
5710
29AF
157E
2B99
376B
2439
7FF3
39DB
E81
7C75
565D
2884
21F4
388F
5C32
31EF
7A78
660A
604E
72CA
6A95
410E
A9D
22E7
3811
426E
7B87
26B8
1143
422D
7C9B
11EB
3517
60FA
5FF4
6E12
49C7
4231
450A
2F2
44E6
2F9C
32CC
4F9D
7764
5162
2AE2
75E4
7601
1362
5DB8
7AA5
7516
5089
6435
48C2
1393
445
2769
70D8
2976
68A0
5AD5
19EC
1249
2343
46A8
4E8A
2E69
41A
12C0
6A6A
19E3
4382
3EEE
749D
F90
7C6
5C2C
1761
1686
1B32
122F
78E0
5B2A
3959
7753
47AC
7FFB
6B92
39EF
6349
777C
3916
106C
5E1
7CC1
6307
5CCA
2FA6
4FCA
6F86
244F
76EB
33BE
78B0
5202
655F
4F9E
1C3A
3DE3
1423
5185
27A4
1C7
5980
79F3
F0F
78A7
798D
1368
B30
4BC8
F73
A6B
3F18
673
3B68
2CCE
BE3
B41
7A36
5C87
15B8
C25
4324
49E9
43A5
4474
3176
3157
16D1
966
593F
304D
626A
480A
206E
3CE6
47E8
5001
6A8D
6923
7013
70E6
1DC7
47B1
36E9
3CA0
6BBE
1435
7165
6F49
6ECF
2463
5F63
3365
5CF4
4C4D
5328
7D46
48A9
740A
77AA
78C8
7AA
28CE
4BA5
6D30
22F0
4B6C
5D62
5DD2
39CA
70F3
1F1
1D51
478E
219
60C3
9E1
5D39
317D
317F
5444
4124
61FC
3E10
7A90
5280
4761
6D60
25CC
15DB
1354
D64
7900
18FD
4288
24B3
6C95
71BC
103C
7EA4
124E
3D26
7A48
1134
81B
57CF
4944
C2B
6618
4CC4
2AC1
6143
78A5
F34
1282
1014
4434
71CC
4C11
7F91
5216
3D06
87F
240D
6C9B
197D
6AD
5B33
5098
7E9B
6039
6D0B
13C7
2805
3B65
2AEB
681B
59E9
79E5
179D
46FB
69CE
5C98
6B0A
5AB6
40D
24F3
5033
750D
6A14
272
58EA
47C4
790F
7885
1228
5B0C
50B3
DCD
5B41
346C
2414
746A
7FB4
593F
19E5
5ED4
3A79
81B
5812
343
3DA3
30B4
5F7C
6179
29CB
5562
3985
3254
7491
5420
58F3
63E1
9F8
4EC3
4DDA
1B0A
3A98
5139
20F6
625D
3E38
679E
6FA7
4242
46EE
5C33
154
3132
6F2C
5B2A
5FC0
7730
7F05
28C8
5085
2C43
28D2
3BD4
2BA7
413D
3A2C
1985
751F
76D9
6D5E
5878
2CE5
7BEE
702C
2371
873
39
2DAE
46B5
410
49AC
1F22
6621
1298
FC2
40D4
4946
6FB5
1915
3DCB
224D
25C7
50FD
41F5
5F65
5C77
2B2C
38DA
4993
32AD
FE3
7990
3DF8
105
12E8
7264
1003
1C91
241E
29FC
3199
B1
5033
ED5
C9B
4387
4BEF
5F5C
24DA
4A67
8F8
177F
280
76B
3384
378D
1EF7
6BBB
5A2C
5AD6
1FBE
704E
6930
574E
A48
1C56
3DE7
2296
1DC5
69D8
4AD
2869
6117
2958
73C1
55E7
AD1
189F
10E5
1825
16C5
5D4B
2968
2933
1AE3
757E
1475
7A93
32EB
3AFB
1E40
606
422C
2969
41F6
3E5B
6C90
6E5A
23F1
61
4E84
2D76
3471
1E86
50AB
4B3C
7666
2720
218F
624C
B58
634D
EB2
3626
75B5
760D
4411
40D7
595C
4483
113D
1EF8
27FB
A93
5CA7
651C
26BA
75BE
EE3
2F04
4239
3F45
4F69
2BA4
1853
2334
2C33
3493
621C
63AD
34DC
7BE3
48CB
1274
E5B
2510
7003
74B7
501F
557
3133
18C4
459F
3AE9
48
72BB
37BA
1B9A
4945
266A
5B06
52FB
28A8
489D
28C3
26E8
806
12C
21E8
262A
243A
3050
1742
5A6F
2F3A
1B56
55FC
7530
694E
48D5
491A
7337
6036
19FE
470E
79F4
70AD
227
77D7
5987
42B1
6A44
3DF1
1700
14DB
6534
24E7
1E1C
633A
5603
788C
5523
2F2D
D94
101B
17F8
7C1C
543E
53DE
247D
3426
1858
2966
5DCF
1A89
1042
57C1
555D
51F1
7ADD
B71
B18
C92
66AB
2758
2D50
3201
625C
F9
4985
20EC
679D
2BEC
471A
13E4
6FA7
231E
3CF1
556C
338F
4AB4
5C73
3B0A
6E67
E6B
36B8
6E11
789D
3C98
3A15
6383
4FE8
79
70F5
404E
2BC
6B1A
5BD2
3D5B
4F9A
5330
60DE
1A4
363F
5398
AA1
23ED
1EB9
229F
32F7
3800
3B60
6902
419F
1B44
5422
B49
1EEA
5CCD
81E
29D3
71C7
24BE
6F15
4C65
1A32
56CB
4B2
10A1
37A6
55C
2D09
C11
57DB
C61
4D5
F46
18FF
797B
3A2
77B7
635E
110E
1201
4D3
278
7478
1B7F
586E
166
15D8
23DD
2C5A
D0D
3767
57D3
1BCC
6A7
4749
421D
54B6
41C0
4E05
5C20
3159
240D
34DC
39B5
32C6
5EE7
453C
6992
1256
56B0
35C0
5251
58E0
6EAB
1663
6B2B
44F3
117A
1564
161F
6DC8
5C09
294
1F62
1477
207A
4018
7661
D7
247F
2A54
38A5
2A16
3D25
7900
483A
691
C37
1E5C
65AA
919
48E6
7AE7
3E1
25A1
4186
2CAF
205
1DD7
3195
521A
725D
69FA
3DC3
4B69
3070
C8E
52FD
74CF
9A7
2645
743D
4C74
5787
126C
2939
2658
3700
B04
6448
437D
1518
4C80
6081
66F6
1F9B
323B
12AA
7BAE
1358
64D0
771
8F3
5B4B
79E3
6D99
6CD7
1EEC
72F6
4DD3
2D8D
2B2B
4A6F
D5D
74D9
C6D
7A39
DC1
3476
5403
27AA
7F0C
702
2E51
5044
7C2
641B
D6E
4976
4C45
4336
71C2
3B55
7359
5FC4
4D87
2DC1
65DF
C13
32B0
422D
2B0F
74C2
142D
7D59
6928
1CEA
217E
4E09
3EF1
847
648A
6C41
773E
1020
5D31
5ADC
10C6
7B93
2765
29A9
322E
7737
6A0B
43F8
4D7D
659A
1DF3
2796
4CD5
3997
528B
7D42
4409
6C9B
6B2A
53FF
7A83
458A
1CD7
5C39
74FE
4F2F
620F
26CE
31EF
2053
27D7
4782
14FF
7172
5536
6AF
6ABB
1AB8
7148
2DB9
211C
6023
3082
3CCE
12A2
F8C
2114
32B8
4B1A
FF7
53A3
2B63
53B1
549D
2094
2308
7DC4
924
2535
4CF5
3C84
14C7
7C9A
58F8
4F46
1D49
1A8D
4A62
3042
2488
4FB5
7360
5305
2D6A
267
54BF
553D
1F60
2501
73AF
F56
7C
17DA
51D4
586C
3B63
6B1C
4C1C
3986
71E6
6AD9
47FC
3980
59CF
C65
6112
11DD
763B
4DCB
5EE
1B3A
6A66
3E72
52E1
4480
2F8A
5560
5D5C
1249
4179
3300
585C
80A
180C
2E51
17D
562
5695
478F
2402
7D1C
1591
1BA1
18B2
40CC
3872
3ACA
1603
271
553B
1761
4C48
2C4A
56FD
3E30
5FF5
3CFE
3436
7FD9
6162
460F
53B4
3F21
116E
5CF5
5661
6E6D
627B
6117
1C8E
6801
33D2
2451
5AF
1FDE
168D
9F
99A
4F55
5A96
7681
58B8
7250
1BFA
6C89
7C62
29D0
45D5
46FF
2149
5F53
6041
7128
3496
7B71
F64
3B53
61DF
6E96
3A15
7B04
253B
5F01
42A7
5D88
73B0
A08
5A25
16D2
630F
29F9
4DD3
1126
5751
7E88
7691
1B9
66BE
5F31
2F04
1C3E
152
37EB
4B4B
5031
FF3
2787
38A6
478
FD8
199B
6968
4825
460C
667F
580
6D41
2EF4
282C
1DC0
5DC7
43FE
87B
DB7
666D
6FCA
6814
2EE5
5B2F
1293
2E95
4CB2
7017
7B10
28AA
3C4E
7CAE
6EDD
74CE
B82
665F
2F58
178F
7CE4
7F
70F3
2E05
1029
4683
1325
29C6
61AF
6070
6A3D
4251
6890
4E03
10BF
68F0
59AB
480D
7B50
5DE5
3D22
3993
7D71
659A
3F96
6A8C
6DA3
5D36
37A4
9D9
4AB2
2381
73DA
2E39
635C
6322
5DD8
5958
3F36
757D
49A8
3888
14D4
47AE
6138
988
5629
3A59
3101
5729
14FC
1A4E
7FE
2D23
6030
B8D
6176
2CE4
4EF3
3DAC
654C
6F0D
741C
69AD
3BFC
4486
53F0
2FFB
A31
CDE
78DC
23B5
402
3ADE
42B3
6811
71E0
43B4
431C
5E97
1E39
41EA
6F46
538B
711C
5029
AB8
7DDF
484D
6055
5687
CC8
7EE2
1A1
3BDD
5999
67CB
37ED
2055
228C
1693
4BE7
6B4E
38DF
3BC1
197B
19A3
7CB4
18BC
7261
1298
4AD1
4985
39A1
4568
4C53
4C18
72AF
2904
4E82
3FC9
D06
662C
AD1
7B57
5F37
589B
374B
63F6
406B
5123
1A89
7570
6941
D41
3EDE
2A7C
5E31
72E9
46BA
613E
4A7F
4D7C
32A1
565D
28C2
CE
5B0D
7094
50BB
73AA
6830
24DD
1193
170
604E
201C
514D
688B
1B6B
419B
2776
3794
52DE
5CC0
D8
7206
7145
3D63
10B
2972
886
5871
6806
53F4
67EE
1D80
1747
3064
5455
27E8
59CF
122D
57DC
4500
354F
469F
214A
294E
15B4
6BF6
45A
39E7
2E5E
588C
7311
30D4
7C70
5539
60F4
12CC
C08
6638
7C70
964
1541
2B9A
31EF
7344
66B6
57A8
2FA1
72A0
4A5C
4B9B
15D4
140C
7F2C
5881
13B6
3FD7
43FC
6E93
311F
6A72
4094
5039
1076
5F32
455C
6217
25FE
14F1
7A97
5C73
40BB
BB5
7655
2E6B
30C
1C92
4266
5761
7B0
7471
2F4E
72
492E
7109
2E1A
7E87
5088
2E90
154E
1C92
27A3
18B5
5AAF
70F6
2B33
5E34
7539
35D0
2B78
4D9B
32E5
40FA
5B04
30B1
6467
7FFA
4420
7FAD
218F
2224
6E4C
4
4B8A
57C8
2EFF
2240
6D4B
78B1
3EF6
582D
467C
702
1D5B
7FA2
4EEF
796
D7E
194F
1183
138
1D4
6855
6C1A
61DA
66CB
CCC
566A
7B86
7F11
72DA
2340
39C1
519F
2C37
2DF8
56DD
4F96
6A97
63C6
36EF
1252
3C02
5266
70D2
32FE
72DF
7CBB
50B1
6C4E
5766
5207
64E
51E3
1BA7
6201
4077
7064
10C7
1C97
AB1
4CEA
1B45
584F
7F7A
57C7
4BAD
4757
1CA0
5557
539C
6C41
47AB
5F
46A2
52AE
601C
2781
292B
ABE
3573
53D0
7BFC
5EB7
435D
74AC
2BF4
3BD2
48
1D7D
1D20
6589
3CAD
4516
50FE
68F4
4C54
3330
2C6A
55C1
34E7
4B0A
4084
1B1A
4402
4C36
3D15
4D0B
3102
5BD8
3DF3
2D26
F98
3DC3
F66
73F
2CD
577D
2F68
3A27
3BE4
7FC5
4431
2736
5DB0
23E3
1489
3795
6E9D
5366
19DF
1CF5
5115
795
26AB
66B0
61E5
5EFF
4C5
7DE2
56D2
5520
5297
770C
4A53
13F6
1E7C
6C41
1A57
208
4D37
159D
17D9
5929
6618
3295
71C7
632D
488E
6202
6CFB
280F
7525
62AE
1C1F
5330
DCA
39FE
696
7A2D
48DD
7577
DBC
16CA
1F63
4CD
10A3
E75
3D8E
4831
7F73
737A
11C
6C4E
56D6
28F2
484A
25E1
66C4
3539
28B7
275A
4763
5DF9
F06
8A1
6B53
54A3
311A
6231
7DEE
65B3
3C4
62F8
2F64
486F
1739
4841
7522
68A5
5DFF
48A9
69E0
5D01
3951
E3C
3851
77F1
86C
1FA6
5850
5456
3C01
5FAD
5DBE
5646
503
36C1
64E0
75A9
1179
379F
43E5
7850
43B3
449B
363A
7FBE
3D5E
2966
557E
19CD
6041
2558
624A
6DB2
1A5A
A87
6DB4
C07
6228
39B2
3068
75E7
2F8A
2932
7068
4863
4CC8
5A2B
6ED2
1B
BC1
68FA
234C
47C9
5548
A24
1FF3
592F
287E
1DE7
8FC
3E01
2E9E
1D17
22DC
5DD1
3083
4C39
75D5
44F2
2BF4
72DA
34BC
62D9
4957
34A8
9F3
1525
EAE
3B0B
5A52
560C
73E1
5B65
3856
19E5
52AF
423
785A
C1D
3FF3
556A
796E
BB9
3F3C
130
BF3
7616
762
2282
37A2
7DDB
66FB
5846
7D2D
2CF2
798F
349
136B
42B9
4DEA
2B34
66E5
2634
1D75
25D0
56CF
7EAA
2944
594D
41BA
1E90
26FB
56E5
3049
795A
64C6
4030
3076
6267
6455
60A9
5297
5668
3D94
13F1
411C
31FC
6E66
769E
53A7
3C24
218B
3F96
CB6
6B12
6B48
1343
29A9
624
9B2
4563
111A
180C
2F09
34E5
3C0F
F24
724F
3A
1DF4
1ED9
2027
48E2
3BD8
3679
52A1
FA5
188E
550
2E1B
2FB6
3AEC
420C
26F7
3586
41E6
571D
86
7B82
7755
236D
2BC9
6313
532F
4BE6
65BB
49A9
8C5
191
7AC3
4247
79F0
E97
506
5340
38B6
6B06
306D
22BB
572D
79FD
39E2
7F84
606A
2C99
7346
4E99
74B9
4A6
3A31
2D3E
4045
926
3D89
3D59
66CD
B5E
34A5
1F3A
6B76
3126
581D
2006
2B57
72C7
4FF9
6150
6210
423D
4277
4138
5A2C
4D5B
39A8
2E9F
198B
7C21
2F0B
A77
119F
D84
3414
72C6
36FA
303B
5F94
1FCF
6135
61FD
8C1
321B
7814
205A
202
309
4884
4DFD
49AE
3829
5A6E
46E9
36CD
5F25
47F6
2616
5B2C
C54
7174
1C85
63A9
339E
5BE3
548B
2A25
4682
178
298C
27F7
514F
2F33
294D
3194
59B4
769F
1807
3830
2062
45FF
634B
4867
1A0E
38B1
171D
2EAA
1348
3239
4A0D
702F
3604
832
3DCA
5466
21D9
48A2
33CF
50B8
393F
4C11
252E
78B
5939
7945
FDC
680B
382
2DAC
3ABD
2870
3D64
2368
71D2
7C3D
684B
4783
110E
7812
6420
2A9D
29BE
152C
4550
64B5
293A
733B
44DB
67E1
7DCF
7814
2FC4
7B58
28FD
7F7C
6DAA
4BD8
59DC
7BDB
2C4A
4827
4D0D
6FB3
2FB5
21B
6450
1776
6B7B
491
1622
6CF0
17B3
7B8F
2422
560A
1F14
3C99
57DD
3BAE
33E1
1DA9
5C25
18BB
8FC
4D55
5F15
43C5
706D
396A
1639
5B2F
2CC
71D6
1E3D
6F91
616B
3901
24AA
4A06
6936
F64
F2
21DA
6FB2
7F3B
1938
1B64
6A9
32A1
110E
3647
7FEA
FFA
4844
4A3F
68A0
2B14
169E
2937
29B5
2DA1
3EE4
5517
5CF5
1B67
7307
4E6
369B
3F6A
4EF4
6ABE
5E6D
4F22
54C0
5D35
C7A
7CC
49AA
5235
5004
5F12
7CC0
6A45
1F24
7BBA
247B
479E
65E4
2AE0
4B7E
622A
2F2E
6
47F2
1F5D
5C70
3B44
799
67C5
2DD9
5946
16B7
7769
BDA
5A51
4A76
12BE
2258
42AF
1DE5
5081
5A43
6AA4
FB8
696B
18DE
6234
6770
3B93
7C2B
23C8
6CE8
32B4
3052
728B
5A27
2451
4B06
2F89
52C6
38BA
7152
270D
51FA
2B4C
7B0D
4BC2
5C3C
634F
3202
ED5
5E51
6651
5B1D
E3E
10C9
1C80
2F28
3495
5A20
2EF0
47E
7624
4647
4EF7
621D
1552
1AB5
79FE
244C
5BED
13FE
12DA
7F64
2D0A
780E
1124
73B8
6DD4
48E7
56EF
3EAC
55A7
70EE
730F
64D7
5FF8
3182
7841
32E1
19E8
2935
2295
57D7
3D2D
78A2
412
78A
306D
18EB
3988
79C4
1F23
633A
5689
292C
7177
4F12
29D
41E
2CF6
6B45
105D
72F7
5419
566D
2122
480F
6AD4
22
798C
2571
26F6
7D44
28EF
223B
2BCD
4554
7DE1
6B1A
1F70
40FC
734A
21CE
1BA3
4E06
550A
78A5
35A4
1D15
74E6
802
40F6
7286
6A8E
1C53
253F
4EC3
7939
663C
47AA
154B
2350
1029
1A14
4193
7517
2AA4
6D85
87E
15FE
727
361A
7BB3
38BA
7004
3F39
3B92
56AE
407E
507C
4E0A
3897
2BCE
61CC
21FD
1C41
539C
22FA
65D7
F18
5C8C
319D
45D5
1372
1821
14C3
646E
74FB
505
6300
15C3
AF
6509
7ED6
678A
1F68
7B77
3086
3DA6
778E
1BB5
3A22
67CD
55D8
5864
7CBD
74A5
4555
2BE0
4631
560E
41
4B38
82D
202C
3F1C
1B9C
42F7
5313
AD9
5F89
79E4
3BB7
443E
3A69
7A95
38F5
523A
5EE0
1DD8
1AB5
ED5
6AAA
7A31
3F1A
3143
3F48
15C3
2F13
4623
7E69
18A7
78BF
3058
2417
634F
1A28
7447
19E8
5D50
669
3550
19DB
4F96
7B62
41EB
5F86
1037
6AC6
5D74
8F7
3489
5D32
3B7A
58A5
1EF6
4E4
57FE
6937
289A
285C
65D5
F78
3C73
35A0
4A2C
5705
7371
1AC0
7797
4BE6
109B
5B07
13F6
8AA
2111
6F2B
2E30
66B9
39D9
5EB2
190B
2465
89C
5466
631A
6716
5115
3FD1
4142
24B2
3B8F
37E2
2844
3938
4F83
6E5
4F0D
18A7
55C4
689E
6F46
2F84
75C0
5755
4866
7D44
5302
4D63
2CDB
5179
367F
28D6
6C93
36E5
2BD
4FF0
6AFC
2790
59C9
44EC
36FE
3A7
2DB1
1964
28AF
8C8
72A8
254F
5A4F
4A49
3DB3
1228
7C38
7921
368C
619C
3B94
4662
64FE
226B
32A7
3E73
39D2
1950
149F
74CB
7766
9FA
6905
777A
6DBB
2DF9
4FD4
7A98
7F8
1A2D
31D2
2D0B
BEC
1387
5191
1FC
75F0
1CDD
3F00
20B8
CCD
32B2
F07
1FB0
437A
3F8B
4DFE
7694
3D0A
BA7
4619
43B
49E7
CE9
7669
6E70
36CF
5524
5576
1FF5
10C5
4E07
7468
97D
18C0
288E
2925
ABC
51C3
33FB
6A71
75A9
41A9
808
3241
59C0
B2C
7550
1AA1
2079
1457
3560
1123
19AF
35A8
2439
3DED
4427
378C
3AA7
4BC6
2FBB
4FD6
6335
530A
4E0A
5DFA
69A4
7A97
4FCB
378E
34F1
5C2A
7778
7A3D
935
1FC5
26AC
5195
3B51
DD7
165E
4385
7650
1A35
262A
6A5E
70BC
48D3
1748
7BAC
4456
25AE
289A
2910
45E9
2995
1775
6EC1
2587
309C
1D7E
3F6B
3B5E
782A
2BE
29CC
4F06
4784
3FDA
4CB3
2021
69B4
11F4
7AE0
6F6B
5FB4
785F
DEB
57E6
463D
1675
5946
6419
7645
3053
2FE7
58C5
652B
1F59
6C07
52A7
51FF
4F2A
3626
2B6
795E
5DCB
7AC6
7FC3
1A9D
1ADF
1173
23A0
65E8
3F30
386
3062
4D24
62D7
3675
AA0
64C8
2D4
57AA
6DA6
18B5
8D5
1C2B
28CB
1301
7BC6
5BC4
39CE
2A28
7AB2
13A6
1CE7
76D4
13D8
DB7
1B9D
1730
1B5D
31EA
6A1D
202C
AA8
5775
23FA
57B9
B9F
3A2D
5398
3308
63AE
3EB5
70BF
7371
1FC8
75F5
7DB9
5A0C
5FAE
2184
648
27C8
6FA4
17B3
652D
70A1
44D9
2BE
2146
1575
5BCA
4BC
534
5DCC
959
5BA8
303C
716D
7C84
12AE
62D2
7808
6503
F35
2553
3A69
437F
6552
1FB3
5688
3E43
386E
469B
4737
29EF
5C56
11D8
49C6
27EC
1368
2F5F
4AB8
1E3E
35B1
3FEE
6358
652C
6703
7EE2
164A
7AF6
9A5
6B15
7AC2
4F48
3C0D
425A
470
665
7AB3
14A4
2921
21FA
70E4
3C14
6998
3DE1
47DE
3270
68B1
7688
6849
1621
40D5
5700
5B40
7ADC
7CE6
4C05
20DD
6A59
750E
2D99
1A28
2FDB
4C24
2B09
1A01
5AB9
5863
EF
33F7
12B1
4782
215A
70C3
40A4
15B6
69C
7C66
4BDD
C0A
580A
5469
1BA4
7953
1EAE
3CB
18F4
4F0
2CF4
50E0
6465
1361
89
7923
47BC
3842
6C63
1204
413E
6469
655E
3155
1E2E
138B
6223
CE0
5F40
FC6
4310
4A8D
2CE7
256
2F14
342C
3B42
74D0
786D
6E78
7ABA
4156
4D98
697A
2323
2BC
2E1B
5396
3F04
73E4
C8B
4D60
2A64
39FC
75CD
6E09
6291
602E
4032
6516
2169
6C78
4B5C
A48
7BEF
60DE
43D1
126F
4F06
1F5A
1FC
221C
5FB0
7F4D
644C
685C
398C
2A4
F84
5E2A
5D2F
5C95
7E0E
4479
42A
19A3
40BE
67FD
1D4
ED6
3E3
1379
A42
1ABD
5BFE
7BAE
6B8C
979
A8C
36A7
1942
630A
169F
65CA
6EB7
452E
42F3
345C
610C
73AC
4A83
6CC2
C1B
560C
5E65
734D
2FA6
7F82
75FC
31A8
2F83
42BB
3C32
44C3
2892
5889
38BD
15D0
144C
3C78
51F8
399D
2E
4910
1E86
5C41
7C33
1967
46EB
3786
1D7A
53F5
6353
69B1
4DA7
668
3AFA
7B62
2882
2320
639C
5BB5
7295
631F
5DC6
5702
6C14
4BFB
485A
FC8
7705
120C
511
2858
49E4
278F
1FC3
B34
4040
1655
4B5D
D96
3CFA
3287
1B64
49A3
77E8
3237
763A
6AE9
2029
78B6
34E2
5BFF
5185
3FF2
6FD6
36E9
922
3D30
5815
6C1E
B05
2AC2
692C
5098
6D93
7EBA
5D62
5B53
5FA3
5CB5
1F09
1266
5577
391B
4775
5F31
63AB
77D
3298
37E2
40B2
3B08
234F
7E41
3335
69CA
59A9
7E0A
5055
3F8
78F9
2D35
122E
4772
5803
7E8C
70F2
7FDF
1BCF
7689
1DB8
1F93
3C34
2856
4CB3
256A
5FAF
4D6E
4F7F
4A0F
4A96
4778
E99
7E04
7159
271E
2BAB
2153
128B
1D46
79A6
2E67
1ABC
319C
B39
2191
3330
28E0
158E
512C
3588
3F39
62F8
3946
1713
4147
1577
6C86
3EEC
2161
4C13
4BE3
1DBB
1447
586C
7E20
53D3
6CFF
2FAF
52F6
263A
5950
2A84
3CEE
4BBC
1470
75CE
566D
25EA
471C
4EB2
729E
3531
4EDD
4537
5560
2B4E
7EB4
6B3E
262
5669
734B
151A
78A4
6A6C
7D80
137B
36ED
376A
301C
7316
1F94
79CF
5AB
1464
3BC9
449E
6947
13F2
6E51
73FF
5875
7C2F
1F38
42A5
427A
775F
2F51
45AB
4A22
11B5
11E4
4F40
1A7A
2555
39E6
781E
28A5
4242
522F
5559
1462
19A6
48B6
2817
76F0
13ED
3A0
6351
4341
E7D
5E55
5708
3E6B
1DD6
30B7
3927
2390
2F87
3F89
1A8A
4FD
4D18
81A
1BF5
70E7
9CF
7DF5
6086
6871
478A
24F9
49B1
BDC
6A04
41C
6900
EAD
2656
1D47
71E3
15D4
2B38
4350
6CBB
64D7
1227
3E4E
1852
690
185F
7824
72FB
1740
7375
42E1
158C
1C3B
4807
12DE
2D62
6973
787C
3537
FD1
2AE6
49D3
460D
5BF
3F81
3DF6
48EC
3154
7E65
3151
3457
277C
69CC
1B9C
69FD
4FC8
4AAC
7DB6
707E
918
2954
4FF6
6F52
488D
647A
3B03
92C
7E0
391F
2415
90D
3A85
20F8
7C8B
62EE
1F54
72A6
76A6
53AA
863
1B7E
3A88
2BB
50E7
3AF3
6443
53D3
6DBE
7087
4CB7
58B6
3A9B
7ECC
6722
36E7
1C65
604
4876
797F
6823
75C7
314D
29EE
562C
5D1C
692F
65DB
7882
7E58
204D
649C
32DA
1BB6
43CF
4CF
9FE
1F2C
1754
2433
53D0
5D57
4D3C
6D4
2CFF
7FF
4167
409
1490
4798
481F
4DCD
15C7
31C7
4D83
169D
6D3E
5DD
4772
32D3
36A4
4BA7
183E
779F
7014
3E8E
5738
546
5569
5ACF
75AE
79E1
106B
5089
3E17
1316
5729
31E8
4D2A
50D8
7C35
2EDF
5BB6
704
529E
483B
5348
123B
23D8
1BE7
348F
69ED
7591
7085
57B9
283D
6434
701E
5EB9
741C
F02
579F
4D7C
6FBB
9A
43F3
7412
2912
6683
387B
482A
26E1
1E72
365B
883
5FB8
4031
6FDF
3121
5D84
2F25
7B02
202D
4C79
4B1D
4DDD
44EB
3FD3
210C
2DD1
5E83
14BC
6826
2692
5A1C
61F9
56B3
74E5
546A
4CE1
442B
1854
1F33
EB5
60A5
98
4B71
4975
2944
4A92
6FD4
7915
F88
63BD
39FC
6164
1D35
4F89
4C19
681D
7984
29CD
3C36
59FE
1511
4419
2FE3
1A17
36B8
8DE
263D
36E9
7927
F2E
5543
4C13
5AAD
517E
382D
EED
24F3
5BFB
128B
7A0
265A
7188
357F
19E3
4AA4
4621
6CB6
3968
4BC2
7A60
150A
61C8
51B8
8F8
77E9
6FCF
2B0C
46F4
516
196A
1AA4
446F
67CA
5998
38AA
52E2
6A76
7563
7B57
4E97
40D3
4FFF
7A4B
49EA
2B6A
5CBE
7FDD
6D70
1CDA
2730
34E7
3589
2572
46FE
31CE
1D3C
580D
6023
7059
2F32
17C5
36C7
6A72
6FBC
7196
3E32
558C
344D
28C8
4D18
6FEE
1575
1FC3
789
6FAC
616B
BE0
7224
1AEF
5D5
4C79
35DD
211D
6E96
5C3F
2EED
2347
3B90
7986
6ADB
1632
27D
EB
21A0
7C34
5546
3676
5234
71AE
7593
5103
1597
2F5
25A1
449B
70E1
25BF
2C79
5FC3
7D0C
27B
50B
5D37
44C3
7AAE
6F85
4F42
42DF
357C
1134
35A9
62AD
36A8
A4B
1F3B
14E6
26B4
1610
1D7F
386A
2953
5F7C
2A7A
7A1F
5D49
192D
6EB8
10F2
7B9A
4918
5BD1
34C7
67B
5CFC
1C5A
125C
1BC4
727C
569B
949
797A
7C4B
56C7
7F04
2338
6320
45C7
27BB
397F
4C43
2C04
466D
6AF8
6AE2
786
43D6
35E0
4EE2
20FD
1301
42B5
3C88
17FD
44A0
3216
5695
65AC
7BAC
40D1
5E4D
6628
2416
1237
3311
28E3
4BBD
17B9
78E4
69A0
4E21
55AC
7532
2637
59BB
44C2
6CBA
5C9D
7F18
7E60
530
37F
83A
11B5
3DAB
238C
2860
5FFA
3F8
320D
42B7
4121
7334
24D9
3E7B
BBF
2933
7558
2285
47C7
1799
1188
4494
1500
2BA
134
41BE
66F
28CC
38FF
4121
126C
460F
7B76
5052
6C9F
512E
2DB6
6331
7567
5ACB
7FDF
277E
4014
414
3422
11FD
5AB1
4316
7C23
678
62B5
42F4
51EA
190F
717A
F45
3229
6500
3D0E
FA2
1F3
5CD8
504
3B2B
3A90
1C2
360F
3F5C
1034
5003
6E11
13C3
72D2
200A
16A1
7D51
4FE7
7CC5
5A01
5282
15AC
6E66
697A
64D4
7D50
27BC
6BEA
2E6A
6E2B
6E17
5577
5605
5667
43D5
2585
31C9
2ED4
49F4
5541
869
2C40
2F2E
1E1C
458E
6317
4688
40D
2C8
502E
236A
3F76
5F76
D68
71A7
5741
3505
5286
375
4A18
6E14
4D16
40ED
54C2
6A87
3221
F0A
3F1D
5076
1588
689F
50C2
5C1
10D4
E1D
69F3
3B45
5F81
7357
2AF2
7C01
5B1
5FC1
3D40
24AA
1B31
5B12
487B
5986
40F8
495E
3208
6BF2
542C
4737
2054
482D
152E
CBD
6C56
25D1
5B20
4FDF
5D3C
52A9
5F45
3B6B
58CF
1AFD
15D4
7E83
3B42
2F22
6BE
50C7
72E5
7952
18E8
64AD
5A2
3D3B
2CC4
3A04
1B28
6D02
64ED
7479
3575
2B4A
522B
21D3
79C2
1D66
103F
4287
33E2
7F31
5623
6D37
26A7
5901
1FDC
2474
4FB4
10E5
4E84
A8
64F8
823
7413
467F
1A9E
5F5
7D83
4ABD
52A5
4D50
746B
2225
47AF
7AE4
521A
4CA7
688E
63CE
A5A
A02
33CF
48FF
37FC
37FC
6008
305
1E68
792F
44CE
47FB
6666
5ACB
2809
5A0
2D97
6003
617A
1028
28D9
47F2
451D
7995
DD0
1F98
5900
533F
93D
2609
715F
18FC
7995
30F4
4E8F
5E1B
2F5
7600
723B
1C58
2DF5
CE9
2EEC
5E60
2CF2
1613
535
5A5E
1D4F
73EC
62B
761C
2B84
3EEA
73B8
A96
516C
6DC7
1563
274D
5FC3
6A8
6374
4FAA
45
2D58
29AF
328
5CBD
2A2C
5B76
57A1
231C
5E26
1F43
372C
42F6
7D44
F8D
165E
20B7
5F78
7D6F
4812
5C54
597A
3502
13CA
343
5D90
16FC
425F
19F0
1AB7
67AA
39B2
34AF
7386
24F5
1B06
5E7D
3EC2
7215
7E21
504C
627F
2A40
4847
3269
1CB0
1B31
7EF9
18A6
4FC9
23A1
22FE
6B1A
752
2C1
2DC7
47FC
4B13
2364
70C0
3B25
6C3A
3E47
7AD9
6451
302D
21A0
22FE
7D62
5538
156C
6B96
56FB
896
1C3D
752E
1788
700E
F5F
52E6
4F56
71AF
17F
2A
598C
68C0
100E
5573
4F3C
2ED1
B91
15CA
2026
3CEF
3CB4
527C
3EFE
7CF6
4966
4730
3C49
79F5
663F
7BBE
3B6A
1121
6FB3
1122
3DEC
4B38
CEF
1399
36DE
442D
6617
5C82
43BC
4015
50E
12E9
5D79
6343
71F7
70DF
5A05
577F
2B8C
5FB9
2D19
3768
593D
4090
2675
3675
7450
15B9
7450
13F4
262D
869
6006
1685
15C9
5A6E
4A28
687F
430F
2C6C
6946
A66
6FCF
113D
D1A
64BD
D5D
519D
6ACE
54A0
32CF
4E70
1792
7DC9
37C8
1C6B
26AB
7181
17D9
2F67
25E0
2B8C
C7A
6AF4
A9
3EA7
13AC
3CC9
2E4D
3BDF
65FE
57DD
3947
41D3
729A
5E0C
B3
7C89
5265
773A
2913
5EA3
1A85
76FC
5F
24C4
4086
5D80
62AD
2F00
1D1
5A72
5E42
5155
231A
264
6740
3C26
1412
25FB
446E
5C73
5B79
228
1A7D
748F
4C1F
56CA
32D1
788B
BD7
4CB2
77A0
26E6
7867
173D
22E2
7054
7139
178B
1216
853
2086
69A4
D12
4A7
2D64
1C60
5A29
3F0D
221
49EB
197F
214C
645F
17E9
4F94
7C3B
2075
2BD6
79A2
1B5F
18F6
6CD3
455A
DE6
3553
F5
4B23
7797
719B
7DDB
24F4
272
4FD1
2704
30E9
2BFF
15B9
4548
218B
307D
11F7
748B
3547
7A2C
6501
18B0
14A4
1250
4841
4113
37F5
7B4
7DF3
3F5A
682D
3F93
2B8F
654B
67F0
5F90
785F
6DDD
6FB8
1D2F
7FE1
5B86
4A7C
790F
13D9
4EDB
4C7B
79C3
15FE
7925
34C6
4ED3
1CB2
66B5
1396
290F
48F4
1B2C
631B
8DE
3C28
194A
490C
5758
40
3416
1CC
5883
5EAB
35F0
466C
60C5
731
1502
1521
785D
6B0F
2B40
3871
559A
4BB2
7C4A
1486
1692
5F2E
F0C
C26
439E
EAF
3052
54F4
6F1E
78E5
2A8F
895
53E3
3D2
F62
3889
D04
7F2F
47FE
3E34
F94
4DED
4049
5072
3AD6
24C3
3EBB
7872
7C6E
7F01
7A7D
21C8
AF5
2209
251A
1028
3D7
A13
53E2
28E9
5A27
EAA
5440
7A04
50D1
48F5
705C
DC8
1A84
3C70
7FEF
5F4F
65F7
26C7
4BF5
6583
6C2A
100C
6BF1
1F87
60EB
5CF2
7DCB
7CE6
19D9
3C4
5114
7C72
BD2
5B4F
3281
1809
1318
70F6
790B
77C4
395B
4B74
488F
11D1
7F2D
635F
74B1
686B
53D9
3E3
5D4F
2563
21B3
7877
78E9
7596
89B
32BF
697D
151A
542D
2AE7
5C5C
206C
4791
4A3
1590
402B
2277
4617
7FE3
44E3
86B
7E26
5EEA
4D9E
360C
751
633C
4CD
62A0
470B
5C4A
5E3B
167E
2192
5336
7C40
1BAC
2BD6
3295
7688
43BF
AE2
4419
258E
54D7
710E
3465
3455
13F9
72A7
41A9
788D
74D3
4F6A
630E
1374
72FE
2944
4059
7A75
111A
7119
2195
2E52
4A37
D06
2699
4671
7AEF
2748
715B
2D2C
66EA
693C
3208
3086
1D1E
B4E
619C
6038
2864
3058
1FAD
2BB0
6E24
3D70
5B26
1B99
328D
508D
41D3
747F
364A
3D49
E33
6CA4
5DE1
380F
44C1
4151
28C2
4D15
640A
4CFA
CB0
22D9
4FE5
2BC6
44C7
15EB
3263
566E
3820
42F6
723F
1BDB
4AA2
6F84
1FF6
34AE
7FAA
7FA6
581D
43BB
6311
2EB0
492B
3347
55C3
62E5
2276
2604
2AC8
43E6
7CE1
7E8B
3FD2
6CAF
7840
157F
D1B
1887
22C7
765F
4006
56DB
59AA
737E
19F7
337
1AAD
2833
1A9E
1EB6
40D1
C42
1958
6F81
5E86
6FE0
2E04
76BB
465E
1BFB
405E
122E
4F6
1F5D
5BF6
5E0A
4B71
5E38
6824
908
6619
6F68
5D01
55C1
7CCE
51A4
1BBB
150C
3884
6070
4E4E
190B
68DC
12EF
628E
4BFC
5431
627F
77B0
4F68
4C09
1C9A
5F70
214C
4223
596C
5DFE
4596
2F7F
2C19
6EC8
6F07
3B3
7630
A6C
33BD
35B0
5349
A9F
70B3
1E7A
500C
203A
5C12
2A7F
5026
604D
21CA
305A
57CA
52EB
5CA4
3586
4AD7
E99
3383
3D58
1BD9
E28
794F
5E0E
502C
855
40B4
136
31E3
2192
3D7
2135
5EB0
7D1B
4547
21D6
5E38
7FC9
46E1
319C
4D9F
7309
EC1
7283
2807
61EB
21D1
34D8
3C35
46A1
3884
77F3
7F29
2A40
5D60
7A57
110B
879
3AD4
2213
5EDB
581F
7E9E
37AE
254A
6164
4347
49B3
6FFA
45FC
53D3
770B
559A
1A25
3EAD
485D
24B6
5496
4423
4BAB
15FA
6926
286D
408C
50FA
54EB
6DC
2C9D
2F87
228E
260
3697
3BF1
379A
5DA2
7FCA
4945
56C2
2D7E
1F47
9F7
7978
3C06
2A07
45AA
68B5
3B30
721B
5688
25BB
5684
2ECB
7B07
F24
6637
6707
3589
2F57
4CCE
2D11
37F7
248B
80
3799
3CEA
3C4B
3387
1A7C
EBE
2C38
50F8
137F
78C2
2F3
4944
5B95
32C7
120C
329B
4374
6363
2458
9AC
5AD5
371B
3600
640A
6034
44B0
1F1D
1766
2C91
63D
5498
59F4
7503
1928
1228
4A6D
537A
3974
18A7
2967
4B4B
2E69
713B
503
6774
161C
2BAC
793F
6354
4659
6B11
6122
3A47
4AB9
19C2
5723
D20
2357
4AF0
7FDA
4F9C
2E59
63C6
3197
29A3
28F1
3E0F
62A4
608B
1C83
5254
5B1E
2B1F
5A9
7746
371F
50
21E8
38C0
540B
5837
1F88
5EE5
2C71
124E
557E
561C
28C4
3276
20D2
1EB3
4903
5DF
455C
44D7
7A23
2170
6ADC
57AA
762F
2E65
10E2
54A3
2E8D
109A
BE2
66D5
3EAF
2648
B38
870
70A3
2A46
7705
CBC
70D2
45D0
11E0
6A22
34F
5FF7
5868
4A88
773F
6BFC
6B7
F83
2B7C
7B8F
5334
76D0
399
78B2
3293
6D56
2537
1489
40E2
2483
679F
4BAD
4A8F
4D40
3C6
6E86
7C05
6C15
70FB
7E7B
D4B
2970
7E01
7BC2
6FD1
268D
1F0F
11B3
2145
3A68
19FA
239E
60C0
1E98
1A8F
63C0
432A
39BD
4EA9
161B
5353
7DC
7193
1A6B
40C2
7F17
AED
1D45
45BD
1621
2B18
68
66E6
459F
380E
1F72
57B4
614F
D17
7AC7
465B
3C11
435F
3CC1
5387
1034
F68
359A
685E
4B10
73F1
4A26
76FD
1A72
565E
3FCF
46C5
7DC7
6DE9
7DC3
3F48
2A97
2F69
49D0
6E09
6466
839
45AC
5EF6
4F9C
78D1
2EEF
572F
1EC4
552D
244F
246F
7F5C
42E2
4546
2A99
1A39
184
63EA
4E36
4DDA
13CA
3056
5885
5DD0
576B
12A4
34F
3F50
4D92
3ECC
5343
32FB
271E
F5A
350F
57FE
5B38
4F2A
4FCF
375B
50FE
4B2A
68CA
1B4A
5CE
759E
584
1340
1C5E
4203
74E
6849
5352
438C
2FF3
5B1D
123A
4761
5529
4975
42A4
5230
53AA
1509
F0E
2FB4
3D2D
7210
28E6
4D7A
5A30
2F81
2C67
5581
5343
6AD2
B8E
44C5
1BE5
3536
632D
3F5F
14D5
48F7
36B0
1AC2
759F
4473
6A39
1754
3175
2E0A
6730
2FCA
5080
600E
6ED8
40B0
6C85
6989
78F7
2F11
702C
5C40
B41
6C49
28D5
6640
16DF
6D85
66A8
710D
42E1
12DF
4F2F
2215
3A36
30F7
10D2
56BC
5A78
1C67
3DB1
3335
6AD5
240E
55C1
3B1F
5813
67CC
1E22
1022
6A12
5C9B
3115
5E40
4E6E
1CAF
F17
7640
58FF
7E25
1627
773D
4BD8
30F6
2767
7680
6FB1
2ACF
50A6
5F82
4D5F
3473
5BAC
4A49
2FF4
37B5
32CC
7CA4
4E49
38D1
BB1
67B9
4A80
C37
6D43
4E31
4153
617A
67C1
7196
418C
4928
23D7
6F04
3956
2D41
153F
2FBF
345A
B2A
6066
546
42E4
1F8F
42D
7533
1FF1
3CC2
5539
7554
48F9
2A6E
3B57
2294
440B
5499
639F
3D3C
5188
32A3
6B45
17FF
29EF
6E5B
4D19
21FB
21D7
75DC
3D7E
7A9D
433C
6E2B
2725
41B0
3931
82
5FD6
234C
3E43
15D6
6E2C
3C4D
627F
1ABD
5A01
7CE
7D2C
32D2
4984
4C9
6E73
A1E
1A58
45C9
675
26FC
2BE0
4826
1E24
36A
B8A
5107
2D38
1702
2F0E
385D
5F01
35B8
1DE9
2326
3B94
4796
1C4C
1D9F
72F0
7190
5C40
77B0
5B51
6BFD
53F7
267F
2505
6B8B
300
3878
14C6
37E5
48CE
6141
2454
85D
BF9
5A9E
24CC
7250
4A5A
7F63
3323
36B5
BF2
78A5
625C
56BC
4215
440E
54D4
F17
127D
5DFA
3867
3C0A
5A76
25D8
21A5
36C4
4D70
77E3
64E1
195E
1D68
2593
2002
4DD9
6B88
2B0B
7AB3
144D
55D2
91A
2BD9
1B2D
306C
7C90
5B76
41F5
6503
3068
5F55
672F
313E
77FC
56E2
76A1
47F4
6EDC
1A0A
27A8
28F9
4835
4FE4
E52
6147
18FE
1B5A
1E32
65C4
5602
7917
462F
677B
CF5
660D
2373
3320
567B
3B4A
174
7727
6486
3D62
6500
45C1
2C6F
FA9
76DA
7F0D
129
F4C
11ED
37C0
548F
56D9
1746
38C9
7C45
3499
379F
7CF9
43FC
6DED
4999
4FC
11E
D51
209D
725A
795F
79D0
1042
71EC
2832
3C89
5F63
2672
1D32
3DB6
287
573
1C0B
19BF
625B
42B
1AC9
5612
1C16
2F3B
10DD
3331
2F54
2DD7
5064
4F84
3CEF
3904
6407
2F78
23B3
63D2
247D
7849
6962
56F3
4B30
69A2
3E77
F38
DBB
8D0
57E9
12DB
23BF
2652
158B
33D1
20FF
5EE7
1BD4
6A49
71A
3FC1
7349
11E8
15CF
38B
6D01
3458
6C80
7758
71A5
2F02
E2C
2F6
93A
5BA3
505A
60BD
3D14
1426
3730
37B6
67A4
48DB
1C20
71A2
1757
5BDD
1DAB
3E6
6C6D
38AA
6AA1
427
5114
7708
26B0
1930
5EFA
7863
7047
6C62
43A1
5F26
6D4F
3AAD
4BDF
A37
3AB7
6AC0
D25
341D
7A2D
6B8F
5BF2
590E
7820
6A18
55CE
1104
12A4
4943
781B
6B02
4A14
1638
2813
17BB
76B
6E4E
3898
41D9
6C3B
4A6D
7729
1208
2A
16BD
52FD
5A96
58D3
55AE
310A
15CA
7AC6
3C69
4A2C
68F2
13CE
449E
7807
587F
4435
106
24CF
323A
33B2
FD0
F50
6E42
7F8
18DE
4E13
6AB4
4CCC
7AE6
4ED
1FDD
5736
2F3F
3043
7DD
4C0E
688F
24D2
2E89
3075
516B
4C8
6867
148D
168B
521B
320B
555F
1791
74E0
7322
27FB
872
2E50
67B6
585E
7B87
102D
1EB
1BF3
7D88
1DD7
FCC
3BBE
37C
58D0
3B97
7E7E
5CD8
7947
72C4
46B9
4BBE
6F8B
E27
674A
2CC8
16AC
3EA4
3AB8
7E89
35CC
5BE9
7828
50C0
5F69
4308
4809
6541
33B9
4FFF
782F
6697
65F3
6464
F40
4D04
36F8
105B
5EE6
602D
448B
1268
2257
384C
2C26
2C0C
55AC
139A
40AE
5393
252E
7A73
6A39
605F
2D49
158D
E4
66DA
200C
64A3
63D4
54CB
1806
7D8B
360
6EA
27E9
2001
21C5
2492
712B
5DA0
77F8
7217
2044
7501
6326
