3FC5
47E0
6A5D
765D
1FA4
13D4
1276
64E4
6741
6A17
5329
7415
47C4
4EBA
1434
62EA
290F
E4E
25B7
2F77
1954
56AA
69B0
2765
39F9
7A19
7AC9
409E
4B3A
72A1
680B
1FE0
2934
14B7
570
3641
2C49
50E5
64AF
42B1
30AD
2A54
1DE9
2233
7125
32A
5C64
737F
3623
2308
4EC3
3827
6DF
5F41
AC
3D5B
6DEC
4BDE
2429
61A9
369A
58EE
F8
1E74
1045
3BB7
2EE2
5BBF
2715
236F
214D
7AB5
5E4A
529D
3D
55D6
178A
5741
4973
16EA
3580
5B49
180A
180C
330F
4D12
58EF
4684
64E
6C33
3EE0
3B34
4B26
74D0
3901
51BE
62A4
7F5B
643
6E23
2D76
2BDC
516F
5601
6750
F5E
1A0A
13E2
5823
787D
15BA
19C8
6A1F
F26
23D6
4A4D
1B36
61
404B
488
7750
28DC
2680
7583
171
3095
5A87
2C46
485D
65F7
5EC8
5C87
1486
38BD
5C99
679
911
2B9
25C7
5158
75B
426E
7880
2813
7CD8
217E
41A0
3391
5588
73EF
5144
704A
862
2AFA
319E
5C9D
4504
6084
2EE0
301E
5859
3306
653D
292B
692D
1D90
21FB
6BF
553F
3468
6E59
6355
3EEA
7604
7A21
4A89
5B4D
402F
2F2E
718B
34E
7B6F
4B41
56A9
45B
2BD5
1760
6CB6
21F9
2146
7CC3
38B2
2DD9
5B07
25F5
5ED6
5B26
7DA4
2AC
66B7
4B2
4977
3F21
5969
7AE1
1A59
54DF
E61
1F6E
14AA
4E8E
16EF
4392
168F
5C93
4249
3D91
30B4
1A94
192D
DD7
20AD
2E62
6E0E
1B87
B44
1145
1940
49D5
3483
B01
4D2B
31A7
4C09
4B38
69B5
6434
5269
535E
95E
7B4B
67AD
318C
55DC
27D2
4E2
529B
196A
2768
6CB0
9B7
3420
183
5409
60B8
21A1
A8
7969
428F
6343
3804
6389
724B
36FF
1E61
6BA7
2CF3
7C2D
13FF
6A1B
18B4
3C7A
6ECF
55C1
2517
4E2F
5578
480D
54F6
42F4
4F3
75AD
69F9
7C5
2787
14E
4C8F
E0A
6ACE
3365
3A4C
5F5D
4BFA
51B9
57D9
5922
5DF7
369D
2092
6F30
292A
3627
1C68
526F
4BD8
3F57
1D12
5894
2CB8
CCE
7A2A
BC0
5320
50B4
2BCA
568F
60F1
2818
62D5
4B1A
7C19
74A
7785
E77
6E0B
1DAB
2D4D
288C
56ED
2A7C
784B
67A9
7837
46FC
76D0
49EC
76E7
15C8
571A
1C0C
7830
2BDE
2F26
5543
146D
2828
1AB4
70F1
1096
40EB
2AC4
706A
8EB
1478
5D8
58B9
56EB
1C68
7E6B
4559
2E82
454F
3A65
2A71
334E
5021
3CD
1745
726E
29E5
595
5CC3
1BC9
E1C
57FD
7AA0
1EFD
5446
5D40
EA0
6922
20FC
757D
1998
58D0
1A2F
43E1
47A5
6BEE
1883
3B71
5205
4751
7D7E
1F5B
4802
1B69
68F9
C44
51C6
11E2
5C26
7800
4B51
79E
7D78
501C
7427
5C40
263C
531D
964
7134
7A31
43B1
13C4
5DFA
368F
7652
299D
60FD
394E
7740
71B9
2BB0
28E4
79A4
3046
3F6F
6761
42B3
69F
317D
7C9C
7DFE
70FD
3F63
1010
7518
2ADD
729D
4B32
71C6
2328
53E3
44C0
6D6A
66F3
4064
2918
7E00
6F1B
7ECF
50DD
328B
536E
193C
1C45
686B
493D
57F8
3C2F
64C8
57E
6D9
430D
1071
2049
64FF
20E9
3112
2F3E
5947
27AC
6363
52BA
4990
7AE4
AC4
CDA
696B
7C2E
55B5
5134
1E51
3863
4D43
D3B
7BAD
4484
7DAB
4D7D
4A69
4D1A
3F
4521
66DE
1327
2BF4
22F6
1164
640
1D65
5834
3458
6A53
4EDD
70A9
5A65
5E19
6A49
43D4
3037
7491
5D26
4644
4B09
5816
6B81
4FC7
43AE
72A0
2A09
10A3
5850
4133
437
19A3
69CC
DB2
1090
2AF1
2FAE
205
541E
2B9A
57BF
35A8
3345
4322
36E4
504F
3542
1C91
48C7
497
37DF
ABC
4716
4A12
5D07
7D33
55FC
5147
1D7
30B2
7D42
179A
65A7
6A99
5605
48E3
2A0B
1AF1
72B8
1B34
7754
103E
5FFB
5D97
54D4
333F
DDC
6BBF
D01
14F8
4BB8
42F1
2003
62C7
3AD6
5BAC
F3
57C2
4672
2665
7507
700D
6A9E
4002
3ED3
7090
65CD
713D
1FEB
67D8
7229
455E
3143
4F09
4B34
4F3F
5C89
6846
7C80
665
3DFF
5E2F
78CB
322F
436F
6530
C81
147D
2705
643C
2832
16FA
2E1F
1938
14F5
7149
397B
79E
6A0B
7693
6D85
2978
6D4A
3707
5342
667C
7804
42A8
6F75
761F
1A62
2ADB
2C6F
7EEB
1528
40F3
419C
4EFE
50C4
46
39DC
680D
4A6E
1858
7703
AB3
7407
67B8
36EE
3A57
31C5
6AF6
139A
6825
4585
7D90
74F0
536A
38B7
6FEF
4316
63E
38EE
3C12
3AF
340D
1A70
15D3
5533
CF6
32C9
378B
6FAD
7E95
7EFA
1767
5B7
7943
6297
47CD
54D2
6AFD
7956
2811
17D8
1C00
1A76
5D87
6AF
573E
32D3
122A
62ED
2E90
2B95
1D20
1AEC
54D4
3E48
3AA8
10FC
5C97
257
4AAF
48ED
6841
1F88
6D1F
4E5F
6679
1B63
34B
12F
28D3
30BC
760A
449
7AF0
4A44
3D4E
374E
3F7
5B99
1B67
7C37
5B6C
B5D
BA9
4782
5439
7103
7115
3138
107A
509E
4435
E1C
4870
7EFF
3842
6741
3AF1
4375
7C0A
3BD0
4BBB
1979
1893
57F8
70D
3065
7A0D
4584
740B
6BD3
3DB8
7B5D
3C3C
C8B
2ABD
355
126E
71B1
47B9
3E02
6281
6451
2BF8
1F4B
84F
44AA
294F
2A06
6CD
73AC
7CBF
B4C
1BCE
6CBE
EC0
6860
470F
2EF2
5CC3
16DF
6368
1C9
ACF
3ABD
1791
7CF
4ECC
623B
20C4
3559
5A61
3F63
249E
6784
59D0
18D2
5466
AD0
59C6
5D36
424C
2E0E
6834
2A17
565C
5FEC
3490
1288
5DAF
3ADB
721E
686E
6F4A
689D
273F
FE3
2FC9
4731
EB6
955
5E7B
3BA3
23B8
1889
7B2B
5DD1
7849
44F9
232F
6910
1C86
1BF2
5C50
2BAB
727E
52A
50E8
2A97
3C61
5514
515
2065
22E9
5C2C
5F8F
4B63
37FD
615A
244E
2B15
6760
6A2D
36C0
26C3
16A8
6D83
116A
44CC
54F2
705D
713
67D5
4DEF
7377
94C
1D4E
4960
7E0A
312
4988
3D06
6A0E
47F0
501
7E17
2F3
1C9
7CE4
DBB
3969
63DE
1F9B
47D0
B75
5AD3
2B03
B2F
6A6B
B6D
191
1D34
659C
7075
C2
6D13
FA0
38E0
2AAD
3C13
1C2C
5BE
5858
24B6
35E3
121F
1088
1FFA
3EBB
5118
4815
A
3BCD
259F
41D6
2CEA
34C6
65E6
370D
5D37
3BCA
4A03
6E74
DEA
7924
1D96
4CC1
7113
45F3
5215
7D1F
1449
38DD
7E77
7DF
4FE4
6023
7044
63D4
2B9B
114C
67BF
12ED
4F0C
7BE7
4916
37E
3123
3A4B
7BE5
3258
14FA
4877
20A0
F90
3E47
69A2
1EEC
48EC
1D3C
3025
3241
3666
27D6
6C8
10DA
60B7
618
6EF3
3D35
2253
C2E
2957
135A
4F65
5715
625
55A7
57B9
42C3
2784
FB2
6386
26A1
3205
294A
120D
6247
5584
36CF
74EE
5214
7539
5A59
637B
76E4
77AD
A7F
693E
45F4
1FDC
6E59
2BBE
51C5
6930
78E7
13F3
5F50
1BFD
2897
33E3
49E8
721B
6FD4
3D1D
3DE8
76BE
305B
2AD9
67A7
5A4C
4D7
68EB
3150
453D
7A61
6821
20EF
46BA
6A3
5DF
7337
2A9F
358E
53F2
27EC
1F6B
38CC
67CE
6030
174B
104
36D9
1437
3D51
2DFD
742E
375E
48B6
36A5
2283
523B
55E6
6803
554D
2EF6
DE3
1D3
40A5
1B95
4AE
47C3
44DD
6C2F
8AE
53F9
4714
398
1D82
793A
14B1
17A4
DA7
3C20
7DFF
5637
A95
213E
4FDD
1380
7A4B
7A46
731
64E9
31ED
44B2
1F68
1C78
56CD
3341
1977
2B2B
36AF
7356
3AD5
637D
79D3
50ED
7068
28E0
2047
3EDB
5571
6479
370B
6956
914
F17
7940
5D7
3953
3345
46EB
216B
338D
4357
3A26
58D3
C4A
4A95
7418
71DF
70AD
732E
1FED
235D
4A96
6785
36B0
2560
4BE7
2DB5
F3E
50DA
150B
2B06
16F6
857
3A9B
7890
50CA
4EDE
C16
7501
5FA1
6483
1ECC
A3D
3F39
720D
696B
2330
3080
20D5
69EA
C25
6F7D
5DF1
608E
4B97
744A
435D
4B1E
5BF8
3E6F
245D
355B
5583
419D
73F7
2F4E
1DD6
BBF
3429
52D3
6B65
17F3
12DA
36F0
4A09
490B
5F58
3541
13BC
24D3
86C
7A88
5837
4BA1
7E7D
12DF
2BF2
6518
3517
15E0
5491
6571
31B
4DBF
48FE
209C
65AE
5B
2F56
3DA1
255
77F5
48E2
2B73
452E
6FA6
36CC
7B76
50FB
2849
3C91
6B15
C8F
E00
1893
644C
4984
1DAB
72AE
1F78
7B73
7B30
7908
20C
5EDA
2A92
1AD6
5390
6FAF
19B0
498
3D88
797
2301
5CF7
2BB4
DA7
5C7A
1D7A
3F5B
4DE1
30D7
7730
381A
2D7D
A10
1557
23DC
69E9
609D
4A35
4993
19BE
5705
3C6
3FE1
187E
451C
7023
5A3B
599D
FF6
1DCC
5BA2
22F2
2D71
164
89E
30EA
64BC
17FC
1A34
2194
4CFF
701C
147F
5A2D
4952
72D3
765
2CB7
45C5
323C
7DA
26A7
1BAD
5224
3BBE
D7
5496
789B
79EE
31A1
19D4
63A4
4F2F
3B9C
760D
4C0A
6B05
2B9B
E87
3BA8
6804
84A
1BDB
37BE
17B4
1A81
7208
56D4
2F62
2EB0
3C7E
4878
7E93
10A6
7547
6F9C
7933
124A
24D6
6CEC
7CE9
32B4
4567
7662
3841
17C8
3CDE
18B2
6B4C
4FA9
BDC
76AA
6579
29EE
2FF
33FD
58E9
5588
4605
5981
6BF6
46F
604D
60DF
10AE
440
72ED
484D
694E
2804
32C7
194C
6655
1F00
380B
3EF6
27BB
69D6
5FE3
52D1
3EF3
5109
2BF4
3106
583A
10B3
4C04
323C
75BF
4D45
1E20
75A9
3CFF
4AC2
7289
4451
5B44
39E7
6D88
278D
1783
1F2C
102F
C06
2616
63DA
5B8C
6E71
5206
60B4
194A
6A4C
61A0
67C9
1FD5
7937
79AB
3B5A
7BD1
4723
7B57
1DAA
1C40
4E45
1198
7D47
7CD2
6305
6A28
78C6
42D8
B6B
5022
2A36
366F
2DD
8AD
41A0
5F80
4ADA
3C0C
29A7
79D1
1BD3
761C
5EEF
5F34
5A73
71C3
704C
372C
493F
90A
5493
26B9
53B6
3D7
2B5D
7D71
D36
30FD
50B8
5380
56EE
F9D
5D24
386B
B1F
653C
4111
59A1
7060
5A9
6295
2810
1C0A
3866
1B14
3667
4DB3
986
4FCD
60CD
B1B
3599
1DFA
3981
68F0
27E8
7D39
B4E
2C7C
53B4
616E
537F
6C11
6C47
3CFB
76D5
7ADB
2473
11E8
58F4
6712
12AB
2F65
1819
4AD5
6DAB
B15
5FB9
7892
44D4
2882
572E
4A10
5D9B
4DA8
38C0
51CE
375
7669
421
4AC6
41A6
7748
D07
2AF1
3E69
25CF
1D14
1501
58B2
66AA
4427
44B4
65CD
497B
4C18
32E8
27C9
55C4
F9E
6733
EB
1FFA
F77
1B2E
2C9E
2012
63A8
2F43
1AE6
75A
F91
375C
141B
428E
30C7
1C67
5EB
41B9
7792
3438
5E3
4904
1BB8
3725
681
132E
5002
5866
2939
7C60
7F7C
35F8
5EB8
260D
B82
368F
7ABA
61BC
567E
16C2
7710
F3
17BA
5B42
42ED
4D87
10F
5A3B
38BE
34EA
69AC
1400
6BC0
871
5F2B
2B32
4FF
423D
2E69
2EE1
3B4F
3807
71D2
34E2
15B6
7D20
15F4
800
4DF9
E64
76B2
593D
6E6B
4D3A
C6
34A2
4F38
74D7
7E08
5F8E
34F8
7CB0
73E0
4027
22CE
6B83
42E
6D4A
4908
B7A
46EB
A3D
109
7954
2400
6535
2087
1429
652B
500D
6391
A20
1D20
5FBB
73C2
6767
40F4
C7C
31E7
512E
2A4E
76E9
4423
5C9D
EB6
6803
187B
4D8F
7603
1576
3A4D
33A2
73FC
2547
143B
50AD
97B
3445
5389
4E27
CE2
1027
752C
73AE
304A
2E21
6DC8
3106
3282
3D76
5025
71C8
29DC
2799
3CE0
7304
1373
6863
787A
37A3
1400
3946
7C9A
2197
7C46
485C
67F2
4D47
3D4A
D1B
387D
7D79
9E1
419D
2395
7504
D6E
C3C
64A2
58D2
27D0
14B4
3DE1
5618
6012
134E
5D52
2D75
6204
5D7A
138F
1EBC
1712
F72
3D45
1D84
3F0E
2B9C
67A
5A6D
29E9
72C4
51E7
6225
762E
76E4
66F0
4B92
7798
17EE
54F
10D5
7DE3
7BCE
6D6F
77CE
62F1
5910
5423
3919
1C6B
5A8E
4DE5
66E5
FB7
44AD
29A
698D
2FA8
46D4
395A
4AA3
2740
1AC1
168
7CB6
57A5
6458
59E6
3731
66CC
35F1
34D7
7ECD
53F4
1BDA
34C9
748D
5B4E
33F3
1AC8
672C
4A11
40B6
19E0
3AC9
190A
5063
438D
45
614D
1EC6
50B9
4D18
6B9C
4A0E
6828
3817
53B0
1189
3C97
3ECC
7AA0
6988
36DC
1E09
207F
19BF
5C3C
79A9
62C3
402B
29C1
1D3
9F5
219
1852
6AF1
E77
6B8
5CDD
532F
638F
1E2A
38E7
103F
7AB4
34EF
28C6
3291
1318
258B
3A00
55E8
6C88
3096
4672
2AE0
2B47
2F9C
5BE5
4764
1194
7B6E
2040
58A7
6A1
1340
172F
7306
1E39
4C0B
82C
4489
3931
4800
7BFF
3FA7
48B0
215F
4E1B
7D35
1A0
266B
2C35
F8
36F1
630A
5E60
59BB
EEC
2D5
2A19
1536
3834
5B4E
694A
23A
488F
709A
94E
509B
5010
4D71
3DB4
26BE
153
611F
5D2B
21FB
1931
2DEC
2169
51C1
5C2B
7A6F
4C97
3B0A
7A67
480E
3CA7
1E2
627A
2C50
6499
5AD3
58B5
71A7
276E
32F7
1719
1B1B
41E7
4780
2004
1A19
5AB1
7A7D
167F
3324
B3
97F
7F9
4BC7
5D7B
9C4
7B05
656
3E06
7BDB
B
507
14F1
6F4F
35DC
7879
78CD
60EC
2555
710E
6C6C
5862
7E88
460C
2E92
239
FB8
7DB7
5C09
4748
25EC
927
7814
644F
35B4
76C7
30A5
26BB
3D2C
32AE
523
5499
26D2
708A
72AD
6545
13E
7FD7
1159
6A84
540F
22C1
243
29CF
7913
7162
315C
6AD5
3406
384D
43E5
276F
EFA
66E1
2075
45DA
4401
3649
737
DAF
162C
74AB
769F
CD9
43D6
6257
5DAC
3BF8
555D
D4F
6704
63E
19DC
3CBC
76FD
6E95
5BE8
7E4
5ECA
C18
2F75
225F
735
743E
F18
588B
64C
3AAA
41C7
2487
7BF8
5B7F
3AF9
5109
2F3A
7BC2
1E25
805
741
5D9C
2512
5A7E
239D
25EE
411D
54EB
7F89
5A5E
70FC
6A71
130F
1BE7
5B7D
6DF2
20AC
63A7
419
1F9F
D62
71F6
512E
DEC
6261
680
639A
251A
E2F
7537
125D
8AB
302C
6FD7
207
595B
3DF4
2C9F
1837
4732
6E7D
5EE9
3884
3307
52DD
24C7
40A0
1347
6FD9
67D
151A
6E71
4C7C
1DA1
28AD
72AC
5B02
50F8
5F40
6A98
B58
1718
137F
7CCE
101C
1DEB
32F6
2339
59C3
4A88
4E06
55CC
674C
4BA7
7804
7214
16A8
30CF
235E
E77
253D
74D8
16DD
75A4
6CE
5A3
5F4C
1597
4D2C
5159
74A0
41AD
1C87
2B9A
EBE
4165
394A
4A14
7B9C
19AF
676E
43B9
1797
95D
7448
1B49
132E
28DA
11A1
2895
40F2
39CF
3A14
5E6E
6D22
5684
CA3
5756
9A
2397
115B
4D26
EED
3A0B
3DBC
2492
4E9D
1F7C
2C82
56DC
188C
1FAA
6C7D
5BB
28DA
1CEE
6061
4D5E
17DF
2C90
5735
2B2F
3388
3A61
18EA
3641
7D3E
61C8
1914
2B74
2737
9CD
1B82
5DA4
64D4
443A
2CC2
654
4807
1E01
60F5
36E0
68F4
39E6
2DE3
B42
7BFF
D77
2507
3C01
53AE
7D8F
7C51
5ED9
67DB
D9F
4993
1085
5129
174F
7E51
4236
2AAC
5142
11EC
56A7
5FCB
1C8C
408A
29CC
7D7B
7F06
4CD3
6FC7
51E8
7751
4ACC
1742
8DC
14E2
3D46
3452
7F7B
78DF
29B0
771A
61E2
2355
1D2A
7B22
933
4B0C
7C0D
5060
4F5A
6152
7D8E
1B3B
175D
67F2
47DF
51A1
4EE5
2E63
2F93
47A6
4DC7
243F
3565
2E01
3BAE
4D2
65DA
2066
220B
67E1
4FD5
7364
C78
37CD
1B2D
4AB4
554B
1EE1
5FF8
56E7
4CB6
55
268B
2160
1C7F
5014
41F7
1EF3
30A6
F34
66A0
669
40E
430D
3C9D
50F5
7BA8
3A1D
10F2
7CCE
695A
218E
1A7B
725F
1B1C
2AAF
7E99
3151
51C3
20AE
45B2
5E18
22AD
5743
20D8
7762
423D
1481
6DA6
3985
3E59
55A6
2EFD
32B3
28A1
3A0A
198C
763D
56A1
2C00
79B5
6D03
40DA
1C67
3698
563C
4459
34E6
1F20
D5D
7458
3F74
3CB2
15C8
4322
1C67
2634
7A6C
7AE8
AEB
26AB
1FC
22CF
79AC
4DB7
2F2E
1CD0
54E1
5716
5968
A27
3501
1BFE
20B8
166F
1DB7
7630
1A35
1ECB
442C
62EE
65C1
2A35
44AB
88D
3BA9
57D3
45D2
426
75BA
69E3
4EC4
1BFF
1034
68F2
16B1
47B1
704E
4DB4
3FE6
7D8E
6522
3D44
3F88
7125
1608
43E8
1398
6089
5803
53E2
55A0
541A
58E9
32C
78C0
7000
38D3
3A6E
7E85
F
3AE6
5C9D
7202
33F9
C10
4C75
31DE
87F
7512
76A5
139D
5D71
50E3
357D
71D0
2DC0
2A7D
40B1
37E5
71FB
4343
F55
25FE
71AC
418A
77C3
5321
6367
5F2D
17A5
5ED4
18A8
2FD1
6398
47FC
23C7
607E
3496
873
581B
A17
36B8
49FD
35C4
2AB1
7963
54A8
7546
6705
5F5F
7699
3AE1
7473
9AE
1DB0
35DA
2493
5EF4
1DB6
2EA7
743C
2022
36F1
505C
5B65
401D
50A5
66C1
19F2
4C7A
190B
3FC4
7FE
702A
20CA
53A8
6D5
B2
1B25
74C1
3759
2066
49F7
F90
9F0
496B
1C0E
2331
6C18
6D92
300C
35A4
44DC
4AFB
649A
202F
671
4F69
1A51
21A6
4163
5B3D
6398
3099
1D34
7C0F
564F
B3E
36CD
62C7
34A0
300
2E4A
2948
67F1
2F06
FFF
16BF
18FA
8F4
897
4FBC
7C0B
6BE6
3FD9
2F28
253C
2688
24EC
4768
153D
69BC
7B24
7034
7196
7A1A
3A43
4448
4BD
14C5
D48
76FB
7262
555C
18F2
64C2
6A6
5D47
7A94
31B5
6F6
37D6
5567
23DE
45D2
76F7
282D
6C8
3922
1553
23F6
4117
2CEE
6EEB
7C57
37AD
21E7
5D7
78B3
3FB5
2027
E15
3E89
637F
7883
7B77
40DA
5CDC
9FA
5E53
68B3
6EF9
39EB
53C
7775
1F5F
4422
BA5
4E7F
419E
2C43
79DF
1970
616F
6D57
4636
29C9
2A8C
52A2
5136
792
61B6
41C7
2EFA
291F
7C13
20
2422
5039
5292
682E
42A0
6C68
326
68F9
6FD9
1800
7821
263A
465B
5747
2CE6
5D78
6860
76A6
5EDB
1F97
6375
5C51
19EF
5AA9
5EF1
6BB0
1589
7C02
39FD
2718
183E
355E
635B
5704
1FE0
4BAA
952
2C4
711C
5B39
48AE
521A
7BD6
2263
1978
7107
1265
24A5
5C20
2658
4A99
1C6C
2A4D
1C66
808
2DA6
285F
4CDD
1F7
150B
74C5
4EDC
3490
9B0
6E50
3403
13FE
5226
3061
1A78
282
57AF
1A57
6202
4DE4
1723
513C
659
42C
1BD
49F7
34FC
29D4
C7D
7A65
4504
2E7
349F
38E4
4449
3C72
65B1
6856
4BD8
795A
392B
5F1C
3E0B
773E
3D9D
5C97
7761
342A
C98
4114
329D
74DA
543B
5719
467B
1D4D
7FA
3BF1
763B
75A8
684C
5E93
2F9F
3B21
87
29DF
1736
7C9B
5B9F
22C8
257A
1620
3398
7C3A
453D
4928
4731
54FD
7528
2BBC
5112
767C
3968
3316
3A11
2A65
3973
419A
64B7
22E8
5071
7C14
4145
73BC
3962
1B3A
4235
154A
747E
6030
336
45A5
1305
314
6C07
3B8E
473A
7EB0
38FC
BA6
300A
2ACA
9FD
6B4E
1173
19F3
7EE2
272D
793
343A
7A1D
300E
4954
3064
6882
6DD3
4750
382C
446F
4196
70BB
CEF
4B8
371B
1742
8
77DB
2092
44D2
3ADF
362D
4390
1B18
1A8E
63EF
B1D
7748
6CE8
3C15
1805
6C37
458F
7014
5F3C
28EB
52D5
262
719E
7D7A
2724
66CD
CAA
2E12
2BCF
62C9
4415
B2C
1C2
68A
52EA
3FC5
2903
258A
1025
46C0
6C1B
3A12
22F3
5873
41C
66C9
7F55
698C
565E
7206
2B7
3062
4E78
7DF3
6CF2
100E
3290
6FD0
AC2
56A0
3685
78FA
4A21
D7C
5ACE
3C7D
2FB9
513E
4D42
1356
454B
7BF2
3851
68B0
D88
6FCA
2B3C
42E6
24DB
345F
2F67
74BF
D2
D37
61C0
13A6
E09
6BFA
6C94
6D33
2CD8
B0D
56FC
EEF
66BE
1B3A
154C
5D40
5130
5D96
6F7C
1347
6639
C59
6408
2A75
3B87
75A1
65B7
1909
4BEF
6B45
87A
5210
1D51
34D0
6A1
158F
655B
1693
CD6
6B5E
25E5
6BF9
42A4
12EE
74C7
498B
50DE
FF3
1601
5C96
18CA
475F
6039
698F
35FB
6D4F
63EA
5F40
831
814
5E08
6CBF
78D9
6EFC
24FE
20B1
561
2E61
700
2EB6
32C5
7EF5
64CA
426
6C2
6B3C
647C
4338
3C60
45CF
6A94
61B1
4B31
3EB3
4830
30E0
5C4E
561C
6005
817
3F55
1B56
30A4
6F03
5FB7
3461
3DF6
350E
BB1
42AD
3DD6
6903
5D5A
6E75
D1A
3FF1
5FA0
166E
5C83
5F23
4F89
3DC4
7C91
3248
6CDE
4B8
3E5
4F23
26F4
385
18FF
A4C
701D
6A1B
771A
2FAA
3486
21AF
3111
2088
56D2
22ED
3E0B
286B
4A38
6C93
3BBF
3B6C
435B
3B43
4B33
4EFA
394B
1AE2
68B4
297C
201A
6F36
7581
6B5C
1338
72DD
4451
5234
1012
214A
410E
630B
5626
4760
517A
1435
6AC8
1CA7
6530
2858
7CEA
7919
7631
6C0C
BB5
4D68
69C9
3B27
FD
66D4
7251
6FBD
5887
1336
488D
9CD
21D
5BCE
7F51
470D
603D
3FCD
7A64
30C8
60AA
4F08
74F8
68E
3948
47FD
4146
FA2
4425
903
6DD2
27D6
10C8
72DC
4FD
225A
C59
79E4
5C96
2D9E
7716
2D68
335D
31A5
7431
6B94
3675
4A9C
275A
44CA
3114
68F0
457C
11FD
6035
2F98
72DA
51BE
728
1EF6
4EC2
6EE9
478C
70AF
390C
EED
1FE8
8EA
5412
2A63
6D16
2EDE
482C
328C
E30
348E
C11
1317
3518
3AB1
5115
6000
7266
278E
3EC
3FDE
5918
31B0
5DF2
71EE
5ED7
BBE
2355
30CA
78FF
7C0E
301
61CC
3F0
385E
2622
3BF4
1ECD
5BF1
5613
40E6
26AA
1CC8
6236
71DB
414
7258
75E2
736F
3398
2D64
47F5
150D
129F
3D29
26BD
710A
25F2
6591
1731
397E
7CF6
D95
3BA4
CAC
1C54
2C58
4006
70B8
6CC7
47FB
2B66
5EDE
12D5
54E6
49E9
5AC7
3D74
7C0B
50CD
60E6
DE6
4855
16DA
AE7
4038
52A7
515E
65B1
499E
144
201B
2D63
DBB
396C
7855
7136
1862
412A
3FC8
3E17
6403
1A6F
7C89
4165
723E
5CA1
7403
1B72
E39
37B
1760
6217
335F
2F8F
1CFC
5301
6373
11CB
5108
4070
5645
1343
4A29
4B
98
544B
2D25
A9F
1D59
4F5D
19C9
4E50
1EBC
3DF3
7174
3165
444E
B04
7715
99C
6004
4811
5C48
53B6
405D
7F6F
7FF5
C83
6129
3040
35EC
3A06
3A73
68A
65CE
456C
D0
7D4B
7008
5DC9
4FD2
4A59
D93
6ECA
697F
1CCB
3AED
2D22
2C1C
30F3
435A
4C8D
42D4
2E0F
2F69
ECE
430D
77E1
3B85
3B2B
2F8
3CE3
19B0
76DF
4B61
431
700
200F
3F94
3E2
3339
5185
5694
4A10
306A
88F
3285
5057
3EC1
5803
27B5
7072
6B49
1873
7DF5
1FA2
725E
30AA
1FD5
18AF
3586
2589
6EE2
2D74
32E8
27AC
4230
5D7B
1400
4394
2E54
7CA3
34E2
7794
673A
5545
5C52
76F
68F0
3EDD
18D9
4493
2CBF
2D2C
4D9E
491F
6717
5182
5A8C
2E6
1484
3D14
4B86
7553
7FB9
7BA7
26A6
687
5FD
3EC1
3682
5E26
7574
310
1400
29D8
5E51
AC0
5D92
7D11
609A
7825
7391
27DA
3743
4D86
4233
1042
24E3
50D8
4451
3CC3
3901
795B
C3E
3637
2E15
227F
1855
59DD
3583
B10
791C
577
62B3
7CC0
488D
19A5
24CA
5808
69E3
35CB
5C98
1D85
3A1F
3748
6FE7
61F1
C54
3762
158C
5FF9
459C
35E5
69F9
5B6C
7B38
B10
9AA
6C38
147C
24E9
2BCC
68A5
6C28
78CA
2141
3450
17C
63EB
47F9
429B
4D05
6C82
2E35
5985
3437
D3C
482B
B11
4CCB
5A44
CFB
1FDB
1B24
659F
5E9
532C
BCB
1E31
7730
677F
4ED0
6C72
5F6C
2C57
5D6A
4804
4321
595A
47CA
4555
6556
3BC6
7C43
31E
4DAE
132A
1152
7992
1487
1D98
78F1
188A
3786
76A6
74E2
3EDC
370D
1F32
1C14
5084
2016
1D19
5BC
21AE
1475
71D4
102E
4AB7
5565
7EA7
2B66
1CEC
1E6E
119
1B22
C5
3EA1
1DDE
7D4B
1E13
457F
25ED
60C3
76F5
6299
788D
7DF7
1C83
4B10
5BE
4B0F
58D3
5935
2C3E
827
3651
12C9
5675
291B
1851
5F0F
727A
F68
137D
544D
50DB
7F4B
3333
4D62
2220
30EC
5BC4
726E
5556
6CB0
18B8
1E1D
1A95
4A89
69C
46C8
7B88
5BFB
46A7
5621
F38
2E51
156B
595
611F
784A
EE2
569A
7ADC
31C
1007
6E72
234C
3633
6BB
3E31
4BB9
1DF
743E
4490
1AAA
72B7
4A90
3ECE
5B0D
10C9
69CF
371
55E0
2F18
44EC
7B16
2AAB
1774
6A6D
6F0D
1113
6764
70BA
19F2
71B
6474
728C
3DFE
368C
6661
64F1
224C
4FF
752F
7759
34C3
6FF0
DCD
63E9
2D7C
4C64
42D4
33DA
1C4F
3754
47C1
5AB8
7486
505B
3D72
5B28
327D
5AB5
F91
973
7
6A78
306B
695E
1D69
674
6D3A
44E8
250E
3E19
3FBC
4FE9
52C9
61B7
2622
5D08
60F1
1EB9
543A
730
790C
15CC
7A20
1F10
4CC
70FD
7E9B
5158
7A78
6F4F
4BDE
316D
5CD8
352F
7A2
3F00
3F0D
570E
1184
102F
149
FD6
3A5
4F63
1C36
A9F
5D41
6FDC
211C
6702
61E1
4BA1
75F4
59AB
23C0
1301
5FB4
4288
56B5
AB1
77C1
50E0
5A87
5527
20A0
5D78
2543
54AE
7358
7C1D
710B
592D
3E07
72E7
4CE4
2676
9C0
11F2
1C6E
3945
1AC5
28B7
5D7F
3DB5
1FF
A2C
46C0
E2D
6483
2CF1
41F4
1894
1981
2407
4F98
10D6
3B5E
60FD
36E6
5E5
23AE
363D
3D4D
7B37
61CC
2DEE
1270
562D
4DAC
47C0
247A
2FB0
512B
1018
6BBB
216E
3888
517D
1FFC
7FEC
4892
37D9
26A3
74A5
288E
23B3
481D
79FB
630
1AC0
45D2
63C1
ED3
2ABB
200D
2B86
5A1A
6060
3EB6
269
70B3
7ECD
2EF2
300D
C02
1154
2EA5
5935
2FA5
752B
AEA
6FBA
2796
11E2
506E
688F
7F75
47E4
4797
23B5
4DBA
620C
7DE5
F25
2FAB
FD8
4C38
66F5
6B17
34B0
2227
31D0
69CC
6423
5A05
6230
12C8
2B82
2A8D
381D
199E
481C
24A6
573D
3369
152A
40CA
39D2
3699
7FA0
77C7
B8F
13F
16BE
52AE
57E0
5CCC
1AA0
3A89
7E40
2FF0
4C78
1027
19C3
6674
5AB
1846
4B95
7909
614
7868
335F
3FAA
601F
7410
2F12
5A93
1BE
BDC
2EA4
6BF4
6472
49DB
5BC5
D5E
3C58
5A1F
91A
47C4
5521
86A
53FD
2C05
1E93
5DE7
28ED
60F9
3391
5F55
524
7533
4FA4
23F2
34B2
55CE
35F
95A
632
2162
7746
100B
3564
2C4B
D57
4FBD
7C7A
1236
3CF5
241
48C2
46D9
18DD
F93
6509
4E5A
5243
7202
25B3
23F4
1FC5
1D22
58AD
5B4C
456B
1A14
2DB9
14DD
1DA2
6172
7492
189C
275C
696C
6F90
2485
51ED
26DD
361B
65C2
3C52
59B5
1EF2
1403
217E
4CA6
71E7
264
7F24
2913
508
5608
70C6
63FC
78CE
23E2
122F
2241
5D4
4117
21B3
47FF
3ED0
2218
33A0
555
313C
61C9
3871
41DF
2AF5
54D6
383B
547A
718D
6524
20BE
67E
10D0
7072
510C
9BF
5BC0
5975
2380
229A
5071
12EB
221C
426B
2696
12D6
34C6
6AB2
76FA
343C
57DB
243E
27EC
16D9
CAD
430F
1BD4
2469
72B6
17BC
57A8
14D5
1CE6
51D9
66CB
11B4
3DC6
61C0
77A7
938
250C
F02
3DEF
50B8
73B2
4E79
1C7B
68E6
1AAB
62EC
70B8
3C2D
54A2
139A
242D
2D59
6965
5407
172F
702C
1865
2089
13A4
FAD
3456
7059
2074
327E
26B7
5763
7967
4F97
4442
55E1
28DE
1B92
529F
602C
44CB
48C5
1606
79C
29F3
327F
26BA
1E6C
4BBC
2895
2A93
6EFC
7670
1667
2184
1E56
27CD
293B
111F
3A0F
4DA3
55D2
EBF
76A1
475D
7381
29B
2CBC
4085
629F
B42
50E1
796B
5650
3C89
10B8
425F
7B1E
756A
7B84
60DC
3300
6391
71AB
2CB3
1A98
1779
6C00
2DD9
1750
4AB6
2C0F
664B
66A
45BC
7354
7D8E
3F00
1E3C
372B
2D76
4548
2C41
2D36
2224
40DC
516B
19DA
404B
1144
61E7
A74
6DEA
24AA
13F3
3BD1
4578
58A0
6BC3
7A35
4A86
65D8
66F0
7BB3
296F
974
74
7F97
1508
7945
17F5
698
1B40
2DD9
49B
E59
419C
38DA
1D23
6A0E
1B74
6F0F
E6D
5E5
5224
D
36A3
7C4F
4250
479
6C0F
5D39
4BE1
4906
1E3D
7175
16A1
3659
2A9E
61DE
1B58
73C0
5A28
7CD6
137E
18F2
4C7
11CE
7092
4344
A12
4921
62EE
29B7
3E35
FED
498
787
6632
74C8
15CC
4455
152E
4984
C5B
4DAD
4960
70BE
6937
94A
294A
A21
2393
2738
3A95
6788
7BAD
108D
2897
5DF6
7EC1
332E
708
201
5716
7740
3E70
4E4C
2312
17D5
75B8
3249
5432
35C4
420
5EC5
74DC
5636
1D55
3755
5F83
34ED
3B05
6261
544
F48
1125
E74
35DB
7256
57CF
21E7
1C70
553
9F3
4AD8
1E56
7DC8
6592
19F
41C8
7937
3F66
490D
843
7AE9
50C1
7DCE
589F
B52
6153
202A
3748
D41
2657
5E93
5B47
6023
1A95
7BAA
669D
653A
7EB4
5C2A
7A58
440A
13F3
6FD5
5E90
1182
5CD6
7474
695
4ADD
18E9
3098
4102
4F91
5CA9
256C
446E
5C53
6938
5D
20C7
53B6
660B
5893
4371
580F
2C45
237
1BF8
3D4E
1CE4
4FD1
14A5
3184
1560
134B
65D4
770C
6129
FEC
5948
69CB
2C00
397A
3359
7456
653
617E
59
646D
5F8D
1225
24C9
28C6
2DCC
523D
341F
6152
78C3
643C
7153
484D
72FF
733A
1317
49CE
1998
6DD0
40B8
310D
1923
55F3
35D0
4C44
6EA5
3CBB
6F6C
389E
2DEA
1825
321F
2E3D
2B1F
2A5A
3A6
6AC6
1645
721A
549F
720A
5AC4
5C5B
14C6
14A3
26C1
3FF4
5997
548C
3F13
6C27
4946
DD6
ADB
B04
63CB
7BBA
1065
3C8
4F67
3B39
64A9
3CE0
4CF9
6002
757
58B
4412
4CFF
45C5
2440
2072
4903
22DB
382D
156B
912
227
3FB3
7105
5B5B
440
5FE9
7CEA
48B2
392C
3CF7
B65
2905
69D1
7028
15BD
64E
79B4
1C9
4BD
45D7
7C68
6A53
766A
5EA1
6191
93C
43EE
2403
65A7
4942
53ED
3C03
7B66
4271
3F10
77D5
6305
3BC3
3D30
2120
3C63
30F0
1371
3658
518E
1D74
BF8
7598
424E
F8F
1056
776C
472D
7F8D
372
26E4
3A69
1F1B
5804
4B40
621E
4137
D26
4869
61CC
7B92
6340
9D9
2D44
558B
5F5D
6EF
962
62BF
6752
14B3
6964
9B4
6504
6D1F
60A
71A4
3FE5
23E9
782A
220C
45D6
67AA
13AF
2FAF
2873
1309
AAF
6FD2
2AC9
61D5
C50
4C57
E3A
7F78
33E6
43C9
3CF2
4CC1
7471
6A6C
39AD
141F
15AF
1BC5
2947
17CA
3021
4C8B
74D1
6839
39F8
109D
19ED
3F00
28EB
3AC0
54EC
6052
3C31
225C
3487
887
1EAA
16F1
3B70
1D8F
7DC4
2EAE
5D3
1B33
45FB
7B2C
3AFD
493E
4D4B
2B6C
1C82
F33
1BD3
6CAD
23AE
2B8C
496E
4529
2500
7616
3C9
4512
36D8
D05
66B6
3CF9
6A5C
4AFB
45A0
6501
3ED3
7ABB
238D
6BE
6D3D
44D2
ABA
68AC
4170
632C
3696
4BAE
1095
2D61
2F0C
4F6D
24CF
1B64
7718
760F
C5C
7A99
D92
5560
7243
7B5A
3046
74E5
170A
631
6E5D
1550
625D
609D
1E9F
2399
14C3
5DFB
7A10
5152
22F8
4D86
299F
3FC6
1BB1
7442
41B5
4848
5061
7C40
387D
6B11
1820
2BDA
63B0
470
4529
31F1
6F27
4E47
E2D
789F
6A13
DAE
37
68AC
7D33
3FC1
AA8
51CD
2CB7
1C12
73F6
427A
5BB2
5D62
2326
D3E
53B
37A3
7E60
77FC
1F96
3B2B
13D5
90
2EE2
C74
2443
78D7
67D6
516
79B4
514D
6CC7
714F
3AE5
7026
1572
54B3
7778
2F44
4A4D
857
5646
4683
61B8
7B0F
374A
288
29CB
B1A
7633
3D33
24DC
77E3
1F6B
24
70E6
21BE
6A66
281B
25A3
7CD6
782A
3C69
49AD
6BA2
1EC9
4561
5E74
1E1
4D7D
7709
7B47
36B5
A0
3255
1F70
2603
5232
633B
2B71
5B16
1B79
801
501C
6114
EBB
1D6
760D
1EFD
1017
2298
1B34
7D3E
2196
39DB
14C7
87
5843
7DDB
20D6
401E
10F8
37AA
7BC0
555F
F54
472
4DD8
74E1
54B6
6CA8
AFD
4D00
37D1
7D9B
806
25C6
5618
21DA
6BFF
50D2
1DFC
42F6
51EB
4341
568B
77CF
488F
1569
795C
5070
778D
5146
3264
4C1A
202
2FBE
7D88
4CEC
5D4F
4DD6
1BD9
11BC
7896
3690
5819
66DA
3DDA
6ED7
5CDC
749
3F3C
145E
4348
151B
74CC
551
10E4
509D
916
6FE9
21D3
D2E
494B
1C68
341C
5A1E
1AC4
5385
3F38
7E65
4254
6F03
621D
5714
1E21
7A53
50C
6860
5C0C
1699
2905
1196
DE8
22F3
2550
5B91
7B5
3D0F
4811
6864
581D
494
7CD
5875
17FC
5CAD
4A24
1C46
576F
6E71
7D42
5895
B4E
347F
C01
6C89
33E2
6969
624C
1072
3BB7
2C1E
23AD
4FA8
6878
5A3D
59DE
546F
581
611C
2750
19BF
65DC
1D35
5F13
1811
5FF8
91C
40
79B
6D78
73B7
7063
7803
42F2
43CC
4599
3074
4AE3
2BD9
423D
56B5
3155
445D
41F
4199
650F
678D
4958
7F68
7FEB
DB5
212F
11A2
1FD1
25B1
1259
775C
3B6F
569
4FEF
1F47
2CBA
25CA
67FC
669
1502
4E8
F71
602C
7079
F85
6E34
9AF
2096
6291
B78
760B
28C9
74A2
395D
6F14
3D6
34E1
3EE7
BF1
4366
23BB
5B28
3D6F
638D
44D4
11DC
6111
19D7
4AFF
54AC
140C
466D
4B6
3021
60DA
4927
1C49
1910
7F8E
51F2
6196
554
29DB
4BE1
27FF
1174
14F5
255D
650B
7C91
793B
14
6EEE
3928
763A
4369
4D36
62D4
7CEA
20D9
7C7B
1C3D
6478
7BAA
384E
3FB0
1167
5552
4E2A
32C6
1F8E
36E9
1474
DA7
2D98
B6E
1210
2B01
17FD
1712
17AA
1EB7
56A0
134A
366C
1622
448A
336E
2B11
388D
4984
1806
3E45
6C8
4CCC
3E03
6198
4895
1762
66DD
72AD
5E47
6140
2616
35AA
13DB
66C4
76FC
295F
6E99
1F4B
45A7
11E5
467B
75AD
53E7
4492
4E47
4719
2D3
6758
48C2
190C
3BF3
26C4
70B4
18C2
5B08
7CE
7CA
891
19C2
6304
5EE9
144E
1ECD
6914
2DFB
7CB6
73F8
6ABB
2E64
79FF
77E
5629
6DD8
2D76
43CB
30BA
1D1A
5BB8
4C76
7684
4D55
4BCD
49B1
738B
5EF9
6A63
4AF8
638B
D85
3908
4EEE
70F2
4D3
5DB2
294D
70BE
7816
21A2
6D48
13E0
7652
761F
6808
1078
484C
6CC6
79C0
4FD3
44B8
753C
7534
63B9
5CE9
4F9E
76AE
34E5
6FF5
12CC
70D6
69D9
40E3
61B6
8EC
5ABE
7D4E
28A3
6F12
183C
1BCB
2C45
6A54
6F39
24BE
30B4
5ECA
FDE
66C3
5151
5B8E
268
2770
7F
7BA
406F
29B7
6340
1215
4BB6
3EE3
228A
73C8
14CD
35DE
66B3
C65
1E45
769E
4BF1
589B
2ACC
6BBF
5C62
1068
C8E
6F13
21E2
7A71
3742
27EF
3178
22C0
5D1D
A88
6B06
60C4
50AB
70C0
493E
7C1D
783F
6330
31A7
5B07
BE2
24D8
3E72
325D
CA1
437F
400B
76B2
9C0
222D
4F4D
4FEC
1CFF
EEF
401
4DFF
3A85
596F
72E
67AF
6A1D
6B48
5496
3CBF
2849
7319
5C17
1A34
220C
4875
7C8F
270B
1FD6
CB9
5183
3410
6D9A
6C0
6AA9
E0F
707E
72DB
6E8E
784B
715A
4B54
3A8E
57A4
18A1
34E7
5B5F
5484
208E
39FC
1A80
773E
1D86
C49
32FE
7213
2819
1C82
3BF
D44
21D2
5091
6488
5060
24E
7ED2
20D7
7C6E
49E8
3583
44FF
7D1D
4725
C0F
4D86
3A95
6F12
1BAE
2F99
7DC8
3E80
26C
182
3C97
72F5
123
5536
5426
7D79
44D6
4F74
19A
5F86
792C
1FC2
5C89
523
2C96
15F3
6F2D
7D24
4E69
79B
6B7D
3847
3A41
19FD
2566
12C9
5919
1F91
3031
53A0
2ACC
CA3
3127
1F56
13DF
3576
7142
19FF
6AF1
462
5BA5
19D3
5850
75F5
7B90
166
19F1
3ED5
5220
56A3
2AC8
272D
7B29
285
4A65
343B
3FB2
658C
2B80
1CB8
22D1
56C5
4486
7BD2
628C
23C5
7FB0
7DB5
1230
9D8
389A
7580
21D7
7754
416E
77FA
3E3B
6291
5365
7EF5
4B3
4910
63AE
4F38
3C71
13E3
3066
78EC
FC5
7164
2167
148A
6B33
3E71
2E4E
B1F
5CD9
6467
556A
2180
23DC
4818
35B4
556C
28D2
3DD3
5E65
7D39
69FA
1FA0
CDC
35AA
2166
72F3
529
3D5E
4A34
7859
474
5335
304
2122
78DF
3E2
5822
49C2
7782
1A4E
42EF
898
3C9D
5397
2AA3
64E5
462E
286C
3123
3208
1435
2144
3F68
4CAC
7826
3DCF
5616
3B02
40B0
6CE1
2E3C
5001
3399
6E7E
2F43
2DA8
21F4
5E6
64A
216F
5E12
35B
2F75
245B
2D9A
2E1C
7C3B
1870
112C
3244
15AA
52C9
187
1FEB
CFF
3A9B
4911
65F3
75FD
21B4
59E2
5CED
22ED
783A
60AD
20DB
3B2D
993
2BC7
2EC3
619A
3499
4C24
909
150C
EE0
4C3C
2E26
3CBB
1435
E85
684E
30A0
321B
6244
6392
6394
2A95
2D8C
DD4
4A67
5242
714B
51D7
1327
1B1
76CC
136
106F
63EE
7705
6DDC
2B3F
11F4
2BA5
7E7
60DE
5EA
6267
A30
6CF9
2F46
50FE
4CF4
38DD
5FCC
184D
68FD
7DB6
4349
34E2
6405
3C8E
2043
7FF4
7D9D
47C8
68AE
3A4D
38FA
3B61
3855
5F19
2E3F
17A7
2E60
705E
2083
7DCF
309C
4C1C
6819
6C68
891
4B0C
705
1D4C
5474
7BE7
56AE
299B
1B1E
3A27
6DFF
4A80
845
5670
D07
2182
579D
5FD9
514F
6BEE
6F0E
60F2
63C
505B
4FA1
791C
7E19
702A
3050
24D1
38E4
22C6
1CC4
6C1B
3F4
594B
5C6F
2E3B
3EE4
581F
2502
23F0
6615
B0B
B66
56E1
7EC1
6E0A
43D5
27D2
6243
2F80
5359
EE
659A
2BC2
5F33
1D6F
2DAA
D6E
5E6D
6AD6
29ED
193C
670C
5CE2
5C16
570A
5559
63F4
11A9
2168
10C8
EF8
2F24
2E72
6EB7
B39
1C42
27D0
2AAE
4120
72FC
5BAC
60BD
78F3
2164
4045
550F
1697
6733
2BD4
4BFE
3677
10F2
4B3B
3F68
7BA7
3352
44C1
34DD
859
3BD
5358
5768
6EEB
2DD2
4F5A
3EAC
2DAF
DA3
692A
5835
391B
613
DB4
166F
5765
1002
6A1D
5907
5A53
72AB
333B
36AD
5F60
6A2A
7A78
5E9D
48D7
5882
116
4CBA
5A83
290D
78E9
1C55
25EA
2929
7959
2142
1F2E
5F1B
407E
462B
1F48
153B
7F06
49D0
3021
64B2
7C35
4C9F
6D51
7D46
64F9
13C3
4A06
512D
252D
3DCF
3DE2
30EE
141
A0F
4293
5FCD
313A
71A
6F4B
4231
24AB
5B94
2499
7E28
3BC6
4BC2
5DC8
7C4C
6963
2FCB
467A
39F6
C0F
6707
F9F
66E9
125F
272A
7377
7354
2C42
6F35
241B
2F35
1E12
248A
5BC1
5E2D
5994
1F56
2B5D
448D
2F84
57AB
1BD2
3D11
194D
AE5
73FB
1600
1007
4C54
2350
55FE
1D06
6C17
77DC
55E5
4035
5BF1
4AFA
29E9
318
6648
3078
3205
3278
2C70
4C47
4CC0
293
6948
62ED
B38
440F
536E
7358
29A4
57BB
6ACB
1638
1AA8
6503
6A65
5FAE
6327
1779
3FC5
236E
7C47
6046
393B
5743
3D0D
318E
37BC
5DE
1342
A86
4B04
7D72
6466
4F38
62CC
376A
64E
EC9
5367
611D
9EA
127D
3F2D
1E4B
4F11
1052
3B1F
57B7
1C39
F72
2BBE
7172
20E8
3FC7
1511
69E2
2314
76DB
752C
74CF
3B1D
613F
4DA1
47D6
6A3A
33B2
1ED1
628A
418D
56CF
1BB2
7A1F
3A87
782C
44E8
381A
6BFB
1EF1
7E5A
3725
30FE
4682
4FED
44D6
7AD2
8D8
6964
4AC2
6FB9
3AAB
2110
66A1
2E3D
6F3A
15
5ECA
E0A
620B
31A6
6C68
4F6E
EB8
7203
21A9
3E93
61E
3818
6CDD
6CE4
F43
403
45DE
22F1
64D4
3D07
1ED0
4E22
56AA
736E
78B0
47A8
7F2
26BC
562A
71CE
3EBF
5083
3C3F
A11
300A
A37
7D9
7E8A
3BB9
5C15
536A
F78
46E9
4A8E
395F
1C55
71FF
6A77
3A97
171
68E3
C4B
138B
6527
40C1
5D05
7B43
7A04
45A9
7761
6A7
50AF
3D57
1FBE
71F
3DD7
5F5C
4A35
1D58
8BD
7446
7572
4E47
23E3
73BB
B25
24C3
25DE
2ACF
6616
2CDB
12E3
674E
4BC
B95
1311
5605
462F
285E
40F
54E2
4684
28AE
502E
18E8
2DAD
45D
2292
49A5
3CC3
12D
5A1C
5E7C
412C
62ED
7C8C
F9D
1E19
303C
2A7
70FB
7A5D
53EB
4838
3037
60CB
A5E
2438
3DD2
45B6
2F15
6539
6503
1ACF
6BC8
5A5
7AE4
4D92
4E8B
70F4
42D
7A7B
439E
236B
45C9
4280
548A
4F85
2DBA
1DA
7298
35C7
4CE8
12F0
10AC
48C3
4DAA
2818
436C
5DE3
5621
64F8
5BFD
101C
28FE
9C6
1078
19E6
50B4
618D
1968
5147
2FFE
51C0
3CAE
7C8C
4D37
420B
2DCC
6043
2988
C
7A77
13B8
3B5C
7DE2
587B
683A
2813
6D48
4EAF
416D
2483
4A6
6405
60C7
4221
1869
1A1E
48C8
600
527C
2C6E
563F
5A24
33B5
4BFB
7F56
4D2F
661B
68AD
5B23
2C4D
7BE1
D36
1379
BF4
4BC9
1968
D1B
50EB
4642
43AE
4631
723B
63FF
1474
4B1F
1541
1BE6
2047
4ED9
5CC7
77DD
7799
6020
7580
4230
1C8D
7FD6
DC5
12BA
169D
3609
5B20
203B
6D20
3AF5
61DD
67CB
1F4E
CEB
7AC
7C15
99F
3C5B
52DB
610A
6805
2F5F
72
7C57
7A47
306B
48A2
3205
6B25
39B0
595
3BEE
73BD
2236
5C58
6D40
34B0
7037
EF7
44EA
366F
7F2A
223B
7148
38A0
3876
57F8
79E9
7491
215C
40A
367D
B82
5230
6FB3
38B0
555F
2299
1D1D
5B79
4DE5
1FDC
4024
4E50
7B5E
339E
7C60
3872
4C73
7627
462C
4C3E
FB2
3597
344C
3F84
12FC
6FC4
289D
2B1C
2F
3B00
6A71
2415
2775
649
52E9
1E9D
1F9
2EB1
3A55
7D97
5D28
397D
5529
5FB8
4816
77D8
5114
408F
3F49
1C4A
27C4
14EB
10DD
57B2
7D07
3C83
954
793
48E4
6FDF
2D47
4844
4471
3F74
48C3
74EB
3F85
4A94
34F9
33D
4EB5
3E39
2A7F
7BAA
36EB
77DF
55D0
32C1
6122
355F
648E
5BE3
D07
6BB8
A6C
7E3B
1553
1E82
5A79
7D52
7832
DBD
1497
2804
6B0B
2D93
1010
5919
2FD0
290A
5255
2A6C
427C
D49
4BFB
3A30
70FE
7C6A
3368
77B5
61AB
738
4AE2
3A81
77FC
5AF9
3C43
206A
1F00
5E9
61B3
48D3
575C
71D1
7FD4
18CE
2095
6B73
1D75
20D
1F51
38E0
1D7F
5210
279D
CEC
4192
71B3
4DEE
523D
4410
4579
729
272D
573D
3277
44E2
6EFC
4069
3A77
4EFE
4550
4FD
6E99
3CD9
273D
5296
3776
4C63
6AD7
71C7
6A63
1319
D9D
1CC1
4886
2015
715B
3DE0
5B43
5090
1ABD
7AE6
248D
7F58
2973
6A58
1E41
2695
7A35
4B95
5D28
59D
39AA
30D7
1AC6
297A
1EDC
33EB
6C28
2AF7
6FFF
5789
4B0B
3B89
6BDE
65E1
35F
E85
165D
6643
63FF
66AA
117F
679E
4D87
737D
D6B
7D27
18A4
257F
36CE
5792
28F5
273C
610A
6C4C
19C6
69A3
5E82
5B43
1799
720C
5473
78A6
5CFA
1F7F
3162
3D24
1DC5
6A80
FF5
551
14B4
720E
7EE4
5090
5BF2
3896
FBA
2B4A
5D5E
5ADA
343B
1B75
548B
1658
34DE
470F
54B8
2CFB
6F8A
51BE
97B
524D
1847
755
5B7D
2FAA
1955
33E7
615A
21D8
634C
60B8
47B6
5C86
200F
61E5
3919
40ED
11A4
58F
1FE
194C
78F4
1D23
65A6
3CB4
5652
4250
2DA6
6398
203D
2BFC
215D
75DD
E08
60A2
7309
37B2
3D93
73B0
1540
7D64
486E
5B3
4764
5398
5CF8
16F9
2AC2
77A
662F
450B
6A2E
7842
7B3C
694C
63D9
4B75
3196
7859
49A4
60DA
5045
9B6
7246
3C69
6313
45DE
5B11
7E6A
7568
EB2
3214
9BF
522F
4B1A
6517
596A
2A8
58FE
75FE
4410
5E3
856
F57
13CA
309F
44B6
637C
1323
2ED5
6C0A
3C82
24AF
5C68
58A5
2F00
2FFF
2418
234B
5E2B
6C50
49AE
2050
FBE
AF
6388
7E3D
6797
3936
7923
6F13
2D0E
D90
209
4D8C
6DD9
1C05
2463
119A
6CD3
745B
7C11
2776
6D50
6DE1
542E
79C3
3E16
5E6C
769D
1CAA
1892
2476
4290
39BF
66FA
46FB
6AB0
623F
422B
858
230D
12C0
29B8
3055
1CED
783D
522C
7377
5A46
1ECF
5ECE
2950
50C8
721D
6D5C
6CBF
1A7C
1509
6A80
7C23
5322
4CC6
7E36
4497
5838
2541
6573
616E
5D24
4EBC
6D59
376C
1AC6
63AD
1731
3F0
45DA
35D5
4343
3015
3A7E
48F1
13E6
61D4
614F
3229
458E
4D12
6BAE
52EE
19E6
34A
1667
6CCE
5594
69BE
2A79
2676
46A5
1FC
6A4C
5F8E
209A
C42
2962
965
280C
50C6
6A28
669A
5A30
320C
490F
603A
5E85
5F0
57E
4E1
1278
7F6D
4430
7EA5
2A9E
11EC
67BD
39B3
55F7
114F
5E91
1286
1E2E
590D
61A7
44DD
551E
1D8
631D
4400
50E9
7EA0
476F
34E2
1B10
6C3F
126F
4104
6317
4F26
3AB
4B2
5DB6
3FEC
2774
1EF7
2B9E
2D5F
3F23
2F5A
4B91
70A1
24DA
5A41
7412
1B77
4830
52F1
74EE
4D5B
77C4
5AE3
694C
12D3
7B46
5D84
5C27
31D8
7384
96A
54E4
29EE
295D
6E30
46B5
308D
25E4
3805
484A
2A23
4565
68CB
1E12
115F
5C
4237
3539
62CC
38AD
518F
2DFA
520D
2439
5B16
557F
BB
4AFF
584A
1B98
68A5
493D
428C
2E6D
5E56
5002
55B8
239E
13DA
6E50
685B
2C6F
E51
3622
2E89
B62
3B14
22FD
2694
5B46
5F92
9F
54F4
5711
4273
51B2
7AA
62A0
3481
42E7
7C80
4777
2B3C
438C
73A7
1B48
3DF4
36C4
1E2E
A01
70A4
6DCD
2A90
6E3C
358F
7CBD
573
1855
3DE0
6CFE
31E2
7D24
AB6
A92
3AD9
28FE
3189
44DC
7416
5FCB
5BFA
4B3
5A8
7321
65ED
1F84
481F
4424
4605
369
1399
14B8
624F
A0
697B
3B37
6E95
1410
7726
463
2A94
749D
BAB
60E9
7BC9
127C
27C6
3CE8
4517
2C7B
1BAA
5F36
695D
DEC
660D
732B
4D1A
D6F
4692
1535
551D
5C26
6405
2BA8
72E2
2EEC
3D5A
E60
72F
4599
2D75
5532
6D21
1755
7C70
BAA
903
179E
150D
C92
323C
6B38
2FD8
263D
1CE9
4D42
4974
C42
7A6C
2029
329B
7F86
7A5A
4CAF
61C9
3144
5E58
FBD
5661
A41
24C0
7D0
1C1F
2B47
3C5
3B11
1C4F
1C8F
7E1B
1632
1A70
294C
7649
6BA5
3355
2EDC
3F0A
1C88
2D13
2884
5006
6B1A
42E9
675C
226C
40C9
A7B
412F
2C3F
6149
67A2
799F
12A3
93E
4180
62A3
2387
5F0A
7F62
5E10
5B71
16C3
2D4E
2F38
279C
4CB
4342
7A8A
62AD
5717
5C85
20FD
6C2F
3F52
2DC5
59CD
BEC
5C01
65D0
7F8A
77B3
2626
4543
188D
2BDC
26B2
1EB
2A0D
4CE0
2497
486
2D15
4ED6
6F4A
366B
3E74
2F9E
171D
466
7666
562D
7134
53EE
2ADE
1EF1
1694
6E4D
5724
DDD
60F7
3810
5128
3BD9
1BF6
1CDC
6DC4
20C9
13E4
5ADD
3518
3A2E
3928
2022
550B
6477
583B
5015
32E3
61D0
265F
221C
5B3D
1EAA
730A
ED6
3E65
2E4E
1E6B
4D0B
4DA7
4FB9
13A5
303A
266C
2542
A7C
493E
8FF
3422
514
787B
7321
4FBD
584B
725C
3767
5891
5B2C
2F39
3DD5
7B8E
4894
50BD
4EDC
633
5339
3894
254A
74E9
48F0
4551
5DC7
3595
67AE
7701
2987
5209
1E50
55DD
CA4
314
1B7E
4168
F8F
6A
25D1
2F51
1A98
20C8
6C56
24FA
77EF
5FDC
2D52
469F
6EF4
7BA9
32D7
26E4
7023
13B2
756F
787E
1812
7FE9
43B9
1A2A
574B
113C
2354
6895
15A2
5B4A
1B3A
331C
496E
625E
55FD
33E1
5C6C
2974
7F83
5B95
14E0
143C
4347
698D
2E1D
6DAD
4C4E
5DC
90D
4EA7
4F40
4BDB
7E18
19BF
550C
1436
7D66
3C5B
2FB0
5B32
FC
781D
6062
7D65
71F3
7BB2
5BE3
40BF
1742
16E7
7D37
3CC4
3562
1788
5AB3
4020
203D
68F8
173D
5168
29DB
5CC6
1D6A
4204
16DD
60C
3C16
249B
6F1E
4C56
2B58
6EF6
169C
66E3
6975
28E2
2F73
3F99
1E73
220E
16BD
1449
601E
66AB
586A
1CDD
726D
1B09
5FF3
582F
5CEA
1244
3C1C
14DC
A59
34ED
33C0
3451
7E3D
5F1E
1016
144
48D5
2E39
44DA
558D
5A22
F5E
1
7FFD
7E4F
2FF6
6744
1B57
409
3331
6ECD
2EF1
56F2
6929
22DB
2EC9
6276
469C
3BF5
69B2
5E03
1A3B
1153
787A
3E2A
5CD9
6894
215C
722F
5273
7E83
6833
12E4
73CA
6FAE
1717
1CAF
5583
36D8
6090
200B
2B0
6E93
3BCD
4E3E
528
2FFE
5290
7C8C
171D
27CF
F76
3C8F
62C2
2088
4F7F
1FA7
6E1D
1DFB
2EE
19EB
7F7D
593C
9BF
2A79
2428
EDD
DAB
6B48
D51
FD8
76B4
1145
B56
37D9
646E
1E74
5FF2
625B
3DD0
72A8
4505
6C83
2745
1A79
6101
2423
3DA6
37F2
5EEC
2220
3B12
181A
6467
5A6B
1875
5FCF
4660
3440
F82
23AC
6EC0
7150
3B62
9CC
8D7
4ECB
23CB
51D9
A39
2BE8
59F4
519C
1A12
3179
747E
62B8
72BB
64C7
7C17
E40
3BC2
68B3
6366
779C
6C6F
4EC8
CB2
463C
46D0
1CEC
2BCF
47ED
2CA8
766
6B03
6E1C
51CF
1F6F
576A
176E
31B5
735C
24F5
40B9
37D2
5C57
1E45
19
4C83
28FE
2959
31A8
3FB8
517
6D81
3B58
7CB8
30C0
591F
ED1
52B6
3CF7
4095
6BC7
256D
657A
565C
456D
1925
4FFF
4E62
720D
492B
77D4
40AF
6176
53E4
6E3D
306D
4EAC
19C1
10FB
14F9
43
357E
20DD
61A6
357
6519
7E6E
1F21
6D94
106B
1367
6AD3
6275
7BFD
3B81
2C0A
593
50E2
4F6F
32F7
2D2F
9C0
29B5
3E8A
437E
5604
72C1
5E8C
56AE
553B
1B39
2929
47EC
7F4C
7103
F43
7F8A
262A
1094
6290
3C75
70EF
5FFD
61A1
2BA8
35EA
5BF4
616A
6D72
2092
390A
68D7
606A
644D
3726
3302
7957
5605
7A6F
4768
13BF
1F26
1532
4813
3785
65A8
7A64
5114
1271
E35
39E8
2054
269B
22AF
7454
5E98
7CFB
6CAD
2E5C
3C3D
BD3
5E8C
4352
7AE3
57FC
2583
1330
CE7
701C
5450
5F3B
A2B
6B1C
3E00
4B9
4049
3811
1F58
7610
6DCB
7EE2
5594
5005
300D
627F
76CD
6D22
4A80
7889
496
677C
6447
1082
2E5E
285C
495F
6246
5E2E
4FC4
6205
1D47
3497
476E
5AEE
3014
4AD1
5103
EF6
2717
74CB
68A5
B1B
36E2
7BB3
1676
6EEB
64A
4C0E
2CC8
72E9
749B
47ED
6C16
1386
6F13
2B1C
6ACE
205E
5D7C
7E6C
60FE
6F85
42A4
19B5
60BA
555C
9FD
6374
6C9F
5BFF
45F7
145E
705C
2D83
334A
2422
5787
1BDA
5D2D
6D5A
842
28F0
2F4D
7612
4825
770E
4300
F8
70C3
7679
63A5
4BC9
75B9
587C
105F
2B18
50FB
788B
7190
6BEA
5BFC
7039
156A
132
5C2C
7E22
3EAF
19B5
68E1
5DDF
B0D
2A60
467B
7462
45CD
7913
2B0
4F3E
1C8A
4BC5
2918
6904
79A9
172F
1B11
36BD
3E5
C08
2A79
4DE0
2C04
5EAA
C45
1357
13E7
54C
E37
2D64
19F2
14B
1685
4599
5BC7
325E
5454
229D
724B
77B9
32A4
DC7
25C8
6CBA
3CA9
704B
2540
6B2C
4C83
4331
2BE2
4C11
49FE
34E5
6FF
4382
4528
5C55
6498
47FD
41E9
D46
2F9F
820
7803
66DD
679D
35B8
30A8
4C80
540E
3405
496C
58FC
305D
1F27
549F
4587
54EC
7262
284C
4462
7F8A
6E3D
5EEF
2D08
52B2
5F1B
C9E
D2B
2884
500D
343F
306C
1DA0
1AA5
1D80
41E3
7DE7
32FF
700A
5B3
1B41
1D5
6F9E
7A60
6981
28C7
529D
78C9
669E
1D26
3858
1C0A
1FF2
1CBD
7EFF
5E3
3832
3A99
626A
6698
3A87
167F
6240
1E11
2E15
3BFC
76FD
7F76
1638
5BCE
2565
21F
B97
3548
2567
59B1
79B1
6635
156
63C4
56C4
2280
1E2F
5070
1C80
3676
24AD
7FEC
7BF2
1847
E11
7C6C
7058
3EA9
239D
432
1ADD
1C0A
2AD6
663D
386C
1FCF
4BA0
A55
58A8
36E
2EE8
7DC
758E
7899
4604
CEF
F12
50
1597
2744
6E4D
2A88
2F95
16D6
282E
25C0
2A7D
3FB3
1E9A
3AD7
26B4
66D8
161
4434
DCB
6003
AE9
353C
4666
5728
60D1
7206
250D
2AC5
4445
2AF3
4B66
358D
1BA4
76D8
3B12
7C19
7AEE
3324
2532
1C85
C2F
3776
2EA8
333A
15FC
72BA
4865
38F3
AE1
AFC
4A76
5E70
F99
7AC4
2F5C
1DDC
7792
5B58
79CD
71CB
134F
7FC0
7E2A
5015
7109
6C61
4573
198B
ED0
F6E
6A3E
79C8
2735
7084
72DC
32D6
5937
7532
738E
2FF7
547A
50E4
3FF8
5FFE
4D0A
67C3
24C4
8E
7FDB
665A
28D3
32E
2CF1
61F2
6C14
2D27
1579
6C96
4CD7
713
4F16
1FF2
169
3630
4701
3F6E
7D08
7041
553A
4BA0
76ED
496F
7C75
4A2F
2944
16CB
7561
53EE
3834
6F25
63C9
35B5
281F
6A74
2C03
2D5F
346B
3E9A
530A
3D2C
6181
6503
2FD1
7E11
7885
1577
708E
6986
5B90
16B5
123E
1C9E
3165
6A41
2BAA
7419
5497
6748
7D7F
74AA
54A3
76B7
5B2B
34EE
2B6F
1C04
3FE5
3549
7033
6FDE
4B13
315E
1ED3
3EB7
33DF
26B1
5FF
1BA9
5EBD
7421
4CD7
7CD6
5DD
19F7
1DEF
56DB
59B4
CB4
E8C
52A8
680B
12ED
72EB
34F6
5414
5590
7067
4F8F
1D8D
57CB
33E8
4D0C
7200
2E35
7CEA
4977
28C7
492A
116B
70C5
1A
3FE4
5A62
6A0F
5BF7
4911
B22
33BD
DCA
6866
5C03
1154
38E0
547F
3939
776C
73ED
F3E
C3C
DEA
365C
27C8
11FA
31B6
7175
58DE
7EE0
539D
621C
72B6
5ECD
514
78B1
6485
2549
72A1
473
555
5423
73E2
43E6
34B9
4298
356B
33DF
720
7347
14B5
4FAB
3759
60F
5E4E
BB0
24C8
4D10
7BBB
6095
3B48
4991
7666
3E04
3F07
2B60
4DE0
3E84
625E
6E1A
3CD5
CB0
3251
1FE0
6981
4818
135F
6237
6744
3D85
54C9
6BF4
5F4E
1F32
79D4
894
6D42
1839
1255
3DFB
297A
78A8
785C
D0B
2469
3F62
1B9C
3D0F
1E7F
7E38
3F72
7895
5171
5671
3192
5584
425D
3B44
4BCA
6995
7647
3611
46A5
583F
4173
6A5F
5DC7
A60
4DAC
1A88
51F3
56E6
129B
6106
7102
5C9A
5342
2EE
4FE3
1C16
4356
1E9D
502
444E
3ABC
36F8
668F
1F6
97F
2102
4AFC
FDF
7D77
74C
C5F
54CE
6BAF
55C2
6BC8
5601
41D0
219A
6337
69FC
12C9
76FF
D72
719
58CF
7ACE
C3C
5EC7
757E
7C8D
6580
4F65
55E9
4BF4
5262
51B3
626A
45F0
41E1
54AC
6C03
FD7
641D
8A8
A30
5C69
7790
55E1
625C
78E0
6607
1985
4D58
61DC
4665
1855
138D
B99
7D4C
5916
283F
715A
7F04
11CE
DD3
2CA
6A93
390C
7A0D
170F
4EC
28D4
499D
6B90
D1B
252F
6D11
78F0
5574
27FF
5B8F
279C
7646
12EE
7B69
1CF0
6BD1
11FD
39BA
181A
2FDB
D67
E69
1D5
3715
681D
77AE
10FA
FD6
3994
54BB
43ED
46F2
61BA
48B9
6F96
37BC
563
7157
4B3A
2131
7544
5569
3FED
1DE
970
3F3B
7741
511D
26D8
3AE
25C5
4207
1E2F
FE2
3CEE
2CD
7406
7C4D
6C6E
3BF6
72EA
431B
244E
44AE
7C27
3DB2
49D3
908
6831
93D
3889
7D6D
4D6F
3E85
716D
3323
3453
5D23
1D78
29CA
4A4F
4B62
185B
1BF
675E
4D1A
1691
31B3
FE4
5CCD
3F53
999
7196
7912
6953
113B
7799
2288
707C
2995
6557
7665
45C6
6E9C
13B7
3126
413E
667B
44F2
1B68
7988
4BD6
685B
50C9
44ED
26E7
4E52
2A5E
55E0
2655
799C
1B2E
4823
5BC6
7EF4
14E5
175A
1822
7705
79ED
2E8
78D7
395C
79C7
747B
6551
168
40A8
1C55
12A4
4DEA
71CD
CB4
4936
74CE
3A10
36F8
4675
CA5
98A
2200
2A2E
18B9
46B6
1FA6
3207
3619
1F64
194
7BF1
7FCD
1237
1D01
6CF5
517D
3223
5D5C
41FF
3BC8
56BC
1D22
3E68
56ED
38EA
F32
40FD
32B2
746
5E4C
789A
F1A
2B8D
DC4
7BC7
2492
3F5F
7D6C
60D8
56E9
33FA
3A06
732B
7FE8
313D
6D59
1D65
5130
3C5D
3728
74D6
3E4E
5984
3A89
4AC0
65E2
CA4
7BB2
39F
37AD
6A3E
2A93
5416
34AC
57EB
4B26
2E8F
271D
19D
2C8F
7FAF
472A
41A0
1CDE
2721
1A11
3E94
E6D
51ED
CAD
4B48
63B8
25A8
C2A
7541
14B8
199D
1D7C
4361
3E01
1436
41C5
4726
7615
500A
34B
6EA
599F
241C
21E7
37CB
6F38
27BB
167A
3789
16CC
22FD
156F
30E9
ED2
7054
6270
5E4A
CA3
6AE
4E84
4A85
1361
2092
71C7
49CB
752E
A53
6DD4
5F3B
110E
7615
3B6F
957
6BAB
3A3D
6871
7AF7
1DA
1EC7
6FA6
784A
506B
745B
4B0F
7E4D
3A18
17D4
2EB8
58A6
1373
35C3
E35
3124
2060
63C9
3B51
DC3
68C0
387
50C
689A
3A41
74CE
616
79
7532
A57
5810
216C
62D8
7CA1
4482
6104
63E7
453D
4639
525B
707
7DC8
2151
77C2
105E
71B
31D8
43F0
C17
7527
500C
7AE0
4A1C
56F3
79ED
6491
6481
392
4E5A
1CE8
470
302B
79F9
29B2
5DD2
678A
62EA
6176
5C70
6740
CFE
3B6D
593D
9F0
786D
355
2B12
7897
53DC
66B2
1B03
4721
25AF
6433
71F9
4BB0
211A
5969
461C
1CF2
29D1
7209
1D9F
16E4
FD3
3A85
61E0
944
5F26
2E9
3466
74F1
26E8
7847
751C
B1
32D5
619B
4339
64DB
7483
2592
7F08
79C6
7D91
6E0E
EBC
D0D
6333
17A2
4FF0
7435
2F3A
556F
2F4A
C06
50C3
1569
4ACC
32A2
733D
454C
7AE1
7C33
4528
4602
6DB0
6958
1EF4
2659
72E9
6859
6805
7DAE
2BB6
2622
2E88
910
3EE3
EB3
83A
2FD2
6252
6AE
5D99
3527
656E
4231
1A79
1564
2680
5D88
73E5
B15
6C9E
729D
3A5
3AF0
6662
C11
73ED
65F
3C43
4A3D
7FE8
3EB0
386
7D5C
4E60
5D9F
6B6A
1125
397
5F52
67C8
5899
13C9
47A9
692E
6158
3050
CB
67AE
6025
64F3
6AF
75F8
5575
63EE
43BF
6F1C
4E3C
3DE1
50F1
1988
A74
3401
4C92
5AAF
1BC0
1C1C
6131
6D8F
384E
7105
6081
36CE
2905
24D8
2D9F
357D
9F9
1144
4259
5FBD
2A28
270F
4148
39E3
7E9C
1E8A
63DF
D9
11FE
1727
56AF
3525
38E6
5555
27BC
5749
5A3
1551
5CDA
510A
1EDF
4ADF
1246
48EB
DA8
4BDC
2DB4
656D
4F86
34A5
5DBF
44AC
3F92
17C8
360B
1F35
1C55
385B
2CFF
644B
4EA5
738B
70DE
36C4
637D
5172
306A
29A2
4941
291B
34D2
1DCB
69C5
6898
5FD4
67AE
95C
2221
6D6C
6BF9
4132
337D
28
35AE
7D69
3BAB
1A53
6CEC
65C4
1DB2
233C
303D
12C7
4974
37C2
2675
70D2
7BAA
2BD0
4228
7625
4D3C
2ED7
2E4
7034
3B04
D27
7D1E
5190
D32
6A6E
4476
6B8E
3333
1534
444F
1DE5
3327
2D8B
42CA
25C7
5C03
227
6002
40CB
507B
43A8
DD7
6994
1D2F
26C1
3E99
4C27
792
1D2F
6324
1431
F3E
3E8A
5892
5AEA
562
3ED8
F59
242B
20D7
2335
4E75
396C
4CFD
5C83
293A
5A1E
6DC9
5DB9
13F7
58
7902
5BAA
1164
53E4
1168
48FB
1FF4
5DD1
2AA3
3757
1342
CFB
2B8B
3FDD
221E
4AC0
53C6
1698
26A4
6D9
19C
7466
60F6
70EC
726D
3827
32BA
6B0A
4D24
7A0D
E43
24E4
2E3A
4F85
2450
749
135B
5FE6
4E82
2161
4ABC
E5A
61D1
4CF5
2A90
7F0
1C2A
601C
3E35
45B8
49AE
328C
70AB
1B99
38AC
508E
2F6C
39B4
4E7D
2567
56D2
6B97
4B63
1C2E
6403
6AD
69F0
6118
1048
11F2
6BF9
1F3C
2B77
30CD
3D9F
3976
194E
5FE1
7A42
3C77
6802
10F8
5283
331C
7350
72A2
51BA
5770
1C99
7FFD
37B9
72BC
45E7
7DF2
325A
1D8D
367E
5912
1A0E
2CA
63BD
5F4D
39A0
2C1F
5468
D45
5272
6692
62CB
7149
7A2
3056
4136
1AB7
582E
57B8
5137
323C
7183
4A64
636E
6437
91B
1B94
6960
75D5
2933
530C
5ECE
33F0
510E
3FAD
70AC
5407
56C9
57FD
3D26
6655
4823
1D8C
1B81
1AE1
114F
7E2
6C6E
2335
31D2
77F6
1123
7B2B
1C94
D7E
58EE
2185
4129
38B3
3D5A
321A
5D48
231E
7097
4972
DB7
4E7A
7FE2
66F7
2B1E
1AD4
5D2
4E7B
5EB8
2163
D2C
28A7
6FE8
6D82
18FC
7761
4066
29A8
1BEB
66C8
49FC
669C
366
1499
3E91
5D18
21ED
214C
3753
1173
5C2D
431F
42ED
3449
2FD1
5CD7
15AE
4109
4B6A
1D98
585A
687B
31BA
6DD3
67FB
33E7
1816
163F
1EE4
7ADF
5D4B
3987
71B2
1349
7F8
2A15
4B16
52A8
4288
2FDA
1B20
3346
404A
6B19
3B05
E8
67FF
6C97
2423
1129
1444
39EE
738D
4FA7
60BD
5466
20E2
32B9
5C09
34FC
65D6
7AAE
4CB1
28A2
1C02
2EFA
32C5
5A20
603C
3081
6CAA
6255
2231
2A36
3735
F9F
3692
4777
1014
3BB6
42EA
311E
49AA
D9C
3CD4
3046
3334
73A6
13D5
12F5
6C1D
3BF7
4937
3D24
90E
D53
7D91
280B
2089
442
33C
4F50
4952
4020
A23
1321
29BD
6DF9
5B00
3511
2220
3F3
7AEE
4250
F33
4D07
1A53
7CFD
79FA
3064
5ACE
1395
4512
4CA8
78AA
12A
48AE
5806
56DD
5AE5
363E
2F09
117F
787C
5CBE
3713
6A5C
46FF
218D
266D
58D3
1DBD
1657
444B
1B96
3D6
5AE8
7E52
3FD7
6810
4D00
4C09
689C
1578
4897
5F50
7C96
21B
6F7
5BCC
1465
31BB
7690
5C0C
7C8A
37AF
6396
23F5
2981
4E14
5CA9
7B21
4D50
5329
3C8E
6AFB
6DD6
4F05
245
2ED4
3928
45FC
6C50
596F
2F4D
2B84
56D8
77E0
1B09
1457
76A6
2A3F
665D
2808
6ACA
74E9
4587
5CA8
C4
1486
3289
250
14E1
7710
1787
5DC5
D6A
1542
F52
4D0C
3F15
366C
7E22
579C
2ACF
7084
7DD2
65DB
11B9
4184
E19
7990
6D96
26F1
7669
4D99
76C6
8CE
2AA7
15C9
2E06
583D
446F
1B6D
3442
3DA0
6565
3F31
1D4
BEB
1A99
112B
5F5
50BC
40F
114C
4A94
555
603C
3C87
4A59
37C0
117C
4067
361D
59BE
3D0E
1DDF
2C22
7455
5607
30D5
59A9
16
BC0
EA1
226C
46BF
6169
1803
753B
5C6C
729D
710D
AD8
73BC
2FE0
4FEF
7C5E
75F3
7C1A
D81
CB5
6C00
CDE
7D6
1020
3356
3BDC
68D7
459C
54A5
2FF3
930
225
5DCF
4401
2BFC
71B7
62B1
63C8
2235
30F7
164A
2BC1
706
29BD
1FA5
499
19CE
259F
2E3B
1A7A
3D44
18E5
6FED
729C
7F52
533
6552
6B66
49D2
2A95
4E29
6F61
1D9C
3A47
7177
23A5
2C70
4BAE
2E77
2B76
2C13
32A6
47F7
4A54
1B70
5CEB
1CDD
3FB1
3C81
7BD1
7E97
1586
518C
3256
39CF
2BC3
3432
6E81
22CE
2075
250
7FA7
D0
36C9
7C1
30E1
9AB
5894
1681
4B9D
6C4E
53A6
1D1F
2F68
4CE9
389E
3E0D
E61
E14
2EE7
3F55
656D
788C
3022
4B5E
7CB2
734B
29C4
6B6D
737C
79F4
2369
75BF
371C
4060
2BC9
629E
4D41
51E9
714
50B3
7F21
4565
748F
6E84
5807
2138
159F
5812
136A
53B6
2713
4596
539B
6923
62AA
7A71
D7F
13EF
5D13
57DC
4076
40FF
5FBA
247A
49FA
5A1A
2674
7534
5FAF
463C
40AF
1F57
68D7
2112
5304
3D58
73C4
3D11
229
6FE1
5C23
5504
54CB
3353
26F7
2EA8
6CA2
340
6235
4E50
2435
40A
2AE1
58B8
6C01
FE2
46F3
465D
5F5B
5206
5C12
51F1
42E6
56F5
689B
75DD
77E
381A
7C3E
4D5
904
39E0
5513
6BBE
96E
6C6B
5EAE
4383
BC4
738E
3C44
9D
7F1C
4145
6917
B57
F05
2A2B
7483
49AE
58E
2A21
31B0
44
3351
4F6B
188D
4162
7F41
E46
485C
35DB
7FBA
14CB
12A7
5F52
336D
18F1
4FC1
6FEE
250C
4FF
4ACA
7F66
131E
3C47
1944
1B4A
8B9
6B9B
81E
42B4
44A6
4588
63F
233E
DD2
4C6
6D1F
59CD
6606
119
55AA
303E
5EC
758C
7693
71AC
4417
674F
2E3B
4CF2
42C9
39BD
6109
1FFC
3483
4D6
5F91
1967
3DE9
EBE
2E29
11F9
17D1
52D2
58CC
11C7
38CB
4E10
73B5
650C
76
4434
7DCC
4964
6E61
559C
7C17
309B
16B5
3216
2614
5A73
14BD
2C96
358F
4BF
21E3
430F
3E4F
55F8
54DA
680A
2D62
48D8
308
5538
6BBA
4225
22C1
6738
67C5
EF6
598C
1816
288A
58D7
8C4
65E7
49A0
364F
79B8
3E30
A46
2643
5CA6
5D98
3998
6246
7B43
13AA
19
7AFF
1F3E
37FD
7E9F
5680
917
6403
60C7
3733
5CBC
3AD6
7E5D
28EC
27AD
4444
556E
9FD
5F84
7903
7A62
6C49
7C0C
591
612A
55D9
84C
77B
7D1F
512A
ACD
7FED
5AE8
3FDA
4B51
6D40
7AF5
6F8A
385
74FF
437A
5EB9
1FA5
7F8D
4080
4F12
2F6C
2FF5
4884
58DB
6377
324
6883
6EA
5824
6460
7E47
4F53
18BD
490A
1E8A
7129
32FD
841
41B
4C74
5209
6876
64C
207
444A
730D
79FE
446D
53CE
152B
3EFA
B8B
440E
6D54
7771
249F
37A2
556F
1E8B
4DFC
5CE5
C3F
6F6A
49D4
7933
23D1
549C
7D4B
4A04
2E8F
7DA7
653C
1FA1
3748
474E
6272
421B
349D
510A
3716
70F9
723F
416E
751
21B8
10A9
6541
42A4
1A06
2373
29E3
B6A
1C69
3054
4722
E31
6F5
1A3F
292B
49AA
308C
652D
1ABF
5CF7
6446
206F
6D49
11FF
27E6
7B35
59B4
71BB
2D16
6ECE
25DD
479E
74AD
7481
4FB1
3182
6A1E
7059
7840
671
F0F
293A
1D85
66F9
1DDC
3CE3
1074
3DAA
470E
5657
1D36
1815
30EF
4DA9
3A2C
36D2
7F40
2DD5
4494
14BF
7686
2A32
4731
3495
7322
6527
7012
211D
2C2F
3F13
40AF
4579
65CF
61F4
7212
D0E
5EB8
7912
7EE6
6F90
1AEB
A99
E97
5E8D
6DA8
782B
78E1
780C
525C
114B
6A7C
3014
371A
1164
5F49
7F8
13F2
C0E
3273
EEE
57A2
4295
6E0F
1261
78C4
4CEC
70A1
4E0A
6FF4
48A6
1BF6
3084
C65
73BB
5BE8
CBE
1456
6723
7518
36C5
316C
6DC2
60A9
7372
5790
1BB3
6BE8
44E5
4D7D
59C7
3D3E
4A67
C61
15FE
5082
32E
7E6
1F20
2251
71D9
122B
3236
CD0
7679
68AF
5BB3
7E18
5C5A
52C9
2F75
1BF1
4801
1287
552E
3B9D
582B
545F
2F5E
3C99
719
65DD
B7D
27AD
6BFF
631D
3B36
70E9
4FA8
7579
4C60
4873
5673
36FF
C17
5CF7
1474
3909
6B2
264D
2596
3A69
7593
9A3
433E
1CD8
7278
353E
141D
37CA
4402
123C
5194
7E18
67B6
5086
65ED
21E
4769
5992
5090
4136
47BE
6C95
449E
DA2
7421
1F0C
18E7
4A9B
2F3
1C25
2440
4446
1B2C
522F
7D02
1EBD
6C05
469F
230D
425A
6F7
477
4FFD
66CB
56DC
4D7B
2FA5
3CD1
33DE
744F
6F23
7FC5
3123
68AD
BB2
3B46
48B4
4A9F
304
314B
576
3092
1133
6878
561E
284
2A6F
6B6F
40B
71A2
5716
BDE
33EB
55B5
5BD7
2F28
1DB1
44BA
31A7
24AC
505D
3E7E
1D8F
1A02
4060
6E10
75A9
2452
7A5C
4EA8
1AFE
BBC
5E24
2F3F
7AA9
364D
1AB5
635E
70BE
6DE1
5A7B
45B
456C
3DB9
12B1
3AA9
796
12A
57C5
6075
278F
48A3
1060
46E2
1793
41E8
C6C
7997
3F95
628A
519B
1985
33D9
339E
16A4
39A1
7DAE
5E32
5FC1
2031
6032
1336
1B09
731A
324C
3112
2938
2C50
6019
2B5A
2ABF
72A
3BB5
4767
5CCD
6D2
93E
5794
24B0
4FA3
428
47BA
1AAB
6007
124E
5592
E00
68EE
7FC0
3A67
5A27
551B
7595
2607
65EF
7DEB
6F4E
523E
5BD7
1782
554B
492E
151C
49EE
2BBB
4011
3C15
D89
2D0B
43CE
3AA1
6755
1D1A
1E0F
713D
C29
C06
1106
2961
7F33
261E
3E1
633D
75DD
7679
6D6C
6185
450D
7DE1
4D9D
FB9
69B1
552B
52A9
32B2
7BB7
3071
346A
2CED
38E
1DA6
5946
2D08
3FCA
9AC
6944
4C40
18D7
7D90
29FC
6D01
493D
431
1BD4
3274
1DC9
BFC
578B
2D58
1032
D6C
7FA1
1BC6
5CC5
117B
619D
2CAE
66C1
7A5D
5E65
165B
10BD
5A1F
1EE7
3C8F
5770
6B99
7405
BBF
7844
3315
52E3
1003
116
78AF
36E4
4143
34AF
4129
3EA3
4F1B
792D
632D
6280
73F
28DF
4BD0
212E
6C7E
6113
37D9
7D93
2BD7
16F2
C2F
65EB
6C3E
1C24
1B97
7605
28C5
58B4
38A2
AF0
3209
68C5
63EE
4764
2753
27D6
51B8
90C
6F10
42D8
71F7
56DF
7CE4
5E43
104F
4106
3D29
2BCB
50F2
5E39
74F
55D6
7ACA
B52
3C5B
362E
3D2
5569
5893
413E
7B85
1890
5959
824
1796
5D57
2F39
2BB8
7F85
6390
4012
54B7
30D7
1D3F
792C
5C99
2AC5
1C1C
2D21
3111
4C3A
685C
349E
205E
2516
544E
6E40
53DD
7CED
40BF
7E57
1896
11AC
2CE8
2356
F9
6687
5FD7
67D4
7D6
2FE5
61DA
13E3
593F
4B6B
1E07
5841
637D
7D30
6D5C
2C7B
6367
3A6E
694
69B0
4795
483D
73FE
E63
3EE9
33BC
2349
186F
4401
6C5F
38B0
2A19
6D45
1D85
5E0F
4899
7EE7
72C8
F99
7984
4589
2B9B
353F
742
17D5
237E
35A7
4CFF
5761
6C80
3093
3F52
495F
6D85
B02
5DDD
476
3C1E
33B7
EB2
772C
1FF0
A4
663C
6A45
8F6
7C5A
2CEF
21DA
677B
1616
231D
1AB6
2BF1
29F0
2E85
2532
264
72D2
64C1
26E8
8FD
532E
7C7B
F1
6E60
D70
1F14
541B
3CDB
7A0F
41F3
A7D
4A8F
7FC7
4E14
444A
7AE6
5AF6
4B66
22D9
2822
309F
B4F
4ACC
1CF6
3443
71D
76D4
32C1
73CB
5E71
2528
697C
627A
4F4E
CD5
577E
620B
7238
EB
13E9
1354
67F8
3583
4A9
4B98
17D1
57E6
2CDD
561E
7354
742E
6E7
720F
C1D
661C
4681
1172
365B
695
7DC
4258
7B99
408B
4D51
4682
2FF6
5071
1490
35C3
2664
2C2B
7C97
53F8
195E
5B8F
5D0F
4670
1EA
7188
509B
2E4A
4076
1242
1FB6
6BAD
1D3C
44DC
41A0
8F6
3340
13DC
7F1
6EA2
250
6CEC
40E
6B74
5614
5985
158F
ACC
2A4D
5F60
511
34DE
14D
75EF
17EC
5BE3
7B34
27AD
7A1F
6BCC
108E
41FB
7761
4AF5
434B
E0C
4A88
58A0
280D
69FD
3DE4
295D
1303
3DD5
7A21
55B5
18F9
1D19
60A7
3262
312B
6860
7E24
4C5D
7BFA
7285
4106
3FE4
192A
1C48
32A9
6127
189C
78C6
716F
5FAC
548A
17C4
972
4264
6817
71A4
3034
6EEC
70EF
1483
4FC
7E53
C84
30B8
44AB
6D2E
4525
2ED8
7109
4E94
1351
3A8E
3712
29D6
2F1B
7AFE
3F6D
2401
5739
6384
503C
3752
5668
3DE3
21C2
5A9D
2F0A
4BF7
68D9
74D6
3ADF
EA3
221E
359D
137F
760D
5782
6D1B
4D0D
74E5
3614
1A10
6906
7979
7C0F
61AC
4A16
4AED
1541
1068
2969
2CCA
2709
6EBE
49A3
35E
1F1B
557
3567
70C0
4BC
3892
455
62B9
720F
7208
6641
1953
3A8D
6D5D
66FA
6E81
E17
2F81
2882
1A2C
7A33
590B
1841
3002
97F
70C8
78D3
51B4
4F0B
2EC3
50D9
74F
606A
54A5
1D2B
2F8B
7FBD
7216
504B
176F
34CB
129F
1E8D
2F06
26E2
1244
14A3
73A4
4794
2E94
6AD4
7DB4
7B5F
76A3
795
6613
3600
3F0A
20B
2802
64F7
6FD4
25B2
87
4383
74D1
67CF
5DD6
A0C
5ECA
5617
8EC
4093
2B69
7AC1
3C62
7C0F
1595
7B
73CD
7762
A6B
BAD
85C
6BDD
553C
31D0
6EE7
6466
37DE
1A24
3D2C
2DA7
250
5DEB
210F
288E
6509
7634
3DF3
5196
623F
46DC
7623
2B21
4B44
4C5D
6EFC
182F
7D5
750A
4039
3120
3321
6339
603D
3109
775
672D
3514
102F
1C00
10A0
6E2F
4D5
501B
1E0D
725B
7AD9
28AE
21F8
7D45
51E0
3D95
2D5D
7020
6FF2
C78
CA2
4964
AD8
2D27
7359
51D8
3868
5CEE
40B1
39C7
302F
3A9B
724D
55DA
4530
21C5
2B0C
3D34
2193
56EE
804
437D
28CA
1419
2F02
2D22
57D7
45DC
54D4
6322
30B
2E1F
2340
1A26
345C
2268
71EB
1AAE
531
40E1
4E29
4D9C
7955
4E3E
7042
69F3
3E9B
7D8E
7297
6A43
6CFD
F73
4238
2F71
1A53
3500
19FE
5AFE
509E
19B7
6611
372E
2F32
1C79
742B
255C
34B3
75D2
691C
1B20
2AF9
2289
3BFA
7E55
22BA
1C45
60DB
193A
421D
709E
567B
3313
124E
20FD
FF7
60C9
2466
6691
688E
5399
79A1
5A6B
6BEA
7772
77B7
32B2
7994
551D
5152
5427
6BE8
BD8
20EE
382E
36F3
404C
768A
DDD
3D75
4DAF
30D8
251A
619B
61C3
15CC
1089
2592
7F4D
4C15
151A
14C3
3E1D
7596
2FE5
427B
5601
2B3F
3B52
409F
1DDE
7763
55C6
4BD5
5341
6493
5212
3006
6012
381F
14A5
3094
4D1A
1373
6BF3
57C2
B86
3D24
2268
7F81
3CA8
2893
530F
37B7
7C89
5D33
C6A
2525
6B1D
1CBA
6C7C
571F
509
3EB4
A95
3485
119
2618
21DB
512B
62
7B94
3CFD
31A4
578B
7937
461B
4A20
1CE0
9A1
F19
73C8
22F6
1795
FDE
322E
14FE
790B
22EA
665A
64FA
51DF
518E
697E
4E4C
4E1D
7258
1740
7A43
6C8
4C23
4BD
479D
1641
478F
4FB6
63BC
3DC5
6888
627B
5D38
3A0A
297F
29D9
774E
2409
4F15
2E51
2124
610A
3851
49BC
3564
3B45
13BB
22A8
AE4
7EB9
28C1
6656
387C
1804
C36
74BC
7AFA
2B5
4FD3
5DC0
31F6
97E
25C3
1484
5623
5B01
CF9
44A4
2106
2437
69FE
489B
49D6
35F1
34AF
3B55
5CB8
32B3
208A
E42
33E6
5912
6443
3FE6
6678
5D82
D20
7672
799A
33BB
33E5
7908
189B
5C89
2B3E
952
31F2
70D5
79A1
59AA
3FAC
4246
58E8
4EF8
7FD
18D7
56AF
1207
3369
3F6F
550D
6165
2B8D
466F
5D84
54F8
68DC
148C
68B4
5AE5
60E9
7B6F
38E2
A2A
57FC
629
8E8
5E27
21C9
1AD6
7020
32E7
67A7
6B38
95
4C02
1642
696F
596B
616E
3BFA
36E4
1E0D
4D14
6F15
44EF
546C
122F
7C0
70A9
45BC
7428
37CB
2FB2
154F
644B
5B3C
787F
4B57
EE
820
186
363F
21FC
1553
18F
3B47
71C9
5A68
35A0
2C87
2AE3
5480
796A
247F
17AA
6A06
6C48
4F21
7377
2A4E
1D16
CE9
215A
2F75
55FC
4800
3A4A
629E
A9E
20F0
34AE
597
347E
2382
891
4B91
35E1
3F3B
327C
4D04
7E11
6290
284C
3A76
417B
2BC4
506B
1B7
4B1E
2CA0
61C1
5858
D9A
6802
1520
5717
2866
7623
4371
797D
4ACB
4CD4
29AD
5F2B
59B6
49F6
20EF
3CF9
2040
1995
1BE3
3C00
16B3
6FE8
2B5E
7AC0
D2C
B34
7E3E
2B96
625
71FB
7A29
3EE5
195
4FAA
6CCD
35B2
4311
7609
7DFE
5740
5494
5420
56B8
6A7C
4DB4
2B8F
334A
42A1
4012
7C3E
612E
424F
4E7C
19BE
7DE8
1481
5AE5
3287
3ECB
4EE3
4D45
11E5
7438
4FDC
EE2
3821
B3F
376F
5B14
7BF0
3BBE
7310
2176
7710
488C
4809
2BAF
AEE
3DB5
3538
224A
5B03
71DA
3FCF
566A
AB3
290B
7E1A
6487
3738
52D0
33A2
7D9F
60D9
582
7EFC
36BF
5FA1
700F
24F3
DEE
2673
292C
620C
4586
22FB
3917
5983
4EA
117
4095
179
34A2
427E
231B
51F5
3FFC
5479
7C72
2EFC
6567
528B
3C63
2FF1
1D11
2558
3369
30C4
770B
6BA8
58F9
5662
4D5
2872
D2A
28E6
4B9D
5644
10E5
590
3655
363F
4E0
5BBD
598
3B43
60AA
3FCF
7293
1C07
DC
13F2
7A53
3301
1CF9
5679
5D94
42A5
741F
31D1
4491
4E5C
2E5D
4D3C
2ED
1686
23BF
56A8
180E
5388
767B
1730
4218
4A2E
11F9
17C9
DFC
6D9B
313
7E2B
708B
52C6
7F15
1A94
408D
23D0
42AE
3FEA
2186
609D
2FA9
3A1B
5944
32C1
12FB
68FA
316D
4349
3E03
1937
1833
4DED
A99
65D7
7F92
7991
7F4F
7617
17CE
BBD
4365
546E
5173
5B03
3795
2C97
685B
C83
4121
2B2B
3553
4C64
282B
1784
2ADE
4569
221E
30C9
63D1
735D
212
1194
2FCB
29DE
2EBE
1D97
7EF4
2D37
3A93
601C
D8C
5104
6B90
268C
6C4C
5AA5
70D8
4EB5
288C
540A
344E
FB5
7ACE
6C47
3529
C41
5AC0
6156
5903
5340
339F
25D
2AFD
2467
20D7
78D
50A0
271F
37CA
3657
3EA5
6657
76E1
FF1
2EFE
7583
6323
15ED
77F6
2601
7086
4CD1
7810
70FC
4B01
24A7
332E
5256
5B7
275E
7435
C14
715C
64E9
4B32
6F18
1796
178F
7F0C
24D3
5D7B
4C29
79D0
173E
7DD1
936
562
4204
1C3C
557B
136E
5579
7E60
7FB9
123A
6C56
2A1C
2BDB
6210
3B54
7BCA
4C40
4F88
7C4
7F3F
70DC
4C6A
187D
5A6E
6C87
B06
1F9A
373E
6D33
3AC1
3CE2
29B
2AD
7FD8
4AB7
45B4
332B
4C91
1C33
7D
4DEF
2A6C
6CF0
62B3
1375
5EB9
2182
7F30
6950
2104
55EF
4BB0
8E5
1731
2981
2675
7AA1
1018
5344
5405
5AFC
2A61
4F7B
6081
384D
1867
6CC1
4CDF
147B
6CA6
111D
42D0
4DCD
3599
108C
5F5D
3712
7AF1
3175
664B
59FB
62CD
96
4F6F
575E
3D77
7E98
2488
3DB6
6AD3
604A
1650
DB1
469
7001
5F5D
5584
2E63
7730
5F69
5282
58D0
15F4
27D5
1572
48FD
2455
5533
2818
21E0
67D6
455B
45A0
B0E
233A
3E61
CBD
714C
51B8
2F7F
86C
63E2
333D
2BDC
3A2F
5A90
1402
356E
7EA0
11C0
6FF6
62E3
7127
25E6
75F6
10BA
4A39
4EF4
1837
113B
25D0
1DEC
4B77
5F27
1C88
57CE
6D63
74A0
7A98
23F4
1B4F
6146
1F2D
5927
2B86
7330
7C43
27ED
341D
1172
6839
39EB
750A
E2C
5043
4B2A
450E
4526
22B8
3E2C
3AC0
6730
7E14
799D
4CB6
624
4101
1DD9
72B7
264D
66A8
4050
532D
5112
123D
2927
1425
4CC9
14A5
2CB3
3FB1
3879
5153
1C79
4E58
4F7
3CA0
339E
594E
5C8D
2D95
33E1
2FA9
10FA
7788
50BC
6ADD
6D63
18A8
73D5
176
79D7
6584
2167
7486
1BD8
3D4E
2614
6F79
5C27
419
17B3
89B
C8C
2B2D
37F4
7452
18E8
7E9F
101C
473C
1652
7555
4C17
215C
6B9B
1F20
794F
1DEA
1BE9
44E3
28CB
7C91
4C79
74C2
36E7
5132
5CD7
6CBF
45D7
5370
5F32
2C2F
7354
3A4A
533E
25FF
CFB
6CAA
791E
224F
5DE0
6D62
27B0
3868
3306
5C49
3606
72D9
75ED
34ED
7C82
43D4
301D
3CF0
EFB
3316
38
1594
1E82
5AB1
3BC7
5436
47FE
EE7
5BD7
56C9
29BB
189A
531A
6FB1
8B7
2491
50D3
3AD2
7F29
A35
3AB7
38B6
5A7
8E0
1B77
53C8
66E1
52AD
2FC8
1A42
3BDC
1B99
68C3
60EA
797E
3CBF
4A80
228
776E
4FB0
2331
35CC
292D
548C
5E3
7E85
5848
4F42
294E
7333
4880
74CC
6174
3AB9
579D
3EE0
5F8F
726E
5734
4C2C
3A33
1853
19CF
1C7
20D7
7C94
65AD
1C18
6BF8
5FA5
1EAD
7EB8
3D3E
23B7
6230
14EF
3405
763C
6672
85B
7185
7E65
49C6
2F69
796D
5146
14C
2040
3914
88F
593
1E16
4D32
1FA6
3302
797B
5E69
AF3
38EB
3BDD
2397
3B32
663E
2B72
6951
274F
7461
5DC6
4817
175A
53C1
7D2F
110A
6CD6
6978
6F26
283C
3603
3BD7
2927
3123
7441
31E6
7B34
163D
1315
1A15
2870
607F
31B9
1CD9
EE5
F1B
23F9
43C3
5C49
4C79
43DE
17F0
6C21
5FED
4244
5AE4
5618
2C8F
1790
5D6F
2383
71E6
64D1
6CE4
6783
3DA1
5DF1
56D1
48A0
1617
7C15
69F7
28B8
1FB5
7DFD
6264
FF9
C04
1C8B
6A51
5CF4
66AB
3CE9
5248
3AD6
21A4
6E62
2DD3
5782
BBC
2572
2A09
7A7A
6B8
3C3B
3CB6
504F
7A1D
45F7
7240
6234
3653
3DD4
12A3
1EAC
3D2B
5FE1
3E1F
60B0
3791
12B1
6D88
6924
DE1
375B
5C33
79B0
43F
1CE4
2C01
3E38
7860
70F4
592B
3C44
2C9C
4BBD
53FB
689A
4ED4
5C56
7D88
7A60
6B82
606F
2043
7C0
7FC6
26CC
3FFC
2131
6465
3551
7C93
4382
6906
39A5
2901
7488
4E19
77E3
390F
4450
43DC
4152
4A98
7E24
3480
6F44
3753
7A08
766
7869
46F1
4BC9
5DB6
6C7D
1C30
2C66
721E
741F
1028
49D6
265B
7A36
22C2
7AF9
9D7
4FE4
723B
214F
6018
43AD
139F
6A54
6094
34BD
7103
73B7
5DF4
5AB4
3FCF
82E
781C
69D5
61E7
5C7C
F2A
1A33
3079
13CC
5F39
26B6
427C
3089
4A0C
6D1E
391F
3090
2B66
E7
3A5A
1357
4CD8
6F63
5A55
2C57
66DC
62D1
3FBE
20E0
1D9
6160
4ADD
F7D
2F50
16BF
2C1F
8DB
213E
61D5
5A83
3603
2678
2ED3
2AD2
5A1
5474
6786
850
2F55
47E4
2652
6D25
783A
6456
44A9
6206
3274
1311
1894
1F9D
6221
6744
5F09
690C
37C1
7B27
7127
A99
2957
3799
4843
1B24
784C
6692
7806
66E3
2150
6D2
1150
4C94
1206
4338
5CC4
19A6
6300
6F98
21B
334D
18D1
32E2
22BF
843
7EFE
5FE
77F4
1675
5FE
1FAD
2F35
4044
3DBF
57C
1320
71E
2EE3
3A8C
44E2
5920
6856
6435
104E
75B2
68A
5E5F
33D7
B02
1554
260
28F0
7CC7
1161
14F8
126B
7104
25E1
D0F
33EF
58BA
403C
7B98
6FAD
48D2
34
6713
33FC
3B3F
4F79
510C
4BCE
7E5F
7D8A
468A
4A72
3735
2164
61B0
4C82
5AE6
1EFE
2EA7
13E0
3009
67FF
E8D
2F90
3015
A8
385F
6DAC
C20
16DB
1A4C
2266
211F
50C4
2B18
1604
695
259A
6CD2
370C
1959
6504
1439
6D66
680B
216
88B
7A95
7DDA
27EE
29E4
7FB1
1C75
483C
6352
B3A
5B3B
38EF
787C
227D
2473
37F6
4D5B
190E
7D65
2978
386
14D3
217C
751A
2130
2930
22B7
28CB
71AA
61A0
4737
64AF
5D6
7595
330F
782C
5E97
727
3637
68B7
1EA8
3D6
3FA9
702D
A7C
4AAF
1D77
280
7B5
27F6
B89
3617
4688
1795
281D
6291
7BC
5875
1DB6
181E
7A3F
4EB6
36B3
6FA3
7A64
654E
2913
241C
1B1D
5DBC
37DA
6CC6
6BDC
2637
3E77
601F
429C
7065
612F
7436
52BB
741E
1C9
7EA4
602C
17C6
E64
1DE5
6B6E
6FB9
3B59
1D8D
6723
3431
62F1
FEC
52C8
5B7C
21BC
30EA
4ACD
7E9B
7CAB
8A0
159F
2AC7
1ABA
22AF
2639
121A
1B8F
3643
7AF6
3212
70D2
28C2
EB6
610
4C0B
3420
6A8F
2C24
15BC
293E
1D64
6045
689A
74A8
534F
55C4
11B7
6013
507D
7FF5
25CD
383F
17F2
7289
2AFA
1EB2
7360
5710
6E61
2266
5F61
1F86
469D
4780
7EEE
16AF
218C
12DF
32E
6F67
7BD3
6863
29AE
16A7
5B49
633F
30F
719F
EF5
5D3B
4291
2308
2227
6DFC
448C
5180
1AD4
4C08
4775
60B1
448A
49E3
158
2ADB
2F67
6F59
472A
25FC
33F4
27B5
1F1C
4119
6775
517
3599
7195
71A5
7C41
4968
EE3
D96
4C55
263F
4F30
47B5
642
2C04
98B
784A
485E
680A
7F6F
49C
6783
51AE
4C35
60E9
942
641B
42F0
48A6
5C9C
6E3E
5357
3521
79A2
6DC
1439
639F
6B56
5463
6079
6FB8
3E77
4751
7
5A6C
76BD
7052
59E9
61EA
1637
3D62
5D26
9E6
49AC
1460
53D8
6E65
4106
32B6
4533
5F66
65AF
4505
3265
6B3C
2300
42E4
4284
122E
4D23
7490
468E
33F6
1D8
3ED8
17A0
353A
5641
75FA
32C5
747D
C21
31EC
6698
7C55
49BF
79C1
31D3
7B8
2DFB
5682
7741
6DB9
31B
2C60
5D0B
66B7
6E21
52D1
7923
3C83
5F8
4334
5AEB
186C
4838
790A
1D20
2D47
74FF
26A
7085
4089
3BB6
AE
7916
1A9
1C78
659A
3526
26A1
1AB7
2A92
5869
4E57
683D
EA
359
604A
767B
4448
71DB
697E
19C8
3F1D
1B35
4B57
1EA2
52D4
5C2F
2CE1
2AEA
A8
9C2
B91
11B4
473E
106A
1F48
6260
3D64
5740
AC8
49A3
A0B
3CB5
25A3
2518
6F65
DB6
75E6
5729
66A2
5D0F
1A93
3A69
1CCE
539
2580
4665
20B2
660C
5B70
4345
1B6C
4215
74B1
11A8
6BBA
49B9
6A07
31E
3A2E
7C62
123F
7D3C
2158
519
41E0
6C17
4E9B
5084
3BBE
6141
62D0
3DB1
3B66
72D9
1EA3
24E8
1B73
101D
24C8
1331
11B7
2D22
79C
59AD
3154
3A77
1ACC
134
7443
7ABE
48C4
453C
1587
178
6F83
6B12
1A94
1543
6E1D
5B92
141D
2924
5738
7923
53C4
372F
4E11
7C5E
5313
341C
69CF
6CD1
498C
304D
50FC
703
26E2
1EC2
3F7D
6D3B
F41
5F43
2F1B
12EE
4C9B
756B
5F60
2250
7ED1
5DE
6D31
516A
D64
F3B
1118
797A
4B77
7EB5
1B65
1E4E
ED3
6331
7D6A
377F
562C
13F8
1266
3BA6
2ED2
6E75
2A4C
4A73
7850
2293
397D
70F3
6020
234F
2DD0
45AA
62C8
B0E
3FC0
5DF6
13F7
3D34
763A
C6C
115
1DCD
219C
52EF
283
1691
264
3FF2
6883
275B
7951
3A01
668A
271C
6A2
7862
3C03
62
7129
145D
7C18
7931
7089
747A
4032
15B1
774A
46FE
4492
373A
5D9E
5286
3659
470
3F34
50BF
6E65
5A08
787A
71FC
5B
3174
D39
4973
6FCF
7C98
6FE8
7D50
91E
5A23
636B
746F
4E1A
4033
5362
3060
426F
2B70
129A
24BD
7E3
2748
28D1
2E4C
34E9
1B44
100
F62
500E
7CB3
654D
3E09
766
49A5
7681
1934
279
198C
5C4F
538B
2387
22F0
15DE
4462
7B08
6DD9
7CA0
52F7
5374
5FBD
4772
2668
7B76
725E
19F
7BB4
531
7AEE
6607
4733
4DF8
2D78
A5
4A48
314D
452E
6568
4E6B
4BC9
1C64
763F
6A4E
7E4E
508B
543C
732D
52A9
1B3F
7D47
7257
7987
4EF5
4B02
4C07
49D0
2FD9
59E9
2EDF
978
4DB4
2930
4686
3A00
60ED
21B5
70E5
330A
7645
3DBA
3B46
50FE
17EB
17BD
F9C
38EB
54B
24F9
128E
58D
6396
2677
55A1
378F
3091
A4
3C48
7E46
4F5A
7DDF
79E
1081
7B51
38C3
33E8
5EE0
34FE
19B2
5027
5E4C
121F
18F0
6D2D
1F1
6D4C
7B6
779E
1805
4143
5416
1FCB
28C
420
5F13
72CD
55D
734D
5810
2E98
589C
F61
5276
11B6
1E4
1DB7
2F20
6DCC
58E1
7EB8
6599
51D9
7A4E
2D20
2075
487C
7619
5727
44F5
5B42
216F
6D29
5F97
58EE
7DEB
64F1
7CF3
4333
2765
7702
47FB
2E57
5E3D
75FC
4577
BF3
5741
7543
66DE
7AA3
DF1
4DA4
41
3A2B
1A19
562B
48BB
329E
5419
5FCF
54A8
4D11
38F5
30AB
EEA
13B0
1213
72B9
4F3
43D8
5EE5
4F7B
7CDF
3604
13E8
50BE
6783
3274
1F34
2A89
5FCF
F70
4A37
712A
4D50
5F74
C34
795
8C5
227D
4CBD
3C3B
2C5C
3B5A
D19
54BB
3653
5AE0
4955
4808
1DCE
38C4
23B8
1F0F
450B
3A7E
4504
675C
5ADC
333D
7F1C
7178
65E1
5E8A
3E2A
E6A
1760
6AB8
2FB0
4BA
2F51
3EFC
5BFF
3247
23F5
6DF8
7483
6538
7FC4
6565
DF9
10A8
64DE
7620
5A54
3021
724
6FFB
6ECF
2AE
427B
33D8
1640
2508
1C77
74A3
3117
6736
7D4F
AAD
EB1
61B
7338
393E
11CA
4A00
5ADB
56F4
71F7
44B4
AD7
3E43
248E
7F
4453
1794
5F70
3772
7617
373C
267
63F4
16B1
6B80
6A3E
6E56
6DDC
5AA6
12A4
226C
423D
2A59
2780
CCC
3FE0
1AB6
644
5A5A
2981
182C
2A1
3286
71BE
4E27
3BEA
41B7
6A0E
1704
4AEE
6D23
4904
47E2
5E26
68F0
3626
7DA0
197F
4C14
F73
2785
7861
2D31
69E8
C11
789F
67CB
316F
997
5AA2
58F9
2E07
229
4065
1ED0
645E
2716
5BD
5252
7229
6CF2
1D1D
7DD1
2DD1
7D2C
680F
562A
1F43
5E13
536F
3BB4
1094
53C2
2B5E
3189
DEF
66CA
2D43
3D6F
2F47
2806
6FC3
19A5
7F8F
7CBB
5791
6E69
399F
6694
129B
352
72D1
5BD7
5BB3
5251
1592
2783
47A7
6AF8
3891
2155
A24
5DEB
28E0
3993
1435
2D67
CE5
57A
A35
1B3
5843
1BC3
2FFE
333E
1144
752A
1764
1F1F
325E
74AC
372A
652A
30D7
19F1
1CCC
6283
1C8C
2588
6B9D
3920
2E67
623C
35C2
7839
95F
4302
1F01
706C
34FA
4095
765C
32CB
4857
9FE
5409
2312
7BCD
3B9B
7B15
72F6
133
338C
39DC
2CFF
1C7F
1BAF
35B0
65EB
4EC4
3048
902
5B47
3B72
2965
5A75
2083
5590
3FCB
5986
6FD6
6C6F
323E
518F
538F
DE1
5A6B
66CC
6883
35EE
379C
4A1F
792
4A88
3D70
5B99
64A9
DD6
3313
614
7FBD
2037
210B
5FB8
7778
24A2
2CE6
6FBC
1CFA
53F7
274C
1DCA
3EF
371C
5C3C
6627
2A75
7E2E
2EE4
2CDC
D4B
3860
3045
1665
39D2
5386
61A0
1C67
2E73
958
5A10
7E93
230D
7227
1794
5A4D
5A74
7A07
2E8F
6AD5
2D83
B15
563A
DF7
2135
7A47
39F3
78E9
6D57
2499
5DAC
5F27
340D
D24
127A
3533
398E
1C84
4E2C
39CF
3D01
3BC6
FBD
4525
2D13
76AB
4BC2
131
41A1
251B
7791
7C12
4F70
4A62
7BB7
FAB
38DA
7D5B
1EB6
649D
291B
4C77
611B
590B
26E
72E0
26CD
36CF
151D
2A40
21A0
340B
D73
3D7E
6681
6125
76DE
4914
97D
3F1C
4B1D
3B39
564F
66
6326
750
206
42B4
646A
1BE2
16E6
4A23
751
3F71
36C5
56AA
5041
34B8
4546
46DB
59A9
174D
5A45
491D
4EB9
6997
B03
31C9
661E
7357
3DFD
3D0B
3F72
72AD
4229
3E0
71F5
25CA
3E2C
3DF8
52DE
3B42
3607
221F
B2A
78AE
3FB5
7604
893
552B
5835
74CF
6104
38
2272
6EBB
78BB
6C93
4612
548C
72F5
4574
45AF
3C3A
6261
7561
16DB
6D65
BF6
442B
51D0
DA2
5442
7C48
5224
2C6
45F9
B60
76C0
6898
86B
1AC9
292
336F
FCC
104A
4FCC
2063
7653
3058
B36
5934
68E4
78F6
720D
58AE
382A
187F
3DD1
2946
8EA
1D06
2E72
16ED
3D99
184A
7080
3EBA
71C1
112D
720F
4C88
65A4
2A8B
5139
CE8
76A3
4FC2
451F
1DB4
20F2
EE9
7A7
7BC1
D56
48A6
357E
3192
2637
50C0
6E83
9C4
7EA3
164D
F08
38CE
6BA6
37C6
7C74
7856
4259
2515
2784
4265
77D1
59A5
74C4
1105
5AC
782D
3CF1
5609
4637
5AC5
D0A
55A7
4332
4770
5BF8
620E
12C2
5AD5
3F14
E38
5F27
5380
1D2A
26FF
476D
2EDF
5146
5AA7
4C2A
31C8
52A9
164F
5451
2362
5A4
2CBC
3744
6FA5
2198
7CE0
1BF3
24F9
3D1
41D
39C
3610
6F93
EBD
3A20
2A4B
5709
24FD
411F
4CE2
5B27
6FCC
7A6C
31FD
4674
3B91
3C0E
323F
78D9
3A1D
31
6B64
157
2F09
50B0
67C0
7C77
5660
4815
572A
3AFF
19BB
715A
7950
171E
3FB6
14AA
2066
613E
3ED2
167
3922
5F1A
2E31
16B1
386
2970
122F
5CC7
6E99
33D0
73C9
45AC
7828
157
2D7C
5E77
4C49
4DF2
1F0F
2180
5B58
2BEF
64A5
1A92
3317
4075
10A7
74C5
303C
67E
36D9
2E07
23E4
7013
2A01
787F
583
6AC6
CD3
3582
3638
6482
5882
6016
53B0
16D7
58AE
3C46
CAA
56A1
516A
4A31
5291
2091
3C4C
700C
40A8
25B7
36B0
6A6D
6755
6F59
D39
4C7D
5F28
4004
13EF
1534
2AC4
2336
5EF9
6F4B
354E
7C2F
6B5F
EB2
3EE5
67B5
3BC4
7A87
4CCD
4A6F
2539
1FCD
2C6A
E75
1D9
5F66
2ADA
10F3
DAD
1524
6065
37F4
1CA9
288F
3712
A30
323E
411E
607
7B74
23C8
4C41
7CB8
A16
4BD7
5221
3844
1800
3129
1EE9
1BD9
3F0A
F42
6381
2AD8
1881
3EC4
3408
5546
755
7228
49FA
620C
3A2A
CF5
75CE
39A4
6B51
2840
6B62
897
1948
316C
1AA9
6F5C
44E4
2BC9
45F0
7D8C
4F06
53AE
3DAE
2553
271A
7C56
3D64
6536
A7B
7DA
654E
3C8B
20D6
7099
35CC
1FDA
6920
68B9
60CC
35EF
750A
3D20
1B63
6EBB
83E
69B8
7A6B
2420
F50
4442
373B
75D0
2E72
55B7
43A4
6759
550F
6A9B
5602
5B8C
7479
2D79
7135
7FC2
181C
4F99
3FBA
3F1B
438C
469B
650
2BBE
3F42
62
10AE
7D0D
5CEF
9D6
6A2B
6F96
746
7434
29D4
6AC9
5AD6
1F7F
2E9C
5808
1124
59CA
337E
56DC
28D5
5F49
541C
424B
3546
327A
482A
1DA6
4308
2074
4EAF
46B2
4FFD
7EB3
48B
725B
529D
543E
3E59
16A0
282B
C36
2896
6C93
188E
3E5A
2EF4
6F8A
B2
4037
3035
6DAF
5BEF
22D5
7502
47B8
2DEF
6DEB
4E9C
66C5
2059
2FE
28A6
21D5
2822
327E
222C
7254
4AC6
1439
4CE5
39AE
4994
13C3
537E
2188
6B2A
63A1
53C6
637
6EBF
5068
CFF
6C27
5ACC
745C
4508
2C86
5B9C
26E4
7506
B28
6096
423E
461E
17B1
47D7
63C1
2268
513
4241
2B59
3C8D
2324
7391
BAA
6DDE
2164
4D3A
3E71
1D53
4649
2BFA
71BE
3828
20CD
3E3
797F
4D2C
56ED
5CDF
41BE
775A
3407
7E6B
89E
7B1B
3FC1
1476
47F4
620
49E6
1279
188B
5302
D5A
483D
39E1
A49
6B48
4D0E
E19
E72
2BCA
1E22
67D0
79B3
242C
7491
682C
2B1
546A
32A2
6452
C6E
24A9
2A4A
400F
158A
6E92
4633
5E20
251D
370
7171
66C6
7B86
4DF4
34E
7BA9
3197
4017
4A38
C2F
7BCE
49C
7745
6DA4
589E
4A5F
5CFC
2290
50DE
287
5A36
4C93
12B8
123F
302E
1771
C53
4A19
67E6
7770
6034
7E3A
6930
2BE4
16DA
6D7A
462A
478C
29C3
3476
4E7D
75E1
3450
81D
AFC
15D5
5426
1458
79C6
734D
56FA
9FA
DEF
7C14
255F
7007
2841
2E3A
5DA
57D4
4B7D
6434
3B8F
1730
5474
F3A
58F6
58B
2E50
18EE
73A7
5F1
705E
22A9
33C0
38A8
7578
21B2
7EF0
3645
6EFD
575A
5047
2928
19B0
7F45
3726
4B15
7CD4
6844
343
3903
2FB1
67C8
9F3
6760
589B
66FC
3878
77C8
7EC4
286E
7EA5
C89
E63
7920
1A2B
167
2D87
C64
4BD4
7C01
52EF
16CD
2227
2433
6920
798C
3ABC
241B
B79
4042
12E6
7772
2DBE
1E70
3689
6A33
10D7
544F
45E9
15DB
20B7
674
2CEA
7FFE
CE1
4998
3448
13A7
7A5D
4165
2EAD
20D
7297
3A84
145D
405B
EC7
110F
547E
37F2
3A79
43AB
7BCE
4C7C
6811
3FA5
6B1B
37F
232D
733F
57EE
3691
5C89
6C3B
44C
665D
3C85
42BA
13A0
17B8
7525
128B
333F
E4E
70A4
2014
734E
229
5388
5824
278B
427B
52A6
161B
2060
4266
3700
4AF7
4E2C
40A2
3F54
233A
BCB
6B57
65B2
79D1
6E6E
39F
5B94
4D62
3DDD
1F0C
3FF9
59CB
977
41C3
11A1
784E
3A3B
48DC
A3A
5AEB
52E6
66E0
4D2A
7F14
499E
5FC8
2299
431A
39B8
5E28
1119
5583
350
497
5C02
5E06
6A0A
B57
3DD7
433C
21BA
2599
786C
7966
82B
2DE9
2FC6
550B
7BFE
6C76
33D2
628A
8F2
479F
FAA
2FD4
3750
4A3E
9BB
144A
731B
4929
64DD
7D84
DEC
54AF
6464
374B
26DC
654C
8D9
19C9
4129
27CE
6A6F
37AF
259C
33CD
ED1
2330
20D8
6E3A
3F8C
6C2D
6F82
18E7
468A
69CB
36E3
6FBA
5214
2E79
24BF
53A7
6454
CE5
632D
4178
20DF
63B5
5F25
77E2
3B60
6AC3
5173
4889
5107
3157
6EE6
4DEB
23FD
3416
984
1A37
4C6A
3F7D
4B1C
3B99
6DE6
35A1
62F
5DDF
622C
5FF
6DD9
4D99
28E0
6751
4F11
3B21
3A11
5A60
AE6
5144
7843
3A58
D08
478E
6F79
3713
407D
3CDA
5B0C
2E9F
7D85
495F
10A5
6EA9
7D27
4042
52B
5636
7F0C
31AB
2C09
6C7E
6D0B
24B4
2C6
3DD9
4A9F
4610
1433
7061
49A
3958
3F95
796D
565D
6224
54FD
7E51
6E46
23A6
1968
1B44
1CED
64D
2EC2
3863
818
4F35
72A9
7940
73DF
3CF5
492A
7D5E
16B1
6CD2
7897
4ADB
44B4
2A27
4518
4AA7
2A91
3D12
400A
78CE
5F49
7955
15C6
564B
7B2D
4F74
65B2
6C2E
5C15
38F2
27DF
31C5
6D8C
403F
DE8
1F49
615C
5189
2E54
3DAB
3598
353C
6B39
2D4F
37C0
52
68FB
2479
314A
5502
1FB4
622B
7D97
79C
4763
5252
255E
5817
632
57A4
4DA0
15A1
30DD
5061
69E
20A6
4DC6
12B1
7D44
29C5
1B57
2FAA
19F8
12D7
2502
77CC
5507
431C
38BD
7F7E
6775
3B69
5986
43EA
7B3B
6C18
4806
2ABB
3522
1930
78EB
4647
5E36
6BF
20C7
23A5
E3F
2F00
7C18
581C
2628
13D6
5550
722
530A
230E
259C
7447
7AC0
2B5
1F7F
4AC9
1254
41B5
2271
58C5
61E6
5955
1C8B
314D
28F7
56A
7FBF
59C4
924
368
3CB3
3758
60F4
D1F
6392
4E86
3510
14B
1314
418C
1397
3966
7A88
7D22
768F
1E07
7ACE
8F4
76A0
58D5
5412
3449
307
2546
1E12
51C3
49D3
6A19
3C46
2D21
4EBC
2AB3
1308
2CB7
646E
27C1
54D4
37A9
412B
6C7C
5D4D
5B04
4B4A
7AA1
3A3D
5F31
488D
2C8A
1D13
F13
3746
5598
2DB8
7AA8
19A1
34D5
4450
7CE7
5ED9
1DC0
6AF8
86F
13CA
3D99
4AEB
179
5736
7B9C
4240
6784
4813
1E1B
BEF
4820
3242
5AC4
1D8F
20F
2CBB
57E5
B73
487F
47F8
7748
5CFD
58EE
62E4
666C
3F31
18FE
2D2E
64EB
968
5C2F
5D89
5B3A
5FB0
7A93
4625
271D
41EA
5B2D
6EEA
7C35
4F26
14FD
26E4
2A68
3E4A
36AB
4B27
2B5
7AD5
2ECC
6687
78DE
6F57
5B0F
F66
3439
7F23
1C02
40DC
7A37
1E02
7141
95C
7270
60BF
23A7
372D
2F3D
2838
6105
2DBA
4556
6308
5B6F
65FC
5551
23DF
3E96
16C2
6769
3028
463A
1D4B
BBA
2885
5C74
4A9C
3E2E
5D13
7B16
6B1E
72DA
21EF
35F2
29BC
6A8E
222C
340B
2695
B17
331
1B10
74EB
67F9
50EA
79F5
4D2B
11CC
587E
4C53
11A3
3B09
35C2
721F
2B93
264A
2253
A6F
DDA
1E45
2291
41A6
389B
69EC
4583
43E8
2C21
7A2E
3DD3
2CBB
7F9
7470
5B0
6340
4E33
708D
63A1
14CD
385
6269
6005
694E
920
664D
5655
6385
1857
1685
3330
6FCB
7DF8
7681
54BC
7CF0
323F
7014
5FD1
3B7C
5870
5EB7
6A8B
55C4
77C4
B47
1C0E
1C98
3369
5FEF
49EC
7FD
7653
FA2
35D7
4C2A
50AC
1B56
64C9
5ECD
1857
745F
7098
1B35
E9A
4109
EE0
545A
7BEC
6107
1F82
1AD9
46F7
D9
4270
63FC
5F1
325
2327
59C9
62D3
1309
3F2A
1F56
3876
6E98
CBB
BBE
27CD
2005
289B
15B8
63A4
2D45
2833
3E0C
104B
45EE
4DBB
1F87
7BEB
470
5E96
A
2291
75A3
53A
4ACB
D38
488C
66DB
2247
155C
83A
3DCF
584C
62BB
6DB5
4D09
2EA1
658E
3159
5A06
5ED5
A28
7A6A
15F5
3ED2
5D5E
3433
1D9
4B5B
31E4
536C
5B1E
54F5
2094
F25
3EBA
5FB9
26FF
4E2E
5206
3849
5C12
5A2E
50BB
732B
497C
7ECA
2861
579A
7C27
203A
B75
63D1
24B1
7170
4878
7069
757C
352
6D8C
54D8
3AD1
552A
31E8
1AC4
6326
3495
A8A
1A8D
42A3
7A07
576A
5642
6A0D
1326
5A1
5FAD
6913
4D87
2B7B
5916
7027
3ED8
1728
7F0B
175
5173
24D6
1E88
129E
7932
63D9
66D7
7B8E
4FC7
1EAC
536F
6C73
69D0
2370
4ACA
18F1
6698
F65
67EB
222F
31A3
78AF
64C1
1A1
1EFF
1C81
5436
565
2B24
397C
4188
7063
3658
32D8
768C
27A5
267F
6548
5E17
20C3
1056
7A21
46F9
4899
347D
3F9A
44
1BBC
49AE
14A0
1718
55BF
4544
49F3
550E
626C
550C
4705
765E
647
591C
35B4
7725
2FBC
7C1A
6CAF
54F4
24F4
737
6BAD
1B5D
53C1
1626
6776
2558
1905
6443
1C40
40C4
298A
E3F
4061
7334
6D22
5AC5
50AE
367E
34F
64E2
1C74
65CF
24A8
228F
910
526C
415E
4F3
73AB
38D9
15F
14D7
26D1
729A
6ED8
5540
2417
2A7
508
5FBE
1BA2
1983
4E0D
4697
6AA3
267D
5D61
6F6D
709E
623F
45FC
5204
8FF
1FD6
50BE
7E0D
4FDF
6095
14ED
EE5
5D4A
98E
6DC7
32D3
5873
1904
18D7
2451
84A
20CA
744D
490B
1283
2A7D
46D6
8DD
6015
778F
1603
7159
E77
B14
5F1
66
6EBA
6567
D4A
589B
6D0B
14E3
6046
32D4
F13
42B0
4426
5710
B40
39DC
6122
3D88
3689
5225
2717
7184
6DF
487D
412E
5D2A
C90
3332
4A85
4DE6
3E36
43C9
4074
69F5
5CE1
64FA
F64
6976
349
7A64
55C4
39AF
42A
7867
8DA
4D84
6488
5020
5E95
506F
73D8
5E4B
713A
4190
3168
681F
72B8
45FC
38A9
4EFF
25AF
5B50
4294
5627
D50
EB7
3B79
6EE3
2B7
2A07
FE0
28CB
3F78
623C
4399
553A
78ED
68A5
3FD8
5843
B97
3C14
5E2
CCA
1FB
7E22
61F3
4EB
3644
3D50
11D3
7635
4F5D
6549
4FD9
5E3A
3D68
2A74
31AA
2138
3C29
6F92
70B3
67EE
143E
5645
4AEA
6A01
3FE0
CE9
559C
BED
49D7
45EE
14F7
20F
3B6B
4B41
E9F
3AA7
F5B
F46
148F
1F17
FCF
D96
5A6C
E54
3953
F5E
2197
5824
78D
3AB7
795B
7E0D
7466
861
6D5D
4509
1E8E
10A2
76B1
21D4
4F6D
172E
30D6
3F68
4070
2E8B
7A10
2E16
779D
3E58
1502
BBC
601C
73F0
3712
2A47
7EB9
506B
5CE5
4D54
787B
4573
74CC
1CF6
7D58
D5B
4E8F
7B58
99F
51BF
661C
7E45
DE2
7482
685B
7C20
D26
7223
1F8
2EE2
2E37
35B2
5C00
34F6
2B75
1AD9
658E
7B6A
26CA
60EF
6411
698E
787C
4B87
72A5
22C7
58BE
6B8
7152
7378
6A95
42D
4992
41C8
57A8
4F54
29C7
3AAC
1BF1
32E6
6554
7005
89D
2DB7
1882
3296
503E
4EAF
7D18
57AB
50AD
3F39
2100
7BBE
2BAC
5E8B
AEB
48F5
2A64
5270
6803
69A
5686
5AB
6C2B
2250
78C4
72A6
14AE
112A
6F51
247B
2EE9
6111
751E
3511
3FD0
4FB9
335C
2E57
515E
5DDD
3034
6334
667D
39BF
69EA
78FD
48A2
660C
569F
F6B
3BF6
11F6
6401
11
324B
2DDF
3B98
60C2
5829
5B0E
7F01
C1D
4C69
3E51
AF8
3618
D17
B0E
26F3
3F8B
3C7A
7EE5
114D
468C
289F
7E44
75D3
7897
6ABB
20B4
6E15
4945
7CD1
14D6
3E1D
20D2
6C0F
2359
4A3E
2558
6FF5
3D85
4385
4A65
2507
1D25
1F2C
8C3
476C
1CAB
5376
6556
129C
C78
1B82
71B
647
2917
1C5E
1C9C
4F89
F77
4ACA
1B69
7049
7971
2006
7A7A
1A6E
76E2
EC6
2968
66C0
16BC
67A6
2D0E
5684
918
21D
24FD
3259
330A
541D
181E
21DC
3D24
162D
52A6
5D10
24E3
145E
16CB
6CB6
5D4E
7E09
7D46
4041
4147
3B9C
1F8C
29DE
4AE8
161F
657E
8EE
7CCA
B68
4941
2C62
4C8A
5317
67DC
67A5
5E63
24AF
9AD
694B
B94
47C1
3071
4827
2D60
594
2A9A
4C70
70AA
48CA
4C60
5DA0
6C32
1A76
3BF8
167
14D
6851
1256
381E
477D
3411
7398
44F0
46C8
7BE0
333A
3035
E9E
2EA7
26CA
2711
FCA
459A
328B
9D3
1CBC
34FB
1703
2A89
66E6
39FB
5B7B
73E7
4473
3A59
669A
5684
6768
5A4B
6DC8
1612
99E
25EC
435C
2CBB
755E
3703
5F31
7804
60F4
2F1C
7A9A
3CB5
1A10
2C52
6A45
5160
818
1364
3E7A
51C3
5612
15F4
1748
5F90
5648
C16
29FD
4D1E
1014
6E94
35A6
6D03
4464
2DA6
5180
6BB6
70F0
6003
17B2
274E
2C5E
4862
ADA
690C
7B25
7B35
6EDF
606D
45ED
3691
111C
1B80
3E38
6057
2874
66E7
59E8
7572
7CA5
1B7A
23AD
3E21
1C55
5D23
2FE9
7F54
315F
18E9
69EA
1258
49F
53A7
54FE
3C14
79DE
161C
21C2
7A41
6E84
23E0
1788
506
1F2C
2A89
144C
4A66
393E
39A3
4D0
6AD6
14B6
394C
40F1
7808
568F
6703
480C
238C
4E5F
30AC
3C2B
5A27
61E4
52A9
14FE
D54
23D0
749B
2974
3CCE
410F
175A
57E5
509B
7B20
3540
B9
14A2
1896
6D7B
6528
6920
71DA
359E
5875
2D18
379E
177
6E37
6792
12CA
5B1B
3697
7072
4272
52D9
2D45
4B0E
41EA
368A
64D
3BCF
5C52
235B
1AF0
57C5
5E81
527E
2756
274B
46CB
3928
498A
780B
19B8
B31
5F63
3562
2B85
2121
62E3
74AD
3A11
6AC4
3604
71C7
13DE
1DE9
560C
53E4
103C
57E7
61BA
6887
5DCC
2B6D
774C
3239
6088
18
7447
282D
622
3BE
297B
76E8
15E9
2329
58
5B9F
764E
7FBF
C6E
4D41
774B
1836
4EF0
7B6
65E2
2C57
6B9A
13A9
53DA
7E4E
7DC
6BCC
1C36
3DB2
7A6D
4E53
27F0
6F95
4F86
3DB8
7756
6554
62E0
198D
BAC
2F02
78D8
5B9A
6CEE
6C4F
ED7
3858
1F4E
46FA
7557
41D4
7F11
40D0
4509
50D6
3275
5121
61F8
3448
415E
2B93
3EBE
6E58
634B
25C9
1EF6
2B6E
34FC
755E
451D
3C66
62B7
102F
3B81
1383
86F
7FDC
5BD5
FF6
4E5E
1E42
5443
783B
6043
2342
51AA
6AC4
1DB3
6D59
77BB
7DBC
7211
6334
7E2E
242B
5692
6FB5
7D65
3A6B
7442
41E8
51B4
6268
7C96
5086
6155
7115
3AC0
2D68
156D
58D4
6A
6FDD
5B1
6B37
5136
11DD
ACF
2B10
477D
60A9
77E7
2295
6BA0
3088
4279
B42
60E1
627C
B44
48D0
D7A
7461
7CF3
1BC8
13BF
19DB
70F3
2AA0
650F
38E4
2317
FE5
79B9
1BF4
3A68
3EEC
28B9
5E17
3C44
63EB
158C
63F5
6744
339F
70A2
6784
16C2
7640
6081
1823
2DDF
3D80
722F
65CB
47E3
1667
2A39
61E0
2593
39C1
6D94
5465
36AD
569C
6541
63F6
4A2F
5F40
73DB
3664
750B
5F07
2EFC
7D49
366C
4E18
2931
2C50
9AE
6185
2A98
FC5
6350
6DB2
20C0
685B
7205
2DDE
2CF2
63DB
6301
7D83
298A
A60
9F2
7EA1
13C
4695
5A92
2777
18CB
4D81
562A
1514
7945
397C
608F
34CA
139
19EC
69B5
3C91
4D14
474F
660F
2027
6A48
5A6F
71A6
7F53
2F61
6BC7
2DF5
395C
3C41
6454
28F0
3AEB
3CF6
5ED9
53B2
3821
4354
A76
14D8
67A7
2614
275E
92
64C7
6284
7CC5
6170
425D
2A91
3673
7242
693A
250F
3EA
34E
629D
23F
499C
15B6
2721
1D4C
4814
4BB7
5FCC
6F31
2CE8
2FE7
27C9
701B
3A76
2738
5799
53FB
CDB
32E1
6505
2027
564B
4
7DB0
498C
4C75
6FD8
22ED
7BF
7BF3
5E95
63C0
5ECA
32F5
6E8E
950
16B8
4CD4
7885
6ADE
17EC
5760
2BD
6A91
40EE
4972
36F2
AB7
6BD2
6278
6A46
1379
5E2E
498D
A27
5E2F
EC0
2603
17EA
636F
F45
78A2
3960
7472
3D5
6E7D
6B8F
6A77
1A90
6F0B
4ADE
5782
89E
38EA
3853
7B48
3530
2215
5F7C
5122
58C5
C44
649A
3B6F
2F66
19A1
72F9
3803
186F
4364
15B4
7043
3588
41CC
61B6
21E8
2D01
267E
2B04
262B
7C9B
58D
307D
1CEA
6474
2DF3
7B11
F57
56F5
942
2D60
1200
3067
37F7
5423
6931
6711
32F6
46C1
58B3
2218
3553
4392
960
4548
53B3
10C4
7B04
2A3B
5140
DF1
46DB
6282
265
71A
7D6D
14A8
7593
3886
53E6
3AE6
6207
783B
725F
4519
1EB6
1CCF
7E91
7025
6A2C
13F7
5856
5559
616C
6DBB
35E1
60BC
48DF
104C
5F2E
330A
7FEC
1928
6519
132D
3E60
4688
32C1
6B2F
637C
6D17
1DE7
3DD0
2765
6427
5938
1017
7281
755A
7C87
7A9D
2BB9
2D3E
173
48CD
139F
2577
FA3
7B97
4DEF
1481
75AB
74DA
1652
26CE
620F
100D
A3
13C1
5E62
4C24
2F94
2900
3EF9
7E83
496D
7E73
797C
2D4E
72E6
2360
3675
5A49
6037
7380
A6E
248B
5D5A
D3F
2852
5F04
6463
4497
761F
3976
6620
6BED
4B91
6F3F
FE6
790D
140E
756D
50D9
168
152A
458
2BF9
A44
3856
4EFD
7853
1614
32FE
1AA9
57A2
14FC
AEA
5FCC
7F76
234D
15E2
2A8E
7F3
2B92
6789
376C
6E78
3F0A
1293
1A16
6770
43E0
35F0
50E9
2C48
26C8
349C
7218
1933
3A95
5598
324A
15BB
4A3B
81F
4EDC
39AF
701D
188C
4516
A73
2B7F
4416
56A5
4AD0
432A
E36
539D
7627
69E1
5B17
60A
4F0F
5C22
2D0D
6BBE
7434
3F4C
712
61DC
1698
1D7E
7807
49F
3949
4E07
51D3
47F9
3A70
59E8
2CB9
7FB3
43E2
599E
19A
280A
7F33
ED5
2CA9
33FE
79D8
2B6F
2639
1FCA
657E
6BA9
2A7E
47E0
5FCE
6FE6
70D4
248B
5B44
544B
11D8
53F9
4535
4501
6690
424D
4B3D
1DAD
2BE5
FD5
2844
3042
6F89
69A7
7658
1104
26E9
DB4
105D
70F8
73EB
7AB5
509D
2FEA
6862
27A2
1E40
4E75
11D6
2D8D
747C
7A4D
5F52
53DB
2F16
5950
3F69
8DF
22E6
1E85
7C99
476C
76E6
602D
7264
6C26
2AEA
13C7
3B7A
CC3
4301
53A9
155
123F
72A0
44C0
63FA
A07
32BA
5DA6
29CB
13E6
11EC
6ED7
61A4
4AFA
4D21
51A4
30AA
6B1D
2249
3F42
2C39
B1C
36FA
C82
7A62
75CF
4001
2E07
6C67
7E88
43F9
630B
6B13
2BE4
6F93
78DC
40CD
7001
54FA
1F71
50BB
7B60
2821
622A
7F1E
7AB3
4F4E
2337
3D44
1DB6
31A3
D4F
C19
342B
962
2CFF
6876
910
58D
617D
1A5F
446
4648
56C6
773E
DBF
7D55
32F8
2427
36EC
7540
76EA
4D48
455D
5AF2
10D4
493F
5F15
271A
3C9B
3665
BF
14A7
559B
3F6C
2EAC
57AC
5BFB
5FEA
2454
5EB9
7B39
64A3
54F
1208
4454
2DE3
1A3F
49A6
1724
4841
3230
75EF
2A76
CA3
1DCE
134D
AF5
18D9
7EA9
1FFA
316D
58CA
5C0A
213D
629C
4138
2FD3
4EF3
67DC
1C78
32CC
7E94
5F62
503F
63B4
4C61
31
4EC1
1AF7
79BB
3156
2F5A
5939
7B8D
3B49
1042
3D21
6220
52F3
4A19
4B9A
38A2
CDF
678A
3347
35C9
6B00
2D61
23CA
2477
6918
7A6D
4C79
5EE3
480E
7EEE
1585
B60
6FA6
57DE
517D
96B
5F76
61E8
61DF
6E9
3F01
4D6E
448B
242
4652
71D3
693B
1259
6E2C
4913
77E6
2375
60AC
3B80
45D7
5645
6DC4
7C31
37E1
2222
961
4FB6
6EE3
3CF5
6EE7
645A
25BB
20BA
3F77
3BAB
1F4
381C
7B5A
4E7E
2D1F
395D
1642
276E
5095
1FA0
1638
C59
CB8
4CDD
5428
65B2
255
6CC8
6194
14E5
BBE
B19
69A
4702
5F59
E87
75D9
4CA
70F7
29BC
62DE
7692
7489
66E5
2B4C
257F
11AC
29C7
77A6
5193
4BF9
1710
63DB
F08
1291
4FAC
25CB
7BBE
47C3
3EAA
5DA1
6C78
4E2F
6CDF
2653
5ADB
61F
5383
2C46
6A03
74E4
665B
1030
1985
3E4C
1320
6C4C
2C0F
6AD9
7236
3E57
31DD
4185
722F
7F23
9D6
41A7
272E
75EA
2A0C
46C0
52F3
34D8
5399
3FD7
2B44
6D72
1BE
3338
34E5
1E2F
3CBC
67E7
203C
2E6
1539
2516
2F24
13D1
796E
25A1
C23
37BB
310B
2724
36D
38E9
4084
2892
537E
65AD
183A
5B18
50D6
5A2B
30EB
55D4
67A8
52D0
C7E
36C1
75C6
7727
28AF
221A
16D8
1BC7
6D46
D51
1707
3802
37C9
3A14
7DC1
61A
1689
10C2
1100
3045
5531
57EB
F59
5E96
2406
5E07
3052
687C
4604
6BB5
8D7
B87
4A5E
3900
50B3
5AB0
14A
16FA
B09
4513
5298
10B9
778
5751
637C
3896
617A
6CE
30C9
1DE5
E35
7FB
671A
6A8B
2658
44A3
6E0C
21A6
6481
2230
75A4
5AC7
53C4
6B57
4B7E
58A2
6A74
4F1D
18F6
4341
65C
2BE2
29D2
16E4
1FB5
71A6
6CF5
6D85
440
6430
4C58
1E5C
7852
71C7
3668
4902
67E
933
2874
7341
74A5
64F4
239F
1CF7
47F0
F7D
7F93
67A1
262F
7C4F
5990
26E9
7C0
5066
66AE
2CEE
2EF8
4864
50DC
1F9C
26F7
19A4
C9D
63
7E09
2950
68D2
838
73B9
7EA7
18E1
5C27
1165
2385
3D7A
76F3
25DE
4FA2
6972
1F49
241
5E48
2BBE
7CA3
63F7
1B78
3B80
1CB9
3360
3637
69C6
35CE
3F4C
6C52
2DB8
4B25
3329
3B69
756B
5DC3
4257
63BE
6033
4BF1
57
3E7D
5A5B
3E14
3491
2E08
53CE
2E70
55FB
4DC2
5F1
5050
97F
FEF
4092
2DA5
3F2C
7FC1
2661
4227
117B
511E
61D4
1313
45BD
199D
6AC9
278E
7857
670C
3F33
7AD0
4EF9
2F36
18EB
E40
1521
6919
5787
3589
5E20
3D3A
1A40
344B
3BEC
31BD
4A6A
7F00
57DC
9AF
D78
4B62
1309
4114
FB
4EAC
4C63
8CE
52A3
42F1
269
3DEB
7DE8
5B8E
380E
1B1D
13BD
45B4
C27
A0B
2C1F
2416
2317
215E
3475
17FC
6FA2
1A2D
7A50
6B6D
BA2
64E7
67EC
483B
3BA3
3F52
146D
534C
43D
3501
485E
1F53
7515
3977
2371
5714
4FA0
874
2E75
1E0C
11B7
7424
7003
44CF
6277
63D3
6165
4295
3523
2296
5DED
58AD
39A3
83B
6479
21AD
65F4
3F57
2276
1791
2EE6
197F
7A09
2928
34D8
77A8
7FEC
7FD1
6CDA
7D6A
4D9E
2CB8
7C0E
1352
35FE
1E41
2CEA
4B58
778
660D
72D7
4263
260B
5A3B
7EDD
1BC8
6423
3637
28B
35EF
3AC9
1F1
1008
3CB5
BD5
75C
4A08
3B2D
45DA
29EF
A23
5EFC
2C39
5760
5DB0
18FD
4829
173A
4634
2A91
6F1A
4553
6928
88E
1B3C
619F
7D11
7992
527
D00
583C
611B
65B9
1D56
56AF
1165
603D
4FB8
17BA
7CD0
DC1
7A71
5BE3
FF2
1DDD
5C3D
4E79
27EE
7A63
5480
438B
2535
5C93
7EC5
67FB
105B
39DD
2C16
23E5
F1E
7AFD
618B
6052
54DA
7FB4
1864
69E4
51B0
3E04
73F1
7DB6
1F71
7ECA
168
3082
114C
37D6
6A28
4420
4623
16B6
7F75
63F6
2A5C
6BD8
C0C
38E5
6C5E
6186
5D17
270B
5916
3161
1921
5C9D
18B1
1D59
3F09
1282
5516
110F
71B9
1FC3
382E
3631
5E27
2A6A
B6E
1A11
578B
596
21E4
1780
18FF
61F9
3290
25F4
3D6
1ADC
7EA4
24A1
46C5
5DB8
1D54
4F87
D22
CA2
5B4F
15DA
2860
38FE
1EA8
3822
2F0
5E01
32E9
6D79
6734
4EDE
5CA
2CE2
B8
3727
6A99
1146
4961
1821
4290
7748
64CD
71DC
EF5
6DB2
142A
53C
653A
27F6
3A16
6BCC
E0B
2AF8
3C58
1040
3899
45DC
91B
62D9
74C4
2DAF
3DD9
6F78
37CB
250B
194F
49DD
6AE
4B6C
61B2
7923
19E8
F46
51F9
1F5E
36DD
31F6
1BE2
7C17
2406
1B3B
76CC
6EBA
269F
1FDD
355C
36F9
16AC
638E
4B1C
1604
D78
1FF8
3957
390A
52A0
3D9B
61A1
7C5D
57D1
39F1
6486
1624
2979
1B60
3515
18F4
6B24
1C33
376B
5205
1843
3CAD
1EA4
3CF3
2903
4AE9
5823
58E4
762B
7141
7D23
3AD5
31BD
2959
432C
62FA
3F9E
3464
3628
ACF
2F8A
34E8
5806
51B2
7382
46B3
1BA7
5771
C29
28F6
5808
2F68
58B0
6252
4479
4E98
6DFA
64C9
4364
36DE
CAB
2BC6
43F6
757C
3E64
6D03
5C5B
21D4
2827
54B1
390D
6C58
101
4C48
46BA
33CF
23D8
2E39
70D5
66B1
4E2B
432F
336F
6A62
79A1
23BE
15C0
59A5
77A8
5E78
1286
52E3
379A
C42
6745
6A70
783A
5C67
2587
2C4D
E24
675D
6862
55F2
67DD
2AB6
3FE0
519B
4E95
B93
485F
58AB
DAE
56F1
1A16
6FDB
10F1
23E3
4C09
741A
62A3
3834
6B64
67A3
5241
436
1917
6E34
40A2
1BA1
39D8
5460
668
23B
49DA
24B
3A62
5DB9
596C
2292
50BE
1394
67CE
7785
5C49
76A
1C58
7ED9
64DC
44F2
ED6
58A9
4C1A
559E
325B
6725
36FF
2C0E
68A2
2D07
7912
1533
11E2
5CC2
3913
66EA
2E1
527E
11E4
4485
6C6F
69AB
221B
4BED
7166
1539
3701
1EED
13D3
1BDB
51DF
79C1
3AB2
19A
4652
1C9B
E0B
55C9
BA
3D5A
6817
1188
5EDA
7B91
2891
2CF0
5076
4D54
50CD
36E0
57AF
6306
6FA3
3ACE
861
20D3
6C32
3FF
4C0D
960
EFE
10A1
6686
771F
2799
71D8
6701
3B56
4B41
747E
5F3
70B1
488A
466B
3440
5CF9
33A1
14AA
372A
1915
324
4454
150B
4511
487
2A15
7A8F
1C00
8CE
4FDD
4F19
3941
577A
D4F
4847
4768
1D59
61CD
67D
1BB3
C0F
1D2F
21ED
6DE3
73C7
741E
7835
7D4E
6085
7FC3
6E07
74D
62B7
EEB
37AE
7924
3854
39C4
362A
6DC3
1F7A
6285
2F04
368
8C2
5528
24C5
1A16
36A6
3717
67E3
5DA9
56DF
3BD9
A51
29CE
43CF
63A7
7B39
7774
4965
72A2
3A45
3A7E
6EE
A92
6199
2140
412C
426D
5CD3
4201
791E
49CF
1BA4
71FA
5505
4AAA
3130
A59
ADB
9AF
1DC9
6439
3E21
16DA
5360
6D
6A53
363C
39F2
34F9
9E
4852
3ED6
730D
568D
32F4
4017
524
1D4C
561C
580D
5597
77F1
7CAA
4FE5
1FB0
B89
2673
744E
43F7
31BF
51CD
1B5D
1EC3
2BA7
3188
3FDC
64B7
620F
7E84
16F2
485D
5060
AE7
592A
4CAE
5FB0
6978
208A
3F3C
7B31
39D9
4D19
39E8
3B37
20F
6AEB
72AF
40A6
296D
345C
189
595E
733B
61C7
7C07
5366
E55
656C
5247
7B51
32AB
7584
379B
6AB3
566A
2534
7E8A
50D0
79AD
6E48
318A
167B
106F
7B26
76BF
6810
3661
1CF
2982
4AA5
2D06
58BB
1576
6E80
6E9D
3EFB
1CEF
72F0
5033
49BE
5BC7
568F
4FA2
71B4
5BD3
3B2B
4844
8A3
5C7F
544E
562A
215A
EE4
3D6F
16F0
1A33
1906
52E2
2286
62CA
7A4F
4CFF
6912
20CC
5EE3
20BF
34BD
2FDC
6FAD
4D59
6962
4E71
1377
5B98
4196
678D
2F97
1F86
6296
505F
4D2C
36D9
238D
2A0A
2B0D
5FCB
5E08
E3B
5F54
5CBE
63B7
6422
572B
782F
62C1
7970
2DC
41D1
7CE1
5061
F1C
2020
6A21
51C5
7A45
6638
38F6
145D
3D3A
70E9
3543
5E6A
FE2
19E2
380E
36EC
2BD7
58FE
6BC
51CC
3897
7319
3358
54D8
3BC5
6C8E
7EE0
F1
2F5E
5618
7338
78C4
4BAA
3AE5
2BD8
CC6
6B29
39BF
DED
97B
6B5B
3F3D
278A
3D1E
4A95
630A
6EB1
6970
301F
7C30
48CE
2F0E
1693
15F0
5A66
529B
2D05
5415
4EA3
203B
3AD8
2C6D
51FA
10F8
EF3
3880
6471
556F
506C
71B8
5028
6F7B
3738
5FDA
B40
4CFC
2D1E
7318
7261
5E3B
75B7
1417
7C5A
2086
2F97
4397
7A3E
ECC
204C
3474
124E
61A
49D0
717A
77E4
D9B
2E63
3439
14FB
FB
46B2
3711
2891
64F2
6B9D
2FDB
64F5
2EDA
3B67
6C2F
642E
62DE
5538
231B
1EB6
68CB
422D
25B1
6778
5654
6322
252C
7BEB
2F8F
7B13
5FBD
4B0A
3AC5
6F62
2394
3DC9
61ED
FA6
65BC
163F
5C37
1B02
280A
457E
3AD5
5F29
5679
1B7A
13FD
6576
7E
5FCC
1D34
FB1
4A33
2F29
3655
26D3
506E
36D5
6BD2
4977
7AA3
FE0
2756
25FF
2E37
4BF2
5B91
620D
7986
2D5A
2440
7AE3
3049
5490
2128
179B
31CF
3891
1138
471C
7C01
4248
6A51
DC2
5A30
3E86
7EC1
34AB
1F98
1F25
5C1
5EA6
3737
50A9
4A03
4331
42F
717
14E2
7FD
2429
353D
2073
47FD
5A79
1B94
7DDC
6BBE
4A81
3297
7D86
473E
F78
71E7
29BD
1DC4
35C1
5166
7A53
2236
6C40
3DEA
4631
4332
64E0
94C
3512
4F80
2A92
7956
34FA
63B9
2F07
11D6
73C7
3A50
469A
1D43
2D9F
3831
6D9F
1B6
2CA0
781
4FD1
7637
68D5
1539
9CB
24B5
17CF
497F
2643
6562
1BF3
4B34
4F58
1DF1
122
6EF
3351
22BE
6145
4FE1
512
4A3B
616C
52DD
36F9
5CA6
B50
24D2
41F3
997
3774
1DF9
1035
7FE3
24EC
6C92
78CA
31B4
4CDA
22D8
2B09
7ACB
7988
97
414A
3FF9
6C5F
6083
6793
1C19
4469
5EC
693D
5A08
66EB
739B
42DA
1385
2804
3600
E49
508B
F6B
BF6
7E5C
1E0D
5F65
579C
642D
681F
27EA
3EE4
3AB4
4C82
1814
621D
608D
531B
2647
4B11
1D51
7459
6474
574A
1FA0
5D89
1A62
4782
7AEF
52CE
28C1
263
7368
6FFB
3771
33EC
2845
E8F
217B
695C
4877
6D2D
5D86
3442
3DE8
1837
5247
2143
4C67
5A95
30D3
7C7C
4B5F
115F
7257
3FBF
29B2
7331
22F7
562A
5A87
7AF4
72DA
A83
7A7B
1927
7A90
4514
6EB4
13F8
726B
7DC8
1C48
6BB0
70BB
7C53
1316
4E6
6925
CE1
69D7
4CEE
31F
3401
411E
651E
2E9B
5C02
2981
6773
6351
6605
666F
45C6
2907
274
1C80
28CE
1F3A
3DD9
7354
71F9
485D
54DB
41CE
3C38
2940
7A86
2614
3DAE
690F
442F
75F8
856
B7B
6417
1C3E
7265
4592
79F5
1F8D
3244
D47
2B63
CC2
4827
5E40
34CB
5FDF
72AF
49C0
363B
59D9
4770
C47
4C72
51D9
2535
16F8
6553
76EE
68AE
1BA2
EA9
6E20
5E6E
471A
560
6765
600E
2ECE
767
7C75
72BB
796
C3A
77C3
1F81
61F9
41F0
98A
4599
5789
5C27
3F26
321F
4794
5862
1B5A
4D4
3881
5BED
78E6
5AB
4D8D
51DC
1C53
1571
20FC
1FFE
4828
6114
3C0D
215F
6D58
5864
60C8
B33
26DD
3AD6
7EC6
6E3A
2B4A
636F
47DA
1AAB
5F1B
A31
8C
D62
556C
28D
6149
100A
6F0E
7DBB
25B2
6FC0
1BEF
1A2C
3FCE
58F2
5E84
7BAB
2191
1294
2BD1
3E62
7688
13AC
2462
3449
4C1
2224
4836
132
60B6
6E4F
6EC7
6F82
FCD
45C4
3DA3
59
1222
1E87
6C8F
7DA
3DA0
48C0
6552
738E
337F
7B9C
4123
3AEA
4B31
303F
27B6
5CBC
7A52
3EB6
ECE
5512
51D6
1FC9
F02
145C
4725
5981
1371
48AC
38D0
FFF
E06
215F
168F
306C
51DB
2344
5549
3A76
18AA
53CD
66FB
53A3
15E6
4BEB
A59
6C12
6C23
18E3
43D1
5EF3
171B
78B0
2B26
557B
613A
444E
3CD3
53AF
68B3
5992
760B
30D6
6858
CF9
26D2
7BCB
6BE7
1C90
385D
6B4A
152C
3BA5
446C
55D1
742D
543C
3B2B
3D47
6FF2
5A18
6212
4814
2610
1F74
4BC6
541C
C5F
942
234B
76CD
7BD1
6262
174A
36AE
1E3B
2333
4C29
942
243E
6609
2720
45EF
488A
2C75
2AB9
715D
4733
5CEB
BF3
57E4
41E1
1671
292A
4231
2DFF
59F3
478D
2CA9
1855
615E
6406
51C9
324F
6029
334E
7B9A
6C55
77C3
620B
2952
2FF7
3D9C
2ED6
A4B
7A2
C83
60A0
919
1D73
59BB
7506
206F
672A
5E5B
BAA
2182
77CB
6566
4DBB
30F
47E
5F8D
10B7
647C
46D8
66EF
1DE4
2031
70
6676
2708
74E5
7344
79E8
7136
3065
1449
232A
27B6
2C38
117
A56
78C8
6382
7BBD
57E
3559
3815
2594
6F1E
5B75
77CC
5995
5AC3
139B
7C5A
98C
7889
4A4C
387B
7506
7681
1CA6
5B68
6900
4996
D3F
4A8A
639B
577A
505C
425F
1430
7666
129C
2133
5D80
8B3
6C4
5FD5
4C4C
17A4
2389
6C35
4DD4
6A81
B3
4831
3C41
32A8
5A9B
5E08
2492
659B
3AD3
49F3
3CB3
3985
115B
5DCD
3EBF
409C
6442
79A7
3826
6476
F94
4BA4
2928
3E61
1BEC
5C8A
7E7E
6A56
1334
56B
BB8
337B
2D8F
3245
601B
1D33
5244
242A
7C69
17B1
6EC7
33EE
69D7
146E
5B91
2A25
5FC3
72F4
6AD4
31B9
58A3
6F89
2A5C
7786
ECE
61C7
1C97
4A03
501F
129B
48FD
1D94
6A1C
60B6
2424
2BC
E7A
2AED
2974
50E2
1357
6920
578F
1660
7A7
C43
6DDA
5BCE
7C8F
329C
52F
6542
257A
53D1
4545
791E
416
EC5
1E03
56B3
37B0
BC9
7149
493C
4778
2159
66D1
7788
326A
4B06
4C74
71C1
3754
170B
26D3
729E
2FD5
35D0
4E7F
7C14
334A
3A7B
5476
68FD
749
677B
55A9
79B
6AB3
3552
3524
6847
3693
2A1D
7A80
6091
4E3D
690E
5CCC
797D
2957
61CA
29F4
45D8
639D
65AC
36F
483
3344
4049
61F5
51C9
2E6F
A6D
3FEA
5D26
18E6
3AE3
5DC8
23BF
4D43
3D05
2F7B
2AE7
1C9E
325E
D09
57A5
1949
7F9A
19A0
25A1
5103
3E20
1021
7662
1B6F
1DBD
5890
79E9
4193
40A1
31D8
190
8E8
7A0E
D79
3E26
31AB
6E69
68CB
236A
4832
B5B
7B29
46AB
14DA
2FD9
5CC3
43
2B5B
58EE
55B2
31CD
20D5
1825
285C
6ADC
34C3
D5E
30DB
7E54
7F67
7D46
B03
DD4
2F16
10A8
2B5
652B
B3E
5FE
3F8E
337D
35D1
40FD
28D1
37F3
4429
5E88
5B4B
248A
D18
3995
5B58
441F
7711
4252
7C77
602C
6412
5C44
6457
461E
2E9B
4BE2
1CEE
33D6
90B
4216
1EE3
1D3F
6B16
5465
1E3
1D8E
3BAE
7E47
3248
5ABB
D91
16F2
5B3B
2723
2
4553
5939
209
47F3
41D0
6D24
12E1
76E7
10D0
380B
36FA
6934
39FA
7548
1E88
2E52
7592
4742
1EFC
4825
399E
320A
199B
4887
61B8
6572
12F6
24AA
6B90
6DEA
4574
738E
24E0
2035
37AA
79D2
4C1F
50B7
EC
2DF5
11E
65E1
5FE1
53D0
2FAE
4DC6
D0A
5BC0
72E8
957
1556
3DF9
4564
7FCB
3EBE
4BD2
4EA3
36BE
6AD8
1EF8
B18
4406
3FB0
707C
4A8C
5841
106B
C0B
3A46
5E9C
7157
6E75
71EF
1D2F
16C1
7B2C
1A7A
1BB5
33AD
6EA
64B7
60AF
321A
244F
B3A
372D
128B
61C2
43FA
2736
141A
15DE
5D1C
1479
3422
5485
5BB4
3804
BC2
D51
76DC
5770
18BE
5B05
2BA6
6672
15B2
33E3
6402
5D04
79DC
3366
5C8B
32C4
1629
5ED8
58DB
54AD
6564
14F
3551
44FF
59C4
7D87
180
137
5118
6613
6FF
4CF8
71B7
9E7
633
EE3
61A3
2C65
153F
15FD
63AC
2739
3DC2
4E02
7517
3E19
2171
778F
1AB6
4176
4953
7AB7
75A1
200E
4242
1591
57B1
5619
7CB8
310D
4BB
130
1A97
4693
5815
7C15
4BAA
575C
6866
720F
3B0D
4184
7646
7204
7097
1D19
6135
6333
540
204
63A8
757D
3A1
6AD8
AF5
46FF
1EF3
4896
6504
3AE9
4C6A
1E3C
4E8B
16DE
6430
281
313D
2D15
3DEF
32E5
12A9
6079
50B9
7C80
252B
67D5
4BB5
EDB
3215
587F
17F2
4E41
5DC1
1693
1D3D
275F
91E
47A3
3931
49B5
79F7
40B4
3EE3
2F00
24D9
2412
56F7
1974
6CA2
35EA
32F0
7621
6731
6BFE
4412
1E21
2D1E
3ECB
C08
59B1
308E
52C9
3BEB
13EA
5571
734D
7F19
FA7
C45
4AD0
948
6C40
18EF
7652
7AC
1A76
232D
5C73
16E0
2D65
9FB
12C5
5E76
2913
5C2C
69B6
4B4E
1B5B
5D7A
4BB4
45C0
226D
305A
3C50
5DA6
7199
3207
641B
102C
1F89
6351
2E7C
6E40
417E
3E50
32FE
34CB
15C9
4F7F
4115
12A9
2AFE
5BAA
26F8
1909
5256
F80
36
964
6CFD
1671
51F0
5EDB
7E9D
50FE
568E
65BC
61F9
4E3A
34A7
199A
2A53
28F8
6AB3
2315
2F75
51AA
5C37
2235
1A9C
5CDC
3FC0
3609
49EB
46AD
690
6987
33A7
5A15
66B9
197A
37CC
3E67
25F6
3CC8
2AC1
508
7FDD
7852
36FE
B0
1BBE
1AA1
3607
76EB
5E8D
1350
42EB
7A4F
17D8
242C
37D5
2CBF
1A2
64C0
29FC
3CA9
3BDD
48BB
32B3
2B86
1C2C
7A3A
5ABF
16F3
137E
152A
7BB6
20B
4B19
26C6
3520
5A12
6272
7201
6A3E
6E2
EAE
B8F
450E
2048
44DB
4E3
7479
3DA4
5ADC
557A
704D
2917
62DC
2174
60FD
6377
AAD
328A
85A
6605
7CB8
52D2
6C47
7381
72CD
2AF6
562D
88E
652B
6B5A
7CD1
4939
3B42
5BF1
3991
78A5
2154
13B2
741B
2500
4BD
1E9E
1081
2549
44D3
295
30DC
4DA1
6AC2
5DA0
6753
5523
1D3F
4263
7DDE
6256
6C69
4EB3
3A58
675D
4D4E
51DF
3EE7
4740
45DF
2D99
684A
BDB
FA
A2A
1426
67BB
7854
452C
5A0D
5549
22C7
6544
1CF7
54F5
2761
25C8
CB8
C99
33E8
6166
4EED
471E
2F22
449C
EE4
3751
1212
1CD7
52F8
61E3
3EED
50AB
1097
4ED5
676C
4B70
5385
2076
6175
1AF1
595F
611D
5DDA
7254
29B
602E
62A4
5CF
43BD
24D7
22AB
40C2
2BAC
75E9
6969
6EA5
6491
4761
7C27
28B2
204D
26DD
4866
66CC
3B70
7660
3D3D
342B
6EDA
3514
7D3
26A9
68D5
2560
4054
5759
1699
1060
74F4
1D70
2F76
6D27
6B48
4B90
74C6
27A7
6BD1
7330
7926
238C
304C
3EEF
7A81
288A
653E
19FD
688B
C7C
5D3C
7696
892
4754
22F
3F67
71E8
571
2743
32D7
505B
633B
69D7
3D92
60A4
AAF
6196
6B89
4083
4EBD
502C
38DC
EF7
1728
F25
6105
661
7680
28EC
682F
3096
5343
2815
6B1E
74D5
29FC
5506
77B1
2AA
2848
6F91
57B8
1E35
1E69
4B1F
3B95
271D
5BF8
53A4
7A57
2025
5FF5
67B3
602E
1764
5777
2864
3031
5224
6FE5
2BE0
235D
64CD
3FF1
7B9D
4F
4A8E
1209
58B9
5152
54C2
53BE
71D2
23A0
2FCD
5AD0
6B94
6085
7979
2EAF
C32
7A79
359
4352
59A9
5C36
554A
1EBB
8DA
32AA
238B
5367
42D7
1037
71A
6058
6817
554C
66B2
5A92
5236
4F04
1D5
310E
4A73
BC4
6AB1
6F88
3596
3880
3BC0
4452
3ECB
25D1
B1C
1FD0
110
7D07
5156
570B
6E05
4616
3779
26FF
3D5F
22AB
3DBB
839
7B20
593E
607E
4895
CBF
646C
7341
25FB
6AA3
63AC
DCD
1D99
23FF
80F
63A8
7BBF
5CB4
69CF
4E61
3A0D
590E
2325
E57
5FA2
7561
7B64
7F95
7B01
20FC
781A
2774
D26
6A81
58E2
184E
59F9
6857
CAA
73BF
67DA
3B7F
5C9B
7EE6
1FC5
681A
7DE6
5D1B
604B
6952
222
7C1F
E26
7266
2348
1C97
1493
6C0C
3F57
6051
2FED
7B3F
750
304C
287B
531B
4926
2E71
65BE
F90
4261
7DE0
5CAE
275E
582D
80A
27B6
5C3D
24E3
186A
5321
445A
35BF
5C98
21E7
6768
5059
4F4
1B12
4924
25FC
1244
FE7
5A32
40E7
5B9E
4139
132F
4A62
34AF
E31
3ED9
14B4
15B1
52DB
25E3
4794
63BA
47C4
167E
656C
33F9
42B5
3C09
5454
2895
46BA
324A
6F40
62C0
120B
72A5
36A0
50D8
640E
36F8
1A61
5AD5
431A
3525
7BE9
1396
30FF
527C
302A
44D0
1B1
3C91
1D57
3DD9
6624
4AB1
1F88
784B
33E6
30CD
6BF0
2469
601
1893
4E93
4D49
7CFA
6E2A
2FFF
FC
3246
7528
3748
1470
5C5C
139E
3CF6
4994
4D1D
7BB1
48C7
63C7
5A05
57C0
2FE5
537D
7D28
1E9D
28EB
406C
6448
325
11A
5E19
4BEB
5B84
383E
7E0
373F
381D
3875
764F
38F7
5A36
8E3
6298
7D80
39B1
18C7
11AD
7177
40A8
256C
2225
6228
D12
6DF5
6528
5BEE
116
7AE2
6AC2
5279
38C9
678
6F3E
5801
2F63
386A
383A
6141
4F5F
236D
33BC
3974
6E33
5E39
3C42
76C5
7788
37B5
7255
6C8D
4BA6
1E42
7E2B
18A3
20D0
544C
64B0
7167
54A2
1074
14A
25E6
532C
6C06
65CD
1D11
2588
66DD
5655
18EE
61D
496D
5583
3F70
7C10
5EFB
3C59
6908
6995
39E9
5FC1
3E45
3C6E
423B
3D40
225E
2212
3FEA
7A5C
6C01
29F4
5568
6867
3E0C
1DB1
4BC3
10FD
494E
7612
6FE6
2397
638F
7F76
41A0
2794
6018
6E37
FAA
4DE9
2269
3BA5
5DF5
694
3405
291E
346
24D5
3CBA
4AAA
2E92
11BC
262D
3CB1
1F1A
4BEC
7F5B
2707
5ACB
1E80
3587
6F71
2EBF
2DAB
1A7
7898
5807
7FD2
8F9
4606
19A
32BE
2503
3899
261E
61EE
FB7
54DE
7BA6
6D14
2CB8
2E36
4F3C
69D7
663C
70FD
57BF
36C7
3024
3330
43AB
2D50
5892
5699
1D2A
63FB
44A5
6015
1151
5F66
857
3AC8
754E
1597
3ADF
321A
49F5
5F31
2E9D
5F48
4B55
5FCA
5F75
411A
3BA2
1A1C
1943
2163
4E86
349C
60B7
503A
4650
551
7841
6CEA
4BC5
D71
49EA
67C9
5B17
2951
1259
2458
6FB4
6647
2332
7B63
6456
D2D
1E77
213F
41FB
76D7
2A76
1308
174B
52DF
7DDA
4940
2466
A1
36EC
2195
1E53
5542
62FA
2B
3A2B
1218
24D1
3CFB
2F64
4A44
272
3BD0
F39
2F6D
22BB
4ADC
104F
896
48D9
7079
6EB
56FC
2FB0
7B51
57D
41A3
4BF8
585B
6135
E6C
7650
577F
4738
70DA
385
2F18
7A10
27BB
5C41
D5B
7A2A
5B96
1333
4AB2
1156
1FB4
299B
5534
EA8
2C3C
12CB
6065
2D4D
7D84
4A0E
4CD3
2AE8
836
238B
5133
54A1
6D6F
6F0D
3B20
7040
323E
7826
2A07
137B
BBF
19B5
5AB
98C
44F1
2078
28B1
267F
994
5E80
5E3C
4AE0
26B2
208E
4C2
2896
3E80
251C
2EC3
104B
BCB
725B
1B6E
39A4
1BA
7E54
3B75
2CDB
4136
5F2E
3499
3D32
7C2E
422D
796
1E2B
369E
7E2C
5327
550D
2D6B
50DB
4EB2
8E7
273D
43DF
3B77
7EB4
5EF0
2509
1D8C
4732
6E78
5840
2292
6506
12C3
DF4
2660
C1D
7A95
77DF
24B6
283A
16DB
2367
6C0
1679
5125
2563
448E
3862
7814
5E07
7F1F
4B8A
1538
48D5
73F7
6505
764E
1A9F
5FE0
63E5
EFD
4535
816
7775
5828
7348
387B
1C64
1AF1
201F
B69
767B
7E1
2B4F
69C1
6335
729B
3A42
5346
3B65
6685
4332
72E8
6F07
22BE
4BAD
7BFB
5C19
EE6
75E8
5A85
526C
1681
5937
4F03
29F3
66D3
49EC
4665
AE5
12AA
7F1B
25A5
5C3D
366F
38DC
16E1
1A3B
4D0E
78C1
54EC
D2C
AC8
144D
2DE1
5465
5CAF
435E
2DD6
1150
7737
5822
D86
50A8
B45
6598
4074
2092
2B90
4C83
7059
575E
2794
3294
68CD
7063
7DB
1937
48A4
310C
2A8F
60C9
2626
208F
1A12
2ADC
59DA
7E13
74DE
3648
6028
5DFF
2ABB
7848
3C76
25E8
1067
3D95
5DAC
73FC
D71
78F5
A22
45
1C96
5C52
5D3A
7EBC
29EB
4B64
67AC
6FBF
176C
1364
776E
DA8
3B21
1E37
34D2
211D
5BB6
7664
35D
5C9D
CE0
E33
476A
2C4D
635B
3B04
6861
E40
4BCB
63B3
BED
7623
26B8
3BC2
28C3
1987
63B2
17E2
61BD
7B92
2EA
6A23
1E54
5CA8
3F4F
44CF
6591
1255
4DBE
1C2A
8BA
7DE3
1BA7
39A6
3CF
CAB
585
350A
5421
15B8
1E6B
7917
6A08
5BE3
4779
16E5
D76
5867
72C8
61BD
75DC
A4
8FF
BD1
1B06
48E0
7480
7223
7B6E
789C
72CA
6556
37E
36AE
769B
5EC7
5682
4992
5388
7EE
118B
6FAB
144
391E
312C
6BBE
1D29
3BA
73EE
658
49E6
AE8
6E04
2C07
3DE4
61F3
1F37
68DA
2934
4692
2268
4A5B
6EF6
2CED
4B65
8B8
1FA2
8D6
7B46
6AF2
63A5
5D3
4FD5
116
6214
7230
1BC7
41E2
30B5
3ABA
7D30
51EE
61D2
5609
300F
5462
62B7
4497
1291
550F
2709
618
1E21
5836
20D1
32A7
965
16EF
516B
3D68
3690
5A1B
65EB
4EEB
921
5394
13C6
6E0A
950
4029
6D95
723A
7C68
6479
2761
6675
4C24
33E0
4E8C
76C6
58EA
5520
2D14
78EE
15D6
6922
10D5
114D
17D3
3B15
36B
535A
4B78
2FA5
3ED3
449B
7D43
1178
623A
23D4
5C30
2BE5
6923
5BDB
68F2
3443
7C2A
2277
1968
1EE6
72E1
60D4
47FF
686D
59F2
AE4
1B13
6E7C
52BB
6556
60FD
220D
6D0A
59C0
34B5
4BDD
7356
200C
3AD6
7386
4A90
3B9D
CD8
7008
7D06
37D7
7945
2098
C5F
F61
6485
70D0
12E4
103A
4BA4
1FA0
6891
6109
791B
14F5
42D4
3127
6595
1E23
11E3
2D55
4F16
1BD6
7065
A5E
1CFD
7662
5473
44A3
38CD
2D94
6BB2
780
7A16
324C
40BD
4D7A
4895
3FD5
3759
692F
73A
25D7
7A51
6613
783D
2CFA
4130
4E08
4235
3A29
2B00
672A
1B91
1921
6B40
2B00
69D7
3B21
434A
5EC0
344C
355C
63EB
3551
6371
15AD
578D
56A9
7FE2
6D55
63C1
5E93
332
7914
2AA9
6B11
248D
12CF
30A8
3756
2F0
59C
18EC
5D2F
54AE
358B
20BB
1316
5D40
3353
55B2
2A5
68A1
2795
31A2
2678
54C2
C73
12D3
488A
7333
1E0B
3810
1B87
2606
34FC
94E
5445
30BF
76DB
3016
2E32
222B
140C
4ACB
2AB0
3BB3
2264
6612
6F14
77C5
6CA0
7C6
7D7B
1AAD
E18
5239
686C
105
ABC
2492
7E37
4971
D0C
644B
E9
649B
7D88
4017
1656
1A52
37AB
2498
48AD
29FA
4291
2AB2
13CE
2469
1A71
76F7
98D
265C
2D7A
5B09
19FC
5D5D
EC9
1F55
1835
4A80
3B2F
3FC1
332C
117B
49AF
33C5
CBC
4E52
4EC4
73B9
820
7E65
7F8A
FB3
230E
582B
5CFB
EC
2918
2B99
1BF9
6C60
137D
75C1
34A4
5264
7DC9
B91
6D79
F96
2F04
3BC8
28B9
2547
62E9
442D
2116
B4F
64C0
1575
241D
6951
6772
794D
3267
655F
7F7A
5DD8
49E9
4AE5
182A
7EC7
7D1B
17FA
31C3
4736
1572
4750
36EA
50B
3F3D
6B8D
3945
4C64
64A2
7343
542
5A30
4737
5624
2AFB
684B
7985
294C
5029
6776
3D39
56A4
491C
7AC8
3527
20D1
4270
FA4
1F8D
1065
218F
DE
25BE
1BEE
5201
591F
43CB
4830
4DAC
69D
652D
1957
2EC0
442A
2B1D
21CB
3924
6B29
3BBB
7173
46CF
78C8
2E9A
15EF
45AD
3349
1D43
15DF
6BE4
6B36
3CE2
74C6
1472
B45
7E99
5013
531F
9EA
73BD
46EB
3DDE
163B
378
1F69
4210
CE0
2E9C
33AB
6499
13ED
629E
6D7F
35C9
49B6
41EF
4994
1093
2AAE
CA0
49D2
507F
47C5
8D1
152E
65BB
5479
254C
15CE
68F2
4457
608
C63
12D6
27A
629
71EA
1825
32F1
5272
2169
E22
7AEF
59ED
43A8
5E41
4D3F
7F89
2DE3
63F7
3F47
6322
218D
2DFB
32A6
1C5
1F1F
6595
22D1
7773
2736
14C9
366
317C
7642
10AA
6441
6A6D
21A7
1487
2794
424D
789A
47FD
7233
5ADC
1FBB
3ADD
3B08
27A6
7B20
255C
3619
1958
4E86
21D3
44DD
10F7
19CC
C20
7E9E
6AC
12A4
3381
750B
1A71
50F2
3D61
5971
6B00
6A8C
3E9F
5F4F
50C1
32DC
3E8C
3D1D
5614
718A
6FE
1615
6D98
5648
29BD
2FCD
6B0F
587D
7FF7
7AE1
3DF
551E
5E84
606C
2E60
989
6C52
6E47
171F
340A
70D4
5C77
339A
5228
3890
2973
1E5D
3EAD
3353
60C9
57CF
56D5
23AC
30BD
1154
5F4B
3FF8
79B3
22D8
6010
7C18
4875
6CC4
16C7
7639
5C0C
1D2B
1475
4309
436
325E
23C2
A
574C
4903
714
4638
21D
40D0
348E
258D
3408
1268
3C61
52ED
40A4
2496
483E
65B
69EA
6CD2
5A30
7C6C
3960
2434
666E
FA2
3E6
70F4
DA
6B37
7E01
602F
16A
6243
5B17
70BA
57ED
225B
47A3
1EA2
68DB
1017
115F
3EAE
4861
2529
3396
44F4
DB3
7F75
51C3
FAC
43CD
D97
1C4
7736
5AFA
7A10
7AD1
631A
21F8
1001
6814
3B02
59B0
306E
54F4
5310
7DED
C1
7F38
4E14
4159
55E6
332F
CD6
14C
399B
6BFA
1CD0
1CDE
BEE
2208
6614
3A72
77EC
6050
20B8
7A72
5708
67B
2E0D
1024
D2F
6E35
259
354F
2FFE
7AE
749D
2716
B59
2F5C
2F16
4AA8
1A2
1539
5EEE
3C5D
3EA4
27F5
13D3
5C8
3B6C
1CE0
61BF
418F
1FB4
4BD7
1A97
71CD
45A4
BE9
2ABA
152A
84D
57FD
63D5
6757
5A35
155A
1FAA
62C7
33BA
39B5
2755
5D37
2788
5313
62CD
4BD6
6356
6B63
116F
6F6C
25A1
7605
53A
34E8
2A7
1F4D
4D4A
24DD
2F77
E41
491F
5D51
5A73
2914
603E
4E53
5C76
6C8C
405
3969
2C9F
6B17
388E
3C85
4B3A
2C6B
2B04
6727
4E78
748C
6049
1C1F
46F
35E4
3A30
7192
40B0
44A0
20ED
7A7B
3AC8
22E6
CB2
7AD4
7737
6186
5F4E
7BBF
260B
F8
2BB1
38D4
78EB
4C57
889
52F3
414F
7E1A
47D1
49CD
260F
2AAC
4596
7B8F
268D
11D2
24A2
6F09
3643
11
4662
6ABA
52C
331
19DA
1317
36AC
60F0
73B9
544F
6B46
2128
62D7
7EDA
5825
1E2F
136
3A7E
1188
883
4CF
2F4F
7338
4AF7
47E0
3C01
4F4A
10B6
4BBC
276F
204F
48EF
333E
3063
7C84
7441
3764
4226
558F
5E92
44E7
2E32
4604
AAE
2A53
6117
594D
6F3B
1923
694F
2B96
35CB
FEE
6804
3526
1455
2A50
641
5125
545
5A4E
67AB
3087
32D2
41B1
120C
780C
66A1
5592
4A9F
6E28
20C0
6C63
5EF4
18BE
8BD
2BC1
4F85
3664
700B
10C8
6DB
1D80
